#version: 0.2 - Trained by `huggingface/tokenizers`
Ä ±
a r
e r
Ã ¼
a n
i n
Å Ł
Ġ b
e n
Ä± n
i l
i r
Ä Ł
Ġ k
Ã §
Ġ d
Ġ s
a l
Ġ y
a k
Ġ g
l ar
Ã ¶
e k
e l
Ġ o
Ġ v
e t
m a
l a
Ġ t
Ġ i
d a
u n
d e
l er
Ġv e
Ġ h
o r
e s
i y
a y
i z
a t
i m
i k
e m
o n
Ä± r
Ġb ir
â Ģ
u r
a s
Ġ B
e d
Ġ m
Ã¼ n
l Ä±
Ġo l
Ġ Ã§
u l
a ÅŁ
Ã¼ r
i s
Ġ A
a m
e y
a p
Ä± m
i ÅŁ
Ġ a
i t
Ġ K
Ä± l
l e
Ä± ÅŁ
Ġ il
Ġ Ã¶
Ġd e
Ä °
a h
Ä± z
u m
Ġ S
a z
âĢ Ļ
Ä± k
Ġ p
Ġ T
l i
a b
d an
Ġ M
Ġi Ã§
Ġ f
Ä±n da
y a
s t
a ÄŁ
l an
Ġ al
Ã¼ z
a d
Ġg Ã¶
o k
lar Ä±n
in i
in de
in e
e v
Ġy ap
Ġ ÅŁ
Ġ n
o l
d i
d Ä±
lar Ä±
Ġ D
Ġ ar
d u
c e
Ġb u
d en
es i
ma s
Ġ Ä°
Ġ Ã
Ã¼ k
Ġ E
u z
Ġ H
ler i
u y
Ġ Y
ĠiÃ§ in
il er
Ã¼ m
al ar
el er
m ak
Ġd a
Ġ 1
Ġ G
t i
iy or
Ġ 2
Ä± y
Ġil e
Ä±n Ä±
a f
Ġ z
Ġ r
c ak
ĠgÃ¶ r
Ã¼ l
ÅŁ t
Ġ ed
ÄŁ i
in in
Ġb aÅŁ
. .
Ä± s
l ik
Ġ et
e c
d ir
u t
o ÄŁ
Ä±n a
Ġ an
iy e
il ir
e Ã§
Ġs on
il m
Ġv er
Ġk ar
u k
Ã¶ n
Ġ P
Ġg el
in iz
u s
Ġg er
t Ä±
ek t
d Ä±r
e z
e b
ĠÃ¶ n
Ã¼ y
lÄ± k
t a
lar ak
ÄŁ Ä±
Ġ O
l en
Ġ in
Ġol du
Ġk on
Ġ (
Ġ c
a v
Ġo larak
i p
i b
r o
Ġ ay
Ġb il
Ġt ar
Ġ en
e ÅŁ
Ġ âĢ
mas Ä±
c Ä±
Ġ F
Ä±n dan
Ġde ÄŁ
m an
la y
t Ä±r
Ġi ÅŁ
Ġol an
Ġ C
Ġy er
ĠÃ§ ok
l em
r a
m Ä±ÅŁ
u ÅŁ
Ã¼ ÅŁ
Ã¼r k
an Ä±
ah a
ed i
t e
Ġb ul
o p
s e
t an
im iz
Ġk ul
un u
Ġk al
l u
as Ä±
Ġi st
Ä±y or
Ġk ad
ĠB u
Å ŀ
Ã¶ r
Ä±n Ä±n
Ã¶ y
o m
ib i
i h
Ġg Ã¼n
Ġ e
en i
c a
Ġa Ã§
Ġo r
Ġk ur
Ġkul lan
y on
a ma
ar k
Ġ2 0
Ġd aha
il i
Ġs Ã¼r
ĠÃ ĩ
âĢ Ŀ
Ġy Ä±l
Ġh er
al Ä±ÅŁ
m e
Ġoldu ÄŁ
is i
t ir
ler in
ak i
Ġ uy
ek i
al Ä±
la ÅŁ
Ġ R
Ġv ar
Ġb el
k i
Ġg eÃ§
ÄŁ r
Ġg ibi
Ġ ma
s an
ĠÃ§ Ä±k
am an
Ġ N
Ġy aÅŁ
ĠÃ§ alÄ±ÅŁ
a Ã§
ĠâĢ ľ
Ġk en
Ġy ar
ĠT Ã¼rk
i c
il en
Ä±m Ä±z
Ä± lÄ±
Ġ Ã¼z
el i
ĠÃ ĸ
ey e
a da
m alar
o s
m ek
ed en
Ġbul un
er s
e h
la ma
k en
is t
Ã¼ t
m et
ĠÃ¼z er
ec ek
er i
Ġo n
Ġ 3
un da
Ġ el
l et
ĠÃ¶ z
r u
m iÅŁ
Ã¶ z
Ġger ek
s a
Ä±n Ä±z
Ġs aÄŁ
iy et
Ä±l an
l Ã¼
Ġ V
0 0
Ġ ek
g i
e ce
Ġkad ar
in den
Ġs ay
Ġ Åŀ
o y
iy le
d aki
Ã¶ l
Ã ¢
Ġy az
ĠA n
o t
a c
Ġy Ã¶n
Ġz aman
Ġ u
Ġs or
e p
Ġo la
Ġd ur
Ġk ay
Ġt ek
' d
Ġp ro
ay a
an s
a de
Ġ L
Ġkar ÅŁ
ar ak
as Ä±nda
m en
Ġo y
.. .
i d
lar a
Ġh al
aÅŁ k
i f
Ã¼ c
Ġa d
Ã¼y Ã¼k
Ġt op
Ġde v
Ġd Ã¼ÅŁ
Ġtar af
ed ir
Ġ ak
Ġk at
Ġson ra
e f
Ġd oÄŁ
o c
Ġ20 1
un un
larÄ±n Ä±
er k
Ġ Ã¼r
Ġuy g
ma y
Ġs ah
e de
er ek
ar t
Ġa ma
ma ya
im i
aÄŁ Ä±
ĠÅŁ ek
Ġi se
Ġy an
Ġk ap
dÄ± ÄŁ
Ã¼ Ã§
i Ã§
Ġb en
u ÅŁt
Ġd Ã¶n
la m
Ġ U
ÄŁ er
ar Ä±
n in
d eki
s iniz
y i
ĠÃ ľ
ÄŁ ini
Ġh ay
Ġ -
uy or
ler ini
Ġbel ir
Ġ "
dÄ± ÄŁÄ±
Ġs iz
Ġ l
Ġh ak
ar a
Ã¼ s
ab ilir
Ä±y la
Ġal an
ĠÃ¶ ÄŁr
Ġ at
es t
Ġy ak
i v
t ad
ĠÃ¶z el
Ġ ev
Ġve ya
eler i
d Ã¼r
el ik
Ġ 4
d Ä±m
es inde
s el
k in
c i
Ġger Ã§
Ġy eni
lar da
Ä±s Ä±
Ġs ev
Ġk iÅŁ
Ġt ak
r am
un a
Ġd Ã¼z
il di
l ey
Ġ 5
Ġ uz
ler e
t er
Ġn e
Ġken d
Ä± la
Ġg ir
Ġg en
Ġb Ã¼yÃ¼k
Ġy Ã¼z
Ġd en
ĠTÃ¼rk iye
Ġil g
Ġin san
Ġb ak
st er
ĠA l
tad Ä±r
iz met
c u
et im
ekt edir
iy at
Ġor t
ÄŁ it
o d
a cak
em iz
Ġy ol
iÅŁ tir
Ġh em
ĠB ir
t r
ĠÃ¶n em
Ġb Ã¶l
Ġo k
ĠA r
Ġb iz
Ġ es
Ġil k
Ä± p
an lÄ±
ÅŁt ir
ĠaÃ§ Ä±k
Ġy Ã¼k
Ġtaraf Ä±ndan
ĠdeÄŁ il
Ġb aÄŁ
ĠgÃ¶r e
mak tadÄ±r
Ġs Ã¶y
s un
ÄŁ u
n e
Ġk o
Ġd o
Ġk i
ĠÅŁek il
Ġdur um
Ġf ark
la t
b ilir
Ġh ar
ĠB aÅŁk
Ġi z
Ġtar ih
ey i
ĠgÃ¶ ster
Ġ as
a at
u h
en in
Ġi yi
Ġs eÃ§
ĠolduÄŁ u
ĠgerÃ§ ek
as yon
r an
uÅŁt ur
le ÅŁ
Ġh izmet
eb ilir
Ġd er
li ÄŁi
Ġs er
m esi
larÄ±n Ä±n
b ir
o z
t ik
t en
iler i
Ġy et
ĠkarÅŁ Ä±
Ġ I
et ir
t Ä±k
Ġy ok
Ġs an
Ġol ma
ar et
u p
d ur
Ġp ar
Ġal t
an Ä±n
Ã¼z el
r e
Ã¼ v
r Ä±
Ã¼ st
Ġo t
ĠÅŁekil de
Ġi h
al Ä±k
Ġy a
n Ä±
ab er
n Ä±n
ĠÃ¶ÄŁr en
Ġt Ã¼m
ÄŁit im
Ġm il
Ġg etir
ĠgÃ¶ z
Ġbil g
r et
Ġh as
Ä±m Ä±
Ġs Ä±r
Ġn eden
ist em
Ä± cÄ±
r af
ĠA y
ĠK ur
larÄ±n a
i ÄŁer
ler de
Ġ Ã¼l
erk ez
Ġilg ili
ol o
le ÅŁtir
Ġm Ã¼
oc uk
Ġk az
Ġt ut
Ġd Ã¼n
Ġs Ã¶z
ĠÃ§ ek
Ġsah ip
ĠE r
2 0
t ar
ĠdeÄŁ er
ul u
Ġa z
ĠdÃ¼ÅŁ Ã¼n
es ine
ĠÅŁ ey
Ġdev am
Ġ Z
Ġyap Ä±l
d Ä±k
b ul
ay an
k a
Ã¼y or
Ġ 6
la h
p or
ï ¿
ï¿ ½
iyor um
Ġh az
Ã ľ
d er
Ã¼v en
o b
h an
Ġt er
Ġi s
ĠÃ¶nem li
len dir
ĠdÃ¼z en
ĠÄ° n
ĠolduÄŁ unu
Ġs u
s iz
Ġet ti
s i
Ġy ay
Ġ1 9
Ġf az
Ã§ e
us u
ler inin
Ġs at
ĠÄ° l
âĢ ¦
en iz
Ġb in
ÄŁ iniz
d Ã¼
il ik
es ini
ĠÃ¼l k
ler ine
Ġal Ä±n
olo j
ĠB el
Ġt aÅŁ
Ġg Ã¼zel
lÄ± ÄŁ
Ġk Ä±s
ĠiÃ§ er
Ġbir lik
Ġe de
Ġd uy
Ã§ a
Ġson u
st an
ĠiÃ§ inde
Ġfaz la
lar Ä±nda
Ã¶y le
Ġb as
Ġhay at
Ġet m
s Ä±z
ĠÃ¼r Ã¼n
az Ä±
s ek
Ġol ur
Ġar asÄ±nda
ĠÃ¶n ce
Ġs it
Ġi ki
al an
Ã¼n de
es in
u la
Ġs un
i de
iÅŁ im
g Ã¼n
d ik
Ġk or
Ġs istem
lik le
Ġz or
ma z
ay Ä±
Ġ aÅŁ
lar dan
Ä±n daki
Ġhaz Ä±r
Ġhak k
i g
ĠbaÅŁ la
eh ir
Ġd iye
Ġt es
g ram
Ġd Ä±ÅŁ
Ġh iÃ§
Ġ 7
alar Ä±
Ġb ek
ĠÃĸ z
ĠÃ¶ l
e ÄŁ
stan bul
Ġt an
Ġk ab
em ek
Ġi m
di ÄŁi
Ġh at
Ġoy un
Ġar k
Ġyap tÄ±
Ġa da
ey en
Ġd iÄŁer
Ġet k
mÄ±ÅŁ tÄ±r
il ecek
B u
Ġt em
Ġgel en
Ã ĸ
t Ã¼r
Ġkon u
ĠG en
Ã ½
u b
l edi
ilm esi
ru p
li ÄŁ
ĠA k
ade ce
Ã¼ p
ĠdÃ¶n em
Ġbirlik te
lÄ± ÄŁÄ±
ul an
y e
Ġol mak
os y
ĠM Ã¼
Ġa ÄŁ
Ġfark lÄ±
ekt ir
Ġay nÄ±
ĠB ak
Ġ ,
Ġk Ã¶
et i
u v
Ġs aat
c el
Ġk im
Ġm es
iy on
as Ä±l
Ġkaz an
malar Ä±
Ġd ik
Ġb oy
Ã¼n Ã¼
ĠÃ¶ r
Ġyap Ä±lan
Ġola cak
o ÅŁ
Ġb ur
y or
Ġd il
Ġ eÅŁ
Ġed en
iv ers
lar la
ĠÃ§ ocuk
ĠiÅŁ lem
ĠK ar
b et
Ġ1 0
iler in
m eye
Ã ĩ
ivers it
as ar
ol u
ik a
Ġd edi
Ġbelir t
Ã¼t Ã¼n
m ektedir
ler inde
Ġg Ã¼ven
o g
an a
Ġy at
Ġ 8
k Ã¼
d ar
ĠE n
ÄŁ imiz
Ġi f
Ġ Ã¼st
em e
ĠdoÄŁ ru
ĠgÃ¶r Ã¼n
abilir siniz
l uk
iyor uz
ĠgÃ¶r ev
Ġk an
Ġh af
ĠbÃ¶l g
mas Ä±nÄ±
ĠÃ¶n c
ada ÅŁ
Ġt ama
n un
il ece
Ġs en
Ġken di
Ġil iÅŁ
20 1
m uÅŁ
Ġk it
Ġm al
ĠÃ§Ä±k ar
Ġt el
or m
ĠÄ° stanbul
lar Ä±mÄ±z
Ä± t
Ġt Ã¼r
Ä±z Ä±
ĠBaÅŁk anÄ±
is inde
k an
k at
lay an
Ġm od
ic i
ĠdeÄŁ iÅŁ
mas Ä±na
n et
Ġs adece
h ur
Ġbulun an
n a
Ġm ut
Ã¼n e
Ġs Ä±k
iy as
Ġtek n
l ak
ÄŁ Ã¼
Ġk am
Ġt ab
ah at
Ġkar ar
ĠP ro
ĠÄ° s
ir k
Ġih t
Ġda v
Ġ er
Ġn asÄ±l
Ġk r
Ġh av
Ġm ak
m alÄ±
r ak
es inin
at Ä±
c aÄŁ
dÄ±ÄŁ Ä±nÄ±
Ä±r ak
ĠBel ed
ler den
or t
Ġs al
Ġf iyat
l Ã¼k
Ġuyg un
ĠO r
Ġ W
ĠK on
in g
Ġyar dÄ±m
Ġ :
en d
Ġe ÄŁitim
Ġb un
Ġb it
ac aÄŁ
Ġed er
ekt Ã¶r
Ã ®
Ġg id
Ġu laÅŁ
en k
il iyor
Ġg it
la ÅŁt
ok t
s Ä±
est ek
us unda
um hur
t Ã¼
Ġol masÄ±
Ġ 0
Ġkur ul
Ġoldu k
s am
g u
ek et
Ġar t
E R
g il
Ġ J
Ġpro j
ĠB il
av aÅŁ
Ġark adaÅŁ
ĠA v
ĠâĢ ĺ
un uz
may Ä±
Ġol uÅŁtur
lan an
ĠÃ§ ev
Ġ 9
Ġb Ä±rak
Ġf ir
ĠgÃ¶ n
m i
ĠyÃ¼k sek
u ma
Ġb ah
Ġma d
b ar
A N
Ġt e
v an
Ä± ÄŁ
ĠÃľ n
Ġdik kat
Ġd em
ĠÄ° ÅŁ
h al
Ġy Ã¼r
osy al
Ġpro gram
lerin den
or um
ĠÃ¼zer e
Ġ ce
Ġi k
Ġg Ã¼Ã§
s al
ler le
t al
ÄŁ im
r i
Ġgen el
ab a
Ã¼m Ã¼z
Ġbil e
g el
ĠgerÃ§ek leÅŁtir
du ÄŁu
Ġ em
Ġ '
an da
Ġkon uÅŁ
ĠÃ¼zer ine
A R
Ġp ay
Ġbir i
eler in
may an
oÄŁ lu
Ġk aÃ§
larÄ±n dan
Ġed ilm
Ġ Ã¼y
ĠGen el
k Ä±
lem e
ĠÃ¼r et
Ġhakk Ä±nda
rÄ± ca
Ġol uÅŁ
g e
Ġkay n
Ġkad Ä±n
len en
Ġd estek
Ġ #
ĠyÄ±l Ä±nda
ĠÃ¼zer inde
l um
ler imiz
o v
ed ik
Ġsor un
um uz
aÅŁ tÄ±r
en t
Ġf ilm
ĠMÃ¼ dÃ¼r
ĠgeÃ§ ir
ur t
Ġh Ä±z
ĠÃ§ Ã¶z
Ã§ i
Ä±r Ä±m
Ġko lay
ĠM il
Ġm erkez
Ġan lam
a j
Ġd in
el im
an t
Ġuz un
f a
Ġb Ã¼tÃ¼n
ĠbÃ¶l Ã¼m
a cÄ±
r ar
Ġiht iy
Ġb azÄ±
Ã§ Ä±
ĠB aÅŁ
Ġ1 5
Ġm uh
Ä±l Ä±r
il e
Ã¼n kÃ¼
ef on
g an
s ik
Ġ20 0
Ä±l dÄ±
on om
ÄŁ in
al i
ĠyÃ¶n et
t Ä±m
Ġt am
Ġf a
man Ä±n
ĠS on
ĠbaÅŁ ka
Ġoy n
Ġhas t
Ġt asar
Ġtama m
ak at
Ġt eÅŁ
Ġs eb
ĠbaÅŁ ar
ĠB ur
Ġ un
Ġm et
ĠE k
Ã§ ok
s in
Ġort aya
Ġbil gi
Ġr es
irk et
Ġ Ã¼n
Ġgel di
s iyon
Ä±l masÄ±
Ġk oy
Ġs Ä±
m er
Ã¼Ã§ Ã¼k
Ġh ep
Ġ %
v er
ti f
ur u
Ġ Ã¼Ã§
ĠsaÄŁ la
Ä±lÄ± m
ĠÃ¶ÄŁren c
Ġson r
iniz i
an k
Ã¼l tÃ¼r
ĠB en
Ġhar eket
Ġkab ul
ma m
Ġk es
r ik
oÄŁ raf
Ġp lan
Ġgel iÅŁ
Ġm ev
d Ä±ndan
az ar
g Ä±
ĠT ek
ĠÃľn iversit
ĠdÃ¼n y
ĠyaÅŁ am
Ġh aber
Ġed iyor
Ä±la cak
ĠAl lah
Ã¶ k
Ġif ade
y la
s uz
Ġb ey
m in
Ġm i
Ġyay Ä±n
ĠgÃ¶r Ã¼ÅŁ
ĠG Ã¼n
Ġk om
m eler
Ġ w
b ol
eÅŁ it
Ġk Ä±z
ay Ä±n
e g
ĠY Ã¶n
san Ä±z
miÅŁ tir
r es
ĠC umhur
Ġyak Ä±n
Ġh es
ĠkiÅŁ i
Ġy as
Ġr ahat
t em
d um
Ġed ilen
Ġola bilir
ĠM erkez
Ġt ah
tr ol
is ini
da v
m ir
Ġo lay
Ġp ol
g in
Ġben im
Ġz iy
k ara
ĠK an
ĠE s
b er
Ġay r
anlÄ± ÄŁÄ±
is tan
du ÄŁ
c om
Ġb Ã¶yle
ĠgÃ¶n der
m ez
d im
ĠS an
ĠsaÄŁ lÄ±k
as Ä±na
Ġtel efon
Ġ |
in deki
ĠÃ§alÄ±ÅŁ malar
Ġh an
Ġyap an
ĠyÃ¼z de
ma dan
ĠiÃ§er isinde
n de
Ġ /
u ÄŁ
ĠÅŁ u
p er
Ġter c
Ġ la
Ġyer ine
Ġk av
is ine
Ġan cak
Ġar aÃ§
el e
Ġuyg ula
ĠA t
Ä±n Ä±r
un dan
Ä±yor um
ĠY ar
ĠdÃ¼n ya
Ġbil in
ĠD ev
tÄ± ÄŁ
iz e
ede f
Ġ Ã¼c
ĠH al
t ur
Ġkon usunda
Ġkap sam
ekt en
Ġk Ä±r
c ek
ĠdeÄŁer lendir
ĠP ar
Ġkal it
) ,
ĠÃ¼c ret
Ġt ur
n ek
Ġsonu Ã§
ekt e
ama z
Ã¼ ÅŁt
lÄ± yor
ter net
Ġvar dÄ±r
Ġm an
d et
oÄŁ an
Ġar dÄ±ndan
Ġyak laÅŁ
Â Ń
im di
ĠY Ä±l
ĠA B
Ġan lat
ĠAn cak
Ġdo lay
ek li
Ġt al
ĠA ma
ĠÃ§ eÅŁit
Ã¼k Ã¼m
ar asÄ±
ya cak
ĠH er
ley en
Ġ1 2
o h
Ġist edi
. âĢĿ
iler e
ĠE l
ĠE ÄŁitim
Ġ am
lan dÄ±r
Ã¼n Ã¼n
ĠA s
Ġkur um
Â Ĵ
Ġet mek
Ġmil yon
ĠE v
ul uk
Ġk ez
Ġyar at
un ca
Ġd iy
Ġin dir
Ä± da
ek k
az et
Ġbir Ã§ok
rup a
Ġin an
oÄŁ u
la s
Ġb Ã¼y
T Ã¼rk
Ġbu gÃ¼n
Ġis im
ĠâĢ ĵ
uy u
Ġdev let
Ġmod el
Ä±ÅŁ Ä±
ĠgÃ¶r Ã¼l
Ġm ey
1 0
ĠS er
Ġterc ih
ĠbaÄŁ lÄ±
u st
Ä±l mÄ±ÅŁ
ilm iÅŁ
ĠT ar
Ġs es
h e
Ġar tÄ±k
Ä±nÄ± f
er j
1 9
Ġt at
l o
Ġgel ir
Ġk ir
Ġziy aret
ĠB Ã¶l
Ġb er
Ġm er
s il
Ġh is
ĠgÃ¼n Ã¼
n da
Ã¼ b
Ġ Â
Ġt av
Ġi ti
oÄŁ un
Ġy en
ĠÃ¶ de
Ġol sun
iz i
ĠY ap
y Ä±
ot oÄŁraf
Ġkon trol
B ir
Ġgel iÅŁtir
sun uz
as t
u d
ĠkÄ±s a
k Ã¼n
Ġu Ã§
Ġol up
tÄ± ÄŁÄ±
Ġtop lan
Ġy anÄ±
al iyet
ĠbaÅŁ v
Ġs ektÃ¶r
ad Ä±
ĠyaptÄ± ÄŁÄ±
iy esi
Ġ erk
ak k
ebilir siniz
kin ci
ĠT L
' t
al t
Ġy ine
Ġd ah
Ġh edef
ĠÃĸz el
l im
ĠÅŁ irket
Ġ [
ĠD er
Ġalt Ä±nda
uÅŁt u
Ġ201 8
Ġpay laÅŁ
Ġv at
Ġin cel
Ġhem en
ĠsÃ¶y ledi
ĠgeÃ§ en
ĠaÃ§Ä±k la
ĠÃľniversit esi
Ġgen Ã§
Ġar aÅŁtÄ±r
Ġyap mak
m em
ĠyaÅŁ an
Ġa it
iy i
an lar
Ġy aÄŁ
Ä±yor uz
et men
Ġr enk
ob il
ar i
Ġsiz e
ĠB Ã¼yÃ¼k
um u
Ã¼c ad
er li
Ġm em
Ġtop lum
ĠÄ° z
Ġk ol
ab Ä±
ĠM ah
Ġkit ap
Ġiti bar
Ġma Ã§
Ġm Ä±
al ama
ey in
ĠseÃ§ im
Ġben z
b r
Ġs osyal
us lar
Ġv ur
Ġkayn ak
du k
ay et
Ġf Ä±r
laÅŁt Ä±r
Ġzaman da
em m
Ġm Ã¼m
Ġt r
Ã¼s Ã¼
Ġk il
ĠD Ã¼n
Ġada m
Ġ mas
ed im
ĠmÃ¼ ÅŁt
ĠB iz
ĠT op
Ġher k
Ġb ar
as Ä±nÄ±
Ġk Ã¼Ã§Ã¼k
ĠsÃ¼r e
Ġt emiz
Ġb unu
Ġi d
E T
Ġolduk Ã§a
Ġc ev
man Ä±z
Ġ1 8
Ġil Ã§
oloj i
o st
Ġ li
Ġz ar
al e
ĠhiÃ§ bir
A n
is inin
ab an
Ġger i
ec ektir
Ġek onom
ti ÄŁi
Ġm ark
ti v
c h
Ġd ers
z a
Ġp ek
ĠO n
Ġgerek en
ĠÃ¼zer inden
Ġtak Ä±m
Ġuyg u
d Ä±n
ÅŁt e
am p
Ġan la
Ġs Ä±nÄ±r
t in
Ġt anÄ±
lÃ¼ ÄŁÃ¼
Ġd ir
Ġser v
ĠAv rupa
Ġ .
g Ä±n
ÄŁ inde
Ġver di
Ġs ab
Ġver en
Ġad et
a g
Ġp ara
f or
Ġm Ã¼z
anda ÅŁ
Ġon un
ĠdeÄŁiÅŁ ik
an i
ilm ek
Ġok ul
ĠmÃ¼m kÃ¼n
is yon
Ġy orum
Ġd ak
Ġil et
t im
Ġp er
ĠD r
Ä±n tÄ±
dan a
b u
Ġhal k
um lu
Ġet kin
o f
ĠAn kara
d in
Ġbir az
Ġm u
uy la
Ġte dav
ĠÃĸ ÄŁr
Ġhaf ta
el en
han gi
c Ã¼
b ak
Ġtek rar
Ġ1 1
ĠH az
mas Ä±nÄ±n
Ġbil dir
Ġol uyor
lem ek
ĠÃ¶zel lik
alar Ä±n
Ġbiz im
Ġn okt
Ġes ki
n i
Ġtak ip
âĢ ľ
Ä±s Ä±nda
ĠdeÄŁ iÅŁtir
Ġfa aliyet
imiz in
Ä±na v
ĠÃ§alÄ±ÅŁ an
5 0
Ġs ey
Ġber aber
ĠÅŁ eh
f er
b aÅŁk
s u
Ġel e
as Ä±nÄ±n
Ġs iyas
ã ģ
o la
Ġm Ã¼cad
ĠiliÅŁ k
Ġsor u
ĠÃĸ n
A L
e ÄŁi
Ä± ma
y le
Ġbir bir
Ġen gel
s Ä±nÄ±z
Ġs ak
ĠO k
Ġor ta
in ce
Ġh Ã¼kÃ¼m
ĠK al
Ġuz ak
r at
Ġmad de
malÄ± dÄ±r
Ġan laÅŁ
ĠaÄŁ Ä±r
ĠK ay
al Ä±m
larÄ± yla
Ġt Ã¼k
Ġsan at
d oÄŁan
Ġerk ek
ĠyÃ¶n tem
ekk Ã¼r
Ġel de
A K
Ä±s Ä±ndan
Ġyap Ä±
Ġneden iyle
eler e
Ġm ik
s man
Ġs avaÅŁ
k er
ĠÃ§ev r
Ġkal dÄ±r
er Ã§
ĠbaÄŁ lan
ĠÃ§Ã¶z Ã¼m
l ek
ta j
Ġf ay
Ġb ana
Ġk esin
Ġ ul
ĠÄ° Ã§
Ġist em
m uÅŁtur
ĠyÃ¶n elik
r en
im e
ĠB unun
Ġf otoÄŁraf
. "
00 0
Ġal mak
y an
Ġk ut
ĠÃ¶l Ã§
ĠÃ¶zel likle
Ġuyg ulan
ĠÃ§ aÄŁ
Ġb unun
ĠÃ§alÄ±ÅŁ ma
Ġs por
Ã¼ f
r on
ĠAB D
es inden
Ġkon usu
ĠaÅŁ aÄŁÄ±
lÃ¼ ÄŁ
p r
Ġb or
d ak
ĠsÄ±r a
eler ini
Ġ3 0
Ġtem el
de ÅŁ
E N
Ġb oz
Ġ1 4
lar dÄ±r
Ġmil let
Ġb ay
ĠbaÅŁla dÄ±
eler de
Ġm ed
Ġb oÅŁ
Ġd iz
ĠO y
ĠBeled iye
iler ini
ĠAy rÄ±ca
iyet i
ĠH as
Ġg ez
Ġon u
uslar arasÄ±
Ġver m
ĠBaÅŁk an
Ã¼n den
l Ã¼l
Ġs ar
ilm ektedir
Ä ŀ
Ġvat andaÅŁ
v et
ĠT ur
H P
Ġgen iÅŁ
al at
Ġko ÅŁ
iler ine
Ġgerek ir
af a
p an
Ġed ildi
t u
ĠE y
Ġma h
Ġyat Ä±rÄ±m
s at
ĠV e
Ġ1 3
al et
ĠK as
c ut
Ġ1 6
Ġgir iÅŁ
et ay
Ġher hangi
ĠK ad
ĠH ay
Ġin ternet
iz m
Ġay rÄ±
ĠdeÄŁil dir
Ġ ...
Ġsay f
if t
Ġort am
Ġk Ã¼ltÃ¼r
on u
v e
es el
Ġa c
ler iyle
Ġol mayan
ĠB ey
ĠyÃ¶n etim
Ġpar Ã§
Ġr aÄŁ
ĠiliÅŁ kin
az i
Ġr ek
Ġal Ä±ÅŁ
ey im
ĠK o
ĠY eni
Ġn um
dÃ¼ ÄŁ
Ġyan i
ĠÅŁek l
Ġot ur
Ġgerek li
Ġyeni den
Ġn er
d Ã¼l
c aÄŁÄ±
at en
Ġda ir
uk uk
o w
l Ä±nda
ec i
Ġa dÄ±
Ä±lÄ± yor
ĠK om
Ġsat Ä±ÅŁ
ĠÃĩ Ã¼nkÃ¼
it ik
is ay
ĠÃ§Ä±k an
ĠyÃ¼k sel
s Ä±n
Ġihtiy aÃ§
Ġs il
Ġdolay Ä±
b i
Ġb ilm
ÄŁ ine
ĠÃ§ iz
Ġor an
Ã¼c Ã¼
Ġc ih
Ġv ide
Ġort ak
ark en
ma tik
Ġa il
ĠÄ°n gil
Ġhes ap
ĠraÄŁ men
Ġar as
Ġd ol
imiz e
en ek
c an
Ġk ah
Ä±ÅŁ tÄ±r
ĠÅŁ art
ef er
Ġs av
Ġg rup
Ġbak Ä±m
ĠMerkez i
Ġi kinci
ĠK ul
mas Ä±nda
ĠdÄ±ÅŁ Ä±nda
Ġd ok
iniz e
Ġc an
E S
Ġek ip
b e
ĠÃ¶r g
Ġe ÄŁ
ĠhÄ±z lÄ±
in ci
larÄ±n Ä±z
Ġy emek
lan dÄ±
Ã¼ ÄŁ
) .
ic aret
es iyle
1 2
Ġy al
Ã¼l t
ÅŁ am
Ġhis s
ĠN e
ĠS aÄŁ
k il
ers on
ĠDev let
Ġel ekt
l is
Ã¼m Ã¼
ĠG Ã¶r
Ġbur ada
Ġsiz in
Ġist eyen
Ġgid er
ĠÃ¶n er
ĠA h
ĠgerÃ§ek leÅŁ
E L
Ġada y
ĠM eh
Ġkapsam Ä±nda
A T
is k
ma t
ĠkÄ±s m
im de
ab ilece
Ġin ÅŁ
ĠB ay
ap or
Ġyar ar
ĠO t
ĠsÃ¼r dÃ¼r
m al
Ġ1 7
Ġama Ã§
3 0
Ġs ek
Ġl is
n Ä±z
Ġbel g
ÅŁ ehir
m eli
Ġid di
Ġd es
ĠbaÅŁ k
ĠÅŁ ehir
Ġor gan
r im
Ġder ece
TÃ¼rk iye
p it
ĠteÅŁ ekkÃ¼r
ĠaÃ§Ä±k lama
ĠyardÄ±m cÄ±
Ġsay esinde
Ä±r ken
ĠU y
Ġmal z
Ġsu Ã§
Ġola b
ut bol
Ġs aÃ§
Ġun ut
c Ä±sÄ±
Ġo da
ĠÃ§eÅŁit li
Ġ201 7
Ġol sa
imiz i
Ġkullan Ä±cÄ±
Ġsal dÄ±r
Ã »
Ġboy unca
ĠÃ¼r etim
isay ar
Ġk Ã¶y
Ġc in
Ġs Ä±nÄ±f
it e
ĠA K
m eyi
em in
Ġed il
Ġhal inde
en c
Ġt Ä±k
Ġk as
mÄ±ÅŁ tÄ±
Ġm ek
Ä±n ca
Ġd ayan
Ġama c
Ã¶r t
ĠÅŀ ub
Ġuygu lama
uv ar
Ġist er
ĠD aha
Ġs ok
de m
Ġmev cut
ĠÃ§ ar
Ġuz man
Ġkay Ä±t
Ä±y Ä±
Ġen erj
Ġtekn ik
Ġed in
em i
Ġu ÄŁr
Ġh ey
ĠA d
ĠEr doÄŁan
Ġd etay
m eden
Ġy oÄŁun
l uluk
l ilik
Ã¼ ler
ĠÄ°l k
ĠtÃ¼r lÃ¼
ĠKur ulu
Ġg ec
Ġkurul uÅŁ
Ġ2 4
l k
ĠBeled iyesi
aban cÄ±
lu ÄŁ
Ġkullan Ä±l
ĠM uh
Ä±nÄ±z Ä±
ĠiÅŁ let
Ġhav a
Ġtop lam
ĠsÄ± cak
y o
Ä° N
ĠT r
ĠDÃ¼n ya
Ġsah ibi
Ġm ez
Ġzar ar
v ek
ĠTek n
ĠO sman
ĠH ar
ĠA li
1 1
m edi
Ġtarih i
ĠM ar
Ä±r Ä±
Ġs ez
ĠD em
la dÄ±
ĠS ay
Ġa v
Ġdurum da
tal ya
b a
Ġbiz e
u an
t aÅŁ
Ġt eh
alar da
anlÄ± ÄŁ
ĠE m
Ġyap Ä±lacak
ĠU z
eb ek
Ġkor k
Ġv ak
te p
ĠG el
Ġ le
et in
Ä±ÅŁ Ä±k
ti ÄŁini
Ġist iyor
Ġi y
Ġ ey
s ak
Ġed erek
oloj ik
l Ã¼m
Ġolacak tÄ±r
Ġtal ep
at e
ir a
Ġo f
Ġm en
Ã ¾
Ġyan Ä±nda
Ġb eni
eler inin
ĠA b
Ã¼l en
Ġtarih inde
iler inin
g un
er e
Ġseb ep
ĠyaklaÅŁ Ä±k
Ġver ilen
Ġg iy
Ġb iÃ§
mak ta
Ġal dÄ±
Ġ2 5
ad olu
Ġan da
Ġtasar Ä±m
ĠsÃ¼r ekli
m esini
Ġad Ä±m
Ġhal e
ĠdoÄŁ r
Ġt ep
l iyor
ĠdoÄŁ al
Ġg azet
ãģ Ĥ
b o
Ġdah il
ili ÄŁi
ĠH av
en er
ĠS u
ĠY Ã¼k
l Ã¢
ĠdÃ¶n Ã¼ÅŁ
Ġp at
Ġ j
Ġd ar
y ar
oh bet
ĠD o
Ġtes pit
Ġc anlÄ±
ĠU l
ãģĤ ãģĤ
Ġdav ran
ĠMeh met
len di
ot or
an Ä±ÅŁ
Ġy Ä±k
asyon u
us al
ĠS ur
Ġyaz Ä±
im leri
f et
Ġb ab
I N
cÄ± lÄ±k
Ġs Ä±nav
da m
Ġetti ÄŁi
y um
Ġsay Ä±lÄ±
ĠÃĸ r
Ġgel iyor
Ġcev ap
i i
Ġp azar
ĠPar ti
i j
Ġhat Ä±r
ĠyÃ¼r Ã¼t
Ġs t
okt or
a ir
Ġr ak
li f
Ġil er
Ġkar deÅŁ
Ġma ÄŁ
en di
Ġf ik
ed iye
t ay
emiz de
Ġtem sil
lÄ± ÅŁ
aÅŁ Ä±
Ġad Ä±na
f es
Ã¼ le
lan mÄ±ÅŁ
Ġneden le
ĠH at
caÄŁ Ä±nÄ±
Ġ1 00
A S
ĠKas Ä±m
Ġbilg iler
A l
al l
Ġhan gi
Ġkullan Ä±m
Ġcih az
ir an
dÄ±ÄŁ Ä±mÄ±z
Ġi p
ĠA mer
alar Ä±nda
Ġkonu da
ĠmÃ¼ÅŁt er
m esine
Ġtan Ä±m
at if
ĠÅŁekl inde
ĠÃ¶r nek
i ir
Ġbek len
Ġgerek iyor
l in
Ä° L
k aÃ§
Ġan a
ĠÅŁ Ã¶yle
ĠK ap
ĠaÃ§ Ä±sÄ±ndan
ad de
ĠR us
ĠB un
ĠÃ¶z g
Ġyar Ä±ÅŁ
Ġv Ã¼c
Ġk Ä±
Ġb ayan
Ä±s Ä±nÄ±
Ġilet iÅŁim
os u
Ġp art
eler ine
ust afa
Ġkal k
B en
emm uz
b ah
orm al
Ġy urt
Ġede b
Ġn it
Ġter Ã¶r
Ġs in
Ð µ
s er
Ġg ece
Ġon a
ev i
ĠÃ¼n iversit
ed er
Ġkal an
ab ilecek
Ä±s Ä±yla
iler ek
Ġoyun cu
Ġserv is
t Ã¶r
Ġsistem i
ĠAl man
am ak
ÄŁ iz
Ġn ak
ĠÄ°z mir
ĠK or
Ġan n
la mak
Ġb az
men in
ĠM ay
Ġ201 6
in c
Ġc id
Ġbel li
Ġl ist
A D
ĠbaÅŁar Ä±lÄ±
ĠÃ¶ÄŁr etmen
ĠA Ã§
ĠR es
Ġar tÄ±r
Ġkullan Ä±lan
Ä° R
Ġmes aj
A M
Ã¢ n
lay arak
g isi
Ġtar t
Ġd iyor
Ġr uh
ĠyaptÄ± ÄŁ
ĠT emmuz
Ġyap tÄ±r
Ä° n
Ġherk es
ĠsaÄŁ lan
1 5
ĠÃ§ oc
ĠÅŁ imdi
Ġkap at
ĠsÄ±r asÄ±nda
Ġn et
er n
Ġbil im
ĠkarÅŁ Ä±la
ĠE ÄŁer
Ġi t
Ġa h
Ġvar dÄ±
A B
ĠdÃ¼zen lenen
E M
ĠtÃ¼k et
Ġh ik
ĠD oÄŁ
ĠkiÅŁ inin
Ġa b
Ġb an
bilir siniz
ĠF ir
m Ã¼ÅŁ
ĠkÃ¶ tÃ¼
lu ÄŁu
m eyen
ĠS Ã¶z
ĠMil let
Ġsonu cu
mam Ä±z
maya cak
Ġinsan lar
Ġs ig
Ġok u
is el
Ġc am
Ġo per
ay i
Ġd al
Ġk ey
Ġp iyas
A r
f ak
ilm iÅŁtir
ĠMÃ¼dÃ¼r lÃ¼ÄŁÃ¼
ark Ä±
in d
Ġkam u
Ġmak in
m eleri
iz yon
al a
ĠYar dÄ±m
Ġh am
Ð °
am Ä±z
lÄ±k la
ÄŁ e
elik le
Ġyal nÄ±z
E K
l ine
Ġd on
ĠAn adolu
et ler
Ġy um
Ġzor unda
ĠgeÃ§ miÅŁ
ĠHal k
w w
Ã¼n cÃ¼
Ġolma z
Ġp erson
u cu
Ġk elim
Ġ Ä±s
Ġson unda
eÅŁ il
ac aÄŁÄ±
uk arÄ±
Ġb es
Ġvide o
ĠH aber
Ġkat Ä±lÄ±m
eler inde
ĠÅŁ ah
Ġkon uÅŁtu
Ġw eb
Ġr apor
Ġede cek
ans Ä±
Ġkay bet
Ġde p
ĠyÃ¼z den
raf ik
Ġetk il
Ġ5 0
ĠBak anlÄ±ÄŁÄ±
ĠEy lÃ¼l
Ġyap tÄ±k
Ġbulun duÄŁu
Ä±m da
em al
ĠYÃ¶n et
ra c
Ġitibar en
Ġf in
on e
ĠH ak
ne ÄŁi
k em
a dan
A Y
ĠM es
ĠÃ¶ yle
ĠgÃ¼ven lik
Ġsez on
Ä±nÄ±z a
Ä±l dÄ±ÄŁÄ±
ĠsÃ¶y l
Ä±s Ä±na
ĠB ar
dÄ±ÄŁ Ä±nda
ler ce
Ġmey dana
s iy
iÅŁ i
is an
ĠsÃ¼r eÃ§
lÄ±k lÄ±
Ġmalz em
Ã¼s lÃ¼m
ĠO l
Ġot el
Ġhast alÄ±k
alar a
ĠÃ§Ä±k tÄ±
ĠCumhur baÅŁk
Ġhas tan
Ġtart Ä±ÅŁ
ĠS por
ĠdÃ¼ÅŁÃ¼n Ã¼yor
u Ã§
ĠyÄ±l lÄ±k
em ez
ĠM ustafa
Ġg i
d Ä±z
dÃ¼ ÄŁÃ¼
Ä±mÄ±z a
Ġm is
en e
Ġyer de
ĠbaÅŁv ur
at Ã¼rk
Ġak tar
ĠY ayÄ±n
Ä° K
Ġ aÅŁk
Ġiz le
ĠÃ¶rg Ã¼t
ĠkarÅŁÄ± laÅŁ
Ġtama men
Ġek ran
ler dir
dÄ±k larÄ±
ti ÄŁimiz
ĠÄ° st
Ġ19 9
ĠÃ§ Ã¼nkÃ¼
Ġar acÄ±
at i
Ġseb eb
ĠÃľ r
Ä±la bilir
ĠÃĩ ok
Ġh ukuk
Ġg iz
ade m
ĠT ak
Ġsiz i
Ä±la b
it ap
b lem
Ä±nÄ±z da
d Ã¼k
.. ..
Ġed ilir
li ÄŁini
ĠM art
ĠE t
lak a
ĠMil li
ĠiÅŁ aret
Ġfay d
in a
Ġce z
ir i
Ġbulun maktadÄ±r
ĠoluÅŁ an
Ġbu la
Ġsev iy
Ġiz in
2 00
Ġk af
Ġsat Ä±n
Ġt ip
g a
Ġes er
Ġamac Ä±yla
ĠS iz
Ġan lay
g am
Ġkay b
Ġh oÅŁ
u ar
c ort
ĠgÃ¼Ã§ lÃ¼
Ä±l ma
m ar
Ġz aten
ĠT ab
Ã¼n Ã¼z
Ġay ak
Ġvar sa
Ġhay van
Ġas ker
in Ã§
ĠgÃ¼n cel
eg or
s en
Ġbir kaÃ§
Ġal dÄ±ÄŁÄ±
ĠF ak
ĠÄ°ngil iz
Ġk Ä±y
Ġtar if
Ġgel ecek
Ġs ol
o da
im ler
en gin
Ġkat kÄ±
Ġhal ine
Ġekonom ik
ĠÃ§ ift
len mesi
Ġi c
ð Ł
m Ä±yor
Ġkend ini
ĠI n
Ġaras Ä±ndaki
z er
U R
Ġkur t
Ġs ohbet
ĠY az
Ġf akat
un an
ĠV er
Ġil aÃ§
im li
Ġdak ika
ĠÄ°n san
ĠM al
ĠbaÅŁv uru
Ġg ru
an lÄ±k
ĠYÃ¶n etim
Ġay rÄ±ca
for man
A y
et ik
ĠEk im
ĠsÃ¶z leÅŁ
Ġy Ä±lÄ±
. )
Ġbilg isayar
ildi ÄŁi
ĠK r
aÅŁ a
ĠHaz iran
ĠMay Ä±s
am Ä±
alar Ä±nÄ±
Ġyok tur
Ġf utbol
Ġil an
Ġver diÄŁi
Ġtes lim
ĠbaÅŁ arÄ±
ĠkiÅŁ iler
1 8
l og
Ġver ir
Ġim k
Ġyan lÄ±ÅŁ
ad Ä±ÄŁ
Ġkar t
ĠÃĩ alÄ±ÅŁ
Ġs tr
al iz
Ġb eÄŁ
Ġas lÄ±nda
ĠK at
h end
Ġb i
ĠD eniz
Ġf or
Ä±mÄ±z Ä±
ĠÃĩ ocuk
Ġkar ak
l ulu
Ã¼m e
o ya
ĠA f
ĠT er
Ġ201 5
en ler
Ġhizmet i
Ġol mas
Ġyap ar
Ġbas Ä±n
Ġist iyorum
Ġv az
Ġen d
Ġsor um
Ġtekn oloj
ĠÄ°s lam
ĠgerÃ§ ekten
ĠY aÅŁ
Ġhat ta
Ġt ec
m ed
Ġden iz
ĠG Ã¼ven
Ġak Ä±l
ĠkoÅŁ ul
Ġ um
Ġg ar
Ġyer e
Ġal Ä±yor
ĠM ec
ĠB ah
Ġtes is
201 8
ek siyon
Ġcid di
uv vet
ĠgÃ¼n lÃ¼k
ov a
Ġs tan
Ġek sik
Ġyap Ä±yor
ver iÅŁ
Ġboy ut
Ġpol is
ĠB Ã¶yle
dÄ±ÄŁ Ä±m
h a
Ġy abancÄ±
Ġp uan
ĠdÃ¼z ey
Ġ2 2
Ġsonr asÄ±
Ġet miÅŁ
Ġnum ar
ĠH izmet
ak et
Ġmut lu
Ġdurum u
Ġist en
Ġ2 1
amp iyon
Ġak ÅŁam
Ã¼ÅŁt Ã¼r
ĠH an
s por
ĠÃ¼lk e
Ġinsan larÄ±n
ma da
ers iz
Ġpol itik
Ġpro blem
ĠK Ã¼r
Ġdo st
ĠÃ¶l dÃ¼r
Ġar ada
lar Ä±m
Ġkalit eli
Ġmik tar
Ġsiz lere
Ġmem nun
vek ili
ÄŁit imi
Ġn ok
Ã °
ĠbaÅŁ layan
Ġol muÅŁ
ĠgÃ¼n de
o man
ĠYÃ¼k sek
Ġ emek
Ġad lÄ±
Ä° M
em en
ĠbaÅŁ lat
ĠdÃ¼ÅŁ Ã¼k
ĠS ev
Ġd Ã¶rt
- -
dÄ±k tan
Ġsil ah
ÅŁ Ä±
Ġmer ak
ĠM ak
Ġdo lar
Ġyet erli
erÃ§ ev
ĠalÄ±n an
r as
Ġ201 4
ĠF akat
Ġk uÅŁ
Ġbulun du
h at
lÄ±ÄŁ Ä±nÄ±
ĠGen Ã§
Ä° T
al tÄ±
Ġkim s
ne ÄŁin
g esi
h t
ĠPro f
im in
y as
z Ä±m
ĠM an
ĠS en
ĠbaÅŁ Ä±na
ĠyaÅŁ ayan
ra da
ĠdÃ¶nem de
Ġken t
ĠeÄŁ len
ĠsÃ¶y lem
Ġyaz ar
aÄŁÄ± t
ĠL is
may Ä±n
Ġsonu c
ĠBak anÄ±
Ġsay Ä±sÄ±
ĠiÃ§ ine
ĠdÃ¼ny anÄ±n
âĢ ĺ
ĠMÃ¼dÃ¼r Ã¼
ĠbaÄŁ Ä±m
Ġ: )
g o
lama ya
ĉ Ċ
Ġd ek
Ġbah is
g ar
Ġo ÄŁ
Ġ2 3
ĠAl t
ĠS al
ĠÃ¶nc eki
st a
Ġb una
ĠmÃ¼z ik
ĠgÃ¶ tÃ¼r
ey ecek
Ġuy ar
ĠS ar
ĠPro j
Ġar aya
Ġalt Ä±na
Ġc il
ist ik
ĠN isan
k ar
ĠT Ã¼m
ĠG eÃ§
ĠK Ã¼ltÃ¼r
h ar
as a
Ġm otor
Ġmed ya
Ġetkin lik
r ol
r in
Ġd oktor
ey gam
ĠAh met
ĠB as
Ä±mÄ±z da
ler iniz
ĠS el
Ġtop rak
ma dÄ±
s iye
et e
ĠsÃ¼r ec
u c
Ġn ef
r esi
ĠS am
f i
Ã¶ v
Ġol un
aÄŁ a
acak tÄ±r
alar Ä±nÄ±n
g eÃ§
ab il
yon el
Ä±mÄ±z Ä±n
ĠO cak
Ġon lar
Ġed iyorum
Ġad res
O N
ĠAt atÃ¼rk
Ġtar z
Ġmut laka
iÃ§ ek
ĠÃ¼cret siz
Ã¶r en
Ġyan a
an an
Ġ ir
Ġt est
Ġs ur
Ġay ar
ĠM er
g en
ĠY ani
Ġm in
Ġet tik
2 5
r ek
eli dir
ĠdÃ¼ÅŁÃ¼n c
Ġ )
ï¿½ ï¿½
uz ey
ilen dir
len miÅŁ
Ġb eÅŁ
ul lah
Ġf ak
ĠÃ¶l Ã¼m
ĠbaÅŁ lan
Ġper forman
ĠA ÅŁ
ad Ä±k
Ġbulun uyor
ĠT el
t aki
Ġsav un
it al
Ġver mek
ĠÃ¶ dÃ¼l
mas Ä±yla
ĠB ul
adÄ± ÄŁÄ±
ĠCumhur iyet
Ġbah s
ĠdeÄŁiÅŁik lik
ĠS osyal
fes yonel
Ġetk ili
Ġtek lif
m iyor
ul t
len me
Ġdurum unda
Ġtedav i
iz ik
Ġi dar
k u
E n
Ġmil yar
eye ce
Ġfir malar
Ä° S
hend is
eygam ber
ĠK Ä±
s eniz
ĠÃ§ erÃ§ev
ĠmÃ¼cad ele
n ak
Ġu c
1 6
Ä±s Ä±nÄ±n
Ġd aÄŁ
ĠTar ih
Ġy ada
ed iy
Ġbir ey
Ġdes te
ĠmÃ¼cad el
Ġyol u
id det
Ġs oÄŁ
ĠÃ¶ÄŁrenc iler
t on
Ġed ilmesi
Ġ4 0
Ġd Ã¶k
n iyet
ĠseÃ§ enek
ĠbaÅŁ Ä±nda
Ġm Ã¼k
ÄŁu st
Ġperson el
Ġz engin
alÄ± ÄŁ
Ġn ormal
y Ä±l
it esi
Ġay Ä±nda
ĠA ÄŁ
Ġdil e
ĠhazÄ±r lan
cÄ± lar
c il
m Ä±zÄ±
ĠÃ§oc uÄŁ
imiz de
eb ilecek
Ġbiz i
Ġkr edi
man Ä±
l isi
ĠBÃ¼yÃ¼k ÅŁehir
Ġ201 3
Ġim z
rat ik
ĠiÃ§ eri
Ġbel ki
ro s
O R
Ġal ma
Ġhay al
h i
ĠY ak
len ir
Ġhal de
Ġ X
acaÄŁ Ä±z
Ġf orm
Ġes n
p ar
Ġr ol
v i
ece ÄŁi
ĠyapÄ±l masÄ±
ĠÅŁ iir
Ġal Ä±r
ey n
ÄŁust os
z u
Ġs efer
Ġtoplan tÄ±
ĠfÄ±r sat
eb ilece
Ã¢ r
Ġn ot
ĠFak Ã¼lt
en Ã¼z
Ġmek an
Ġil eri
iy di
Ġbey az
Ġy em
ĠÄ° ÅŁte
Ġden eyim
d art
b ur
s im
Ġmerkez i
Ġ201 2
t Ã¼l
2 4
Ġdev r
Ġner ede
ĠPro gram
ey le
da y
ĠK Ä±r
Ġay Ä±r
ĠS istem
1 4
Ġnok ta
eler den
Ġkap Ä±
Ġb eri
Â ´
ĠsaÄŁ lar
ĠÃ§ at
ÄŁ inin
Ã¼n y
Ġd u
ĠSaÄŁ lÄ±k
ĠÃ§ al
Ġm obil
H er
t eki
at Ã¶r
ĠT an
Ġbenz er
Ġkam pan
Ġyet k
Ġr isk
uz ur
ĠÃ¼n lÃ¼
Ġenerj i
ĠÃĸzel likle
ip ar
ĠbaÅŁ kan
Ġsonr asÄ±nda
ĠÃ¶zg Ã¼r
Ġtr ans
Ġul uslararasÄ±
bak an
Ġyan dan
f en
Ġalan Ä±nda
Ġes as
ĠÃ¶n Ã¼nde
Ġn es
lama z
ĠS Ã¼r
Ã¼mÃ¼z de
Ġp oz
ev k
ĠsaÄŁlÄ±k lÄ±
Ġd olu
Ġar a
ĠsaÄŁla mak
Ġgir iÅŁim
Ġrek lam
Ġsab ah
Ġsen e
Ġar ay
am et
Ġg Ã¼l
L AR
Ġr e
dÄ±ÄŁ Ä±nÄ±z
Ġres mi
Ġsit esi
Ã¼p h
ĠÃ§ev ir
Ġyer i
men iz
Ã½ n
f orm
y al
Ġdol dur
ĠKad Ä±n
Ġkan al
ĠDem ir
ĠOy un
ĠKur ul
ad aki
Ġart Ä±ÅŁ
Ġsay Ä±da
Ġma hal
Ã¼y le
ĠÃ§ar p
p ek
ĠsÃ¶y ley
Ġon ay
ĠÅŁey ler
um suz
ĠD e
g ili
Ã Ħ
Ġolma dÄ±ÄŁÄ±
br Ä±s
ter n
ĠAr alÄ±k
Ġkend isine
ans Ä±z
m ekte
Ġoper asyon
esin deki
ĠOsman lÄ±
Ġal acak
Ġg ol
ur um
Ġm ar
Ġat eÅŁ
lay Ä±n
Ġd osy
Ġolma dÄ±ÄŁÄ±nÄ±
Ġsiyas i
Ġ2 8
ed eki
ĠiÅŁ i
Ġede ce
Ġgerek mektedir
Ã¼slÃ¼m an
Ä±l maz
Ġon larÄ±n
Ġg ay
Ġar ama
1 7
Ġb al
Ġgerek tiÄŁini
Ġyarar lan
ĠG ir
Ġder in
ĠK emal
Ġil gi
sÄ±z lÄ±k
Ġteh lik
ab et
s ay
Ġk ok
Ġtab i
Ġdak ik
Ġs Ã¼t
Ġb at
S on
Ġbelir ten
ĠÃ§alÄ±ÅŁ malarÄ±
Ġf on
A Åŀ
ĠP ol
ĠBir liÄŁi
y en
ĠTÃ¼rk Ã§e
ul masÄ±
ĠdeÄŁer li
Ã¼p er
iy im
1 3
ĠB ank
Ġhik ay
ĠSur iye
al lah
Ġkur al
Ġay lÄ±k
Ġelekt rik
g er
Ġyap arak
Ġ ?
Ġot o
ĠB aÄŁ
Ġp iÅŁ
ÄŁ inden
Ġbit ir
Ġkar arÄ±
ĠM Ã¼z
Ġde f
ĠaraÅŁtÄ±r ma
laÅŁt Ä±
Ġproj e
es iz
ĠS t
larÄ±n Ä±zÄ±
Ġalan da
Ġaz al
b ay
Ġde fa
Ġoy unu
Ġs em
ledi ÄŁi
ĠT es
ev izyon
ĠHas tan
D E
ĠC HP
Ġh Ã¢
ĠyapÄ±l Ä±r
Ġce p
ĠG Ã¶
ĠF ilm
as Ä±yla
2 3
Ġy avaÅŁ
Ġyap ma
Ġkarak ter
ĠD iÄŁer
Ġfik ir
Ġb ed
Ġon larÄ±
lar dÄ±
alar Ä±na
uyor um
L ER
ĠDer neÄŁi
ĠyaÅŁan an
ĠÃ§ ab
ĠSan at
Ġe ÄŁer
in k
ĠgÃ¶ster en
ĠG azet
Ġkon um
Ġhaf t
ĠD Ã¶n
g Ã¶r
ĠgÃ¶rÃ¼n tÃ¼
Ġver iyor
Ġd am
b est
ĠK im
og le
ron ik
ĠY er
ĠK am
Ġdav et
Ġkat egor
Ġla zÄ±m
ĠA ÄŁustos
r Ã¼b
Ġistedi ÄŁiniz
Ġmad d
Ġ2 7
Ġe f
ĠMah all
ĠAy nÄ±
da sÄ±
Ġhal a
Ġey lem
ĠKul lan
ĠÃ¼rÃ¼n leri
ĠK az
Ġyap acak
6 0
ĠsÄ±k Ä±ntÄ±
Ġd iÅŁ
Ġy ukarÄ±
ĠK Ã¶
Ġart tÄ±r
Ġhey ec
Ġbilg ileri
Ġal anÄ±
Ġp an
liÄŁ inde
ĠÅŁ eyi
ĠK end
ĠsÄ±r ada
as Ä±ndan
Ä±z a
eÅŁ ik
Ġa ÄŁr
duÄŁ unu
Ä± larak
Ä±l mÄ±ÅŁtÄ±r
Ġolur sa
Ġkam er
ĠmÃ¼ da
ĠtaÅŁ Ä±
Ġyap mÄ±ÅŁ
ĠG Ã¼l
Ġk eÅŁ
ĠRus ya
ĠuÃ§ ak
dik leri
lat form
Ġb ebek
uyor uz
ab iliyor
ĠS or
Ġyer leÅŁ
Ġal arak
Ġar asÄ±
Ġt as
Ġyaz Ä±lÄ±
ĠiÃ§ i
uk lu
z et
ĠdÄ±ÅŁ Ä±
ĠiÅŁ Ã§
Ġg ide
ĠP er
lÄ±ÄŁ Ä±n
Ġf il
s on
Ġt Ã¼rk
ĠsaÄŁ layan
Ġkullan arak
Ġb ol
o ogle
i a
ĠÅŁ iddet
ĠyÃ¶net ic
t ak
Ġd emek
Ġk op
Ġn edir
Ġkay de
ah im
Ġeder im
ĠFakÃ¼lt esi
m Ã¼r
ler inizi
Ġdem ok
Ġot om
ab ilm
t Ä±sÄ±
h er
Ġol muÅŁtur
d iler
Ġtav siye
iv il
ĠÅŀub at
ĠP art
lÄ±ÄŁ a
s as
Ġm ec
Ġli der
Ġuygula malar
L I
d Ã¼m
Ġyaz Ä±lÄ±m
ĠbaÅŁ ta
ĠyaÅŁ Ä±nda
Ġb ank
ĠF at
ek im
Ġh Ã¼c
d al
ĠgÃ¶r Ã¼yor
ĠÃ ¢
mas Ä±ndan
ĠAr aÅŁtÄ±r
ĠtaÅŁ Ä±n
ul tan
Ġ &
Ġle z
Ġp o
Ġs oy
Ġpro fesyonel
ate j
k Ä±n
Ġet tir
Ġhaf if
z on
ĠF ran
ĠBu gÃ¼n
ra il
Ġg al
ĠF a
Ġs ap
A P
n am
in al
iy ah
Ã¶ ÄŁr
Ġn eler
bo ok
Ġh uzur
Ġduy ur
U L
8 0
Ġele ÅŁtir
Ġif ad
Ġfiyat larÄ±
s es
lan masÄ±
Ġedilm iÅŁ
K ar
Ġn amaz
ey iz
Ġkav ram
Ġt icaret
larÄ±mÄ±z Ä±n
lÄ±k larÄ±
k e
E D
or e
Ġbir isi
ĠT ay
Ġh enÃ¼z
ĠT em
ĠÃ¶ ÄŁ
ĠÅŁ ik
ĠD air
Ġyer leÅŁtir
t iler
Ã¢ h
ed ek
Ġ2 6
Ġiz ley
tep e
miÅŁ ti
Ġsay Ä±
ed iler
Ġtat il
Ġtak dir
Ġs el
Ġed iyoruz
ĠÃ¶ÄŁren ci
ul ur
ĠOr ta
liÄŁ e
edi ÄŁi
Ġyay Ä±m
lÄ±k lar
ĠT icaret
Ġbor Ã§
iÅŁ leri
ĠalÄ±ÅŁ veriÅŁ
lan ma
ĠCumhurbaÅŁk anÄ±
ĠkarÅŁ Ä±sÄ±nda
Ġduy gu
ĠÃ¶ den
at a
s ine
k et
Ġg Ã¼c
Ġan ne
ken in
z e
Ġtemsil c
en g
Ġe g
Ġa ile
Ã¼ÅŁt Ã¼
Ġes cort
Ġisim li
ĠB or
ĠtaÅŁ Ä±y
Ġt az
ĠC an
Ġce za
Ġihtiy ac
Ġ +
art esi
ĠÃ¶de me
Ġol maya
Ä° stanbul
ĠA lan
i ÄŁ
Ä±lÄ± ÅŁ
il ebilir
Ġ2 9
ĠÃĩ in
Ġhayat a
ĠS at
es tiv
E r
Ġol umsuz
ĠAn talya
emm el
Ġbelirt ti
Ġkey if
Ġkend ine
Ġkil o
Ġhay Ä±r
Ġtal eb
ĠkarÅŁÄ±la ÅŁt
Ġz am
eler inden
r em
ĠKÄ± brÄ±s
Ġt ed
. ,
Ġtec rÃ¼b
Ġ Ð
Ġdetay lÄ±
Ġhiss et
Ġkim se
ĠyÄ±l larda
Ġt on
Ġbun dan
im ar
ĠyÄ±l dÄ±r
ĠÃ¶n Ã¼ne
Ġk Ã¼r
ĠAy dÄ±n
Ġd uvar
d ro
Ġd el
Ġnak l
ĠBur sa
is e
B iz
ĠAlman ya
Ġsonuc unda
Ġkor un
ĠdÃ¶nem inde
Ġh ad
ĠK Ä±z
Ġyer inde
ĠiÅŁ e
alÄ± ÄŁÄ±
Ġar ac
ĠÄ°l Ã§e
eler le
er r
ĠtaÅŁ Ä±ma
Ġkesin likle
ĠG Ã¶k
ipar iÅŁ
Ġp as
Ġ *
Ã¼t fen
t p
Ġkazan dÄ±r
Ġol m
Ġmes el
ĠS eÃ§
ĠgÃ¼n eÅŁ
Ġkar Ä±ÅŁ
Â ±
ĠTekn ik
Ġprogram Ä±
ĠsaldÄ±r Ä±
el t
Ġetm ektedir
Ġik ti
da t
Ġl ira
g ula
Ġsahip tir
ĠbeÄŁ en
Ġver ilm
Ġkur tar
us un
ĠÅŀ imdi
Ġ ap
ĠdoÄŁ um
on s
ĠdÃ¼nya da
l edik
ĠAmer ika
d it
Ġanlam da
Ġtut ar
Ġs enin
Ġa cÄ±
lan Ä±r
r aman
or k
liÄŁ in
Ġg az
um ak
Ġn Ã¼f
Ġ201 1
y se
Ġd Ã¼ÄŁ
B ur
Ġstan dart
Ġyok sa
Ġok uy
y ap
ter e
Ġbas it
k eri
ĠA ra
iniz in
da ÄŁ
Ġal mÄ±ÅŁ
ab ilmek
ĠD eÄŁ
ar Ä±m
ĠBil g
ĠmÃ¼ dÃ¼r
ĠbaÅŁ lar
Ġinsan Ä±n
o ca
ĠmÃ¼ÅŁt eri
ay la
ĠD Ä±ÅŁ
Ġbun lar
ĠdÃ¼zen lem
Ġal Ä±p
ĠbaÄŁlan tÄ±
Ġzor un
Ġdavran Ä±ÅŁ
Â Ķ
ob Ã¼s
Ġhayat Ä±nÄ±
Ã§ ak
s ini
Ġm eÅŁ
Ġp sik
Ä° Y
ĠL ig
ab zon
Ġsok ak
ĠT aÅŁ
ĠmÃ¼da hal
Ġem in
ez i
ĠYardÄ±m cÄ±sÄ±
ĠgÃ¶r mek
ĠaÅŁaÄŁÄ± daki
K K
Ġperforman s
Ġp op
Ġv b
Ġk uvvet
Ġbul uÅŁ
ĠhazÄ±r la
ĠÃĩ ev
bah Ã§e
Ġas la
ĠAÃ§ Ä±k
' '
il im
al im
Ġz evk
ĠBÃ¶l Ã¼m
Ġres im
ot o
ĠgÃ¶r en
ĠaÃ§Ä±klama da
Ġsonr aki
ar e
ĠÃ§ oÄŁu
Ġk Ä±l
ĠY et
om et
Ġvaz geÃ§
Ġkit ab
emiz in
ĠD Ã¼z
4 0
on ya
ĠiÃ§er ik
Ġay dÄ±n
Ãĸ z
ĠÅŁ arkÄ±
ers eniz
ĠC am
ed eni
rac at
Ġyol c
Ġon lara
iz asyon
m ur
Ġkad ro
lay Ä±p
ĠSer v
Ġyet iÅŁ
c o
da ÅŁ
Ġy or
Ġam el
ĠaÃ§ Ä±
ĠyapÄ±l dÄ±
ĠÄ° yi
ĠdÃ¼ÅŁ Ã¼r
Ġyet iÅŁtir
ĠÃľr Ã¼n
Ġl im
Ġi ÅŁte
ĠsÃ¼r ede
/ /
ya caÄŁ
Ä±s Ä±r
Ġtah min
iy an
Ġgi den
t o
larÄ±mÄ±z Ä±
acaÄŁ Ä±nÄ±
at ur
Ġh ap
ĠD av
Ġf el
h aba
Ġt a
O S
Ġ Ġ
Ġ ez
ĠS avaÅŁ
ĠV ak
Ġkar Ä±ÅŁtÄ±r
ĠE ÅŁ
dik ten
ĠÃ¼y e
Ġi b
ers in
ĠÃľ st
ĠB azÄ±
ĠÃ¶n e
ĠÃ§ ap
Ġd ay
ib er
em iÅŁ
ĠT e
Ġ =
h am
Ãľ R
ar d
eÅŁik taÅŁ
Ġ Ä±sÄ±
is inden
ek il
ce book
af ir
ĠB al
Ġ6 0
A k
las yon
Ġ Ä±ÅŁÄ±k
Ġhes ab
Ġbaz en
tÄ±ÄŁ Ä±nÄ±
ĠiÅŁ bir
Ã¼n deki
a ca
ĠBur ada
laÅŁ ma
l iler
ĠK Ã¶y
Ġver ildi
Ġer ken
c ilik
liÄŁ ine
ĠÅŁ Ã¼ph
ĠE f
ĠyaÅŁ ama
ĠgÃ¼n lerde
ĠG Ã¶z
Ġp aket
Ä±yor du
Ġbir inci
Ġkon ut
ĠV al
Ġd anÄ±ÅŁ
p p
ĠdeÄŁ iÅŁim
ĠUl uslararasÄ±
m Ä±
m eni
ey tin
Ġbelirt ilen
ĠS ah
er ler
Ġo dak
ma il
lar ca
Ġyay gÄ±n
ul du
ĠkiÅŁ isel
Ġal tÄ±
ĠM ur
t arÄ±
ĠB unu
er ken
Ġkat Ä±l
ĠG azi
M er
Ġfir ma
Ġol masÄ±na
ĠB r
Ġp ark
Ġyer el
ĠÂ ĵ
Ġet me
Ġbelirt erek
ĠMahall esi
Ġy ola
Ġbu y
Ġgir di
ãģĤãģĤ ãģĤãģĤ
ĠsÃ¼r esi
Ġf izik
Ġr ad
Ġed ip
Ġgit ti
ĠÃ§Ä±k Ä±ÅŁ
Ġgenel likle
siz lik
Ġo d
bet te
Ġbun larÄ±n
r um
Ġmod ern
Ġson a
ĠS ayÄ±n
ayÄ± f
Ġs p
Ġs ik
la masÄ±
I M
Ġo rada
Ġdah i
Ġser t
Ġa van
or n
Ġlis ans
Ġkat Ä±ldÄ±
Ä±m Ä±n
Ġhizmet leri
Ġim za
Ġel em
ĠyaÅŁ Ä±ndaki
un larÄ±
Ä±ÅŁ ma
Ġb ilir
st ik
Ġ ðŁ
Ġ >
s inin
Ġev e
Ġtan e
Ġyap maya
Ġalt Ä±n
Ã§ esi
: //
ĠSam sun
Ġk ans
Ġ us
Ġis m
ĠA z
Ã¼st Ã¼
Ġb Ã¼t
Ġsal on
ĠA m
b an
le v
lerimiz i
ĠH em
ĠyanÄ± t
ĠdÄ±ÅŁ arÄ±
Ġger ektir
leÅŁ me
ĠH akk
i ÄŁi
eÄŁ in
Ġim kan
ĠY Ã¼z
ĠdÃ¼zen len
Ġi de
Ġh us
Ġb alÄ±k
I R
Ġsan a
ĠH z
eb e
ĠKÃ¼r t
Ġkal dÄ±
ĠÃ§ iÃ§ek
Ä±yor lar
ĠÃ§ ay
Ġtat lÄ±
ĠeÅŁ it
Ġc en
2 2
ĠÅŁ if
Ġkend isi
ĠkÃ¶ ÅŁ
Ġgir en
âĢĿ ,
Ġuc uz
Ġkend isini
Ġbun larÄ±
ler im
ĠÃ¶zel liÄŁi
Ġbas kÄ±
Ġbilin en
ĠilÃ§ esinde
Ã¶ÄŁr etim
ik let
ĠÄ°ngiliz ce
Ġb Ã¶
Ġs e
ĠyÃ¼r Ã¼y
iy er
Ġol umlu
G Ã¼n
g al
Ġyap Ä±m
ĠBaÅŁk anlÄ±ÄŁÄ±
Ġsor unu
ĠY ol
ĠgeÃ§ ti
Ġal abilirsiniz
Ġiddi a
Ġar ab
ĠM Ã¼slÃ¼man
ĠÅŁ ans
iyat ro
Ġavan taj
is iyle
y Ã¼z
Ġkay det
ĠÃ¶ÄŁr etim
ĠY at
ĠÃľ y
ĠY al
t eÅŁ
ĠÃ¼Ã§ Ã¼ncÃ¼
Ġk Ä±ÅŁ
n dan
ĠÅŁ ar
Ġm on
Ġd Ã¶v
Ġor anÄ±
ĠmÃ¼k emmel
ener bahÃ§e
ĠM ev
Ġpro t
d ek
ĠC h
ÄŁ an
Ġcin sel
ĠgeÃ§ erli
lik leri
ece ÄŁini
ĠyÄ±l da
lÄ±ÄŁ Ä±na
ĠeÅŁ y
ĠSon ra
ĠolduÄŁ una
Ġpar Ã§a
ĠM od
Ġk em
ĠFir malarÄ±
Ġser best
Ġhakk Ä±
Ð ¾
us unu
ĠD oÄŁu
201 7
Ġkap as
Ã¶y l
p t
Ġkal p
Ä±n dÄ±r
ic ari
ĠÃ¶lÃ§ Ã¼
uz u
Ġon line
Ġder ec
Ġfa iz
o u
oy u
ĠbiÃ§ imde
h is
ĠK itap
alat asar
ĠKur um
s Ã¼z
ĠÃ¶ÄŁr et
ak a
Ä° ÅŁ
Ġduy g
ĠÃ¶nemli dir
ĠH af
Ġdiy erek
ĠG Ã¼zel
ak ar
ĠÃ¶nc esi
ĠÄ° k
Ġhar ika
Ġkah v
ĠiÅŁlem i
ad Ä±r
Ġb ec
Ġkur ulu
mem iÅŁ
iler den
Ġmark a
ĠMillet vekili
ĠBay ram
ĠH am
alatasar ay
Ġy iy
Ġyet er
b al
ĠkiÅŁ ilerin
gu lama
Ġetm eye
t is
Ġk m
Ġr oman
ĠsÃ¶yl Ã¼yor
Ä±s Ä±z
B aÅŁ
s ur
ĠkiÅŁ ilik
ah met
ĠÅŁeh it
ĠgÃ¶n Ã¼l
Ġev de
g r
Ġet raf
n den
Ġb on
ĠYÄ±l maz
Ġb e
ĠÃ§ek en
Ġy eÅŁil
ĠB an
Ġb eden
Ä± f
a i
Ġanlay Ä±ÅŁ
ÅŁ ey
ĠÃľ lk
7 0
iyor du
ĠinÅŁ aat
Ġt he
Ġkampan y
Ġyas ak
ost a
Ġotom obil
ĠH ol
ĠM ut
Ġsah n
Ãĸ n
Ġvak it
ĠT V
ĠÅŀ ah
Ġn edeni
ĠP azar
ĠB una
Ġtekn oloji
b in
ĠdoÄŁr ult
gÄ± Ã§
ĠBÃ¶yle ce
ĠÃ¼rÃ¼n ler
ĠS in
ez er
Ġt Ã¶ren
Ġgetir di
Ġin ce
Ġyar alan
ĠÃ§ocuk lar
dÄ±r Ä±m
Ä± b
k ek
Ġkap alÄ±
Ġtem in
ĠD en
Ġyak al
Ä± c
Ġp latform
ĠÄ° ran
ĠK ah
ati on
ĠÃ¼zer indeki
ece p
Ġm o
y er
Ġmes af
Ġc Ã¼m
mak tan
ĠÂ »
Ä±lÄ± Ã§
ĠÃ¼l kenin
Ġola caÄŁ
ĠgÃ¼ven li
han e
ĠEl ekt
lay Ä±cÄ±
ĠsaÄŁla yacak
Ġh oc
ab rik
Ġyet kil
ilece ÄŁi
l ili
Ġc iv
ĠB er
Ġs uyu
Ġk od
ĠinÅŁ a
et leri
ĠN o
ĠS adece
or ta
r ika
Ä±n ar
Ġgetir en
ĠK ir
ÅŁ Ä±k
ĠD ur
ĠGÃ¼n ey
ĠBen im
G en
Ġb Ã¼ny
ul muÅŁ
Ġetk isi
Ġv it
Ä±s Ä±nÄ±z
Ġy ans
iniz de
tern atif
ĠkÄ±sm Ä±
b aÅŁ
n u
q u
ece ÄŁiz
Ġstr atej
lÄ±ÄŁ Ä±yla
Ġkur u
or d
Ġen f
Y eni
Ġ5 00
Ġgel iÅŁim
Ġs ivil
ĠV ar
Ġorta dan
malar Ä±nÄ±
ĠÄ° m
ĠdoÄŁru dan
Ġh ac
P ro
de v
ma mÄ±ÅŁ
Ä° Z
Ġmal iyet
Ġmil li
ad i
Ġort alama
Ġek ley
Ä° s
Ġak tif
ĠaÅŁ Ä±rÄ±
Ġsor umlu
ĠD il
ĠK Ã¼Ã§Ã¼k
ĠYayÄ±n larÄ±
b en
ur ken
ĠdÃ¼ÅŁÃ¼nÃ¼yor um
ĠN ur
Ġnit elik
Ġol masÄ±nÄ±
Ġbir ik
2 7
Ġgel in
ĠÃĸÄŁr etmen
Ġp eÅŁ
ĠF il
Ġyat ak
abilece ÄŁiniz
ĠSan ayi
es s
ĠÃ¶zellik leri
alar dan
Ġt eb
Ġ Ä±ÅŁ
Ġpar ti
ij ital
dÄ±k larÄ±nÄ±
b ey
Ġmes lek
ĠV E
Ġkullan Ä±mÄ±
ĠbaÄŁÄ±m sÄ±z
ĠÃ¼y esi
ĠÃ¶n lem
k Ã¶y
acaÄŁ Ä±nÄ±z
Ġs unu
ĠyalnÄ±z ca
t uk
Ġas Ä±l
ĠgÃ¶r dÃ¼ÄŁ
ĠG Ã¼r
Ġtop lu
ĠH Ã¼s
Ä±lÄ± ÄŁ
Ġar z
ĠM ed
Ġist ih
Ġz ayÄ±f
ĠgÃ¶ Ã§
est or
Ã§ iler
c eli
ĠGÃ¼ven lik
br ahim
az a
Ġt ad
ĠâĢ ¦
ĠK Ä±s
ĠT asar
ĠK ol
Ġbulun ma
ĠdoÄŁrult usunda
Ġyat Ä±r
Ġban ka
Ġbelir li
ĠiÃ§er en
Ġtrans fer
ok ul
Ġgru b
Ġhar c
Ġal Ä±m
ĠkÄ±r mÄ±zÄ±
ĠOk ul
Ġsey ahat
Ġet mesi
Ġama cÄ±
Ġolan lar
ĠS ab
Ġs ine
ĠKan un
ir ken
ĠvÃ¼c ut
ĠB in
ĠolduÄŁ umuz
Ġbir im
y ip
ĠyÄ±l dÄ±z
aÅŁ Ä±r
Ġmodel leri
em esi
Ġgel miÅŁ
Ġs ipariÅŁ
ĠÄ°n ÅŁ
ĠS ultan
Ġuy an
o j
l iyet
y et
ĠÄ°s rail
ĠB it
U N
ĠgÃ¶r m
Ġsit e
Ġg ur
Ã¼l Ã¼
Ġh t
ĠÅŁik ayet
Ġtel evizyon
il li
ĠP eygamber
2 1
ĠyapÄ±l mÄ±ÅŁ
k iler
Ġc m
Ġden ey
emiz e
Ġoto matik
ik an
Ġs eni
ĠÃĸr neÄŁin
ĠF r
in o
Ġat an
Ġdok un
iyor lar
Ä±nÄ±z Ä±n
f at
Ġin s
ĠAr ap
acaÄŁ Ä±m
ĠÃ§Ä±k Ä±yor
Ġe ÄŁitimi
n er
ĠbaÅŁ lÄ±yor
ĠyÄ±l Ä±n
ur o
Ġbay ram
ĠY an
d Ã¼z
Ġan d
Ġist ek
ĠI I
ĠsoÄŁ uk
A Z
ow s
Ġar ka
Ġk um
ar lar
ik i
Ġolma dan
Ġt ez
ĠÃ§ oÄŁ
ĠU n
y Ä±z
ĠR ecep
ĠM as
Ġyer ini
ĠdÃ¼ÅŁ man
Ġp la
Ġrahat sÄ±z
Ġsor uÅŁtur
9 0
Ġheyec an
ĠakÄ±l lÄ±
Ġkend ilerine
Ġbak Ä±ÅŁ
ĠyÃ¶net imi
ir ler
Ġkurt ul
O r
Ġ19 8
Ġben de
Ġas keri
ĠÃ§erÃ§ev esinde
la sik
ĠBaÅŁ bakan
ĠÅŀ eh
Ġd edim
Ġz ih
Ġyap arken
b aÅŁÄ±
ĠMec lis
u di
on g
la cak
Ġt uz
s em
Ġ3 1
ĠÅŀ ehir
in t
Ġkullan Ä±lÄ±r
Ġfin ans
ĠL i
Ġdiy en
' s
ĠG oogle
Ġ x
u f
Ġa f
Ġan aliz
Ġc ok
Ġmez un
Ġkan un
Ġal b
ĠtanÄ± t
Ġamel iyat
teÅŁ em
âĢ¦ ]
f Ä±
s it
ĠK ara
Ġf er
ĠgeÃ§ iÅŁ
Ġfilm i
amaz an
ĠAK P
2 8
Ä±na cak
Ġherk esin
Ġal maktadÄ±r
Ġmis afir
Ġr eh
g iler
ĠaÃ§Ä±kla dÄ±
h one
Ġ201 0
ĠolduÄŁ undan
Ġgid erek
Ġcil t
Ġhas ta
av e
el is
* *
m ut
ĠH D
ĠmÃ¼ÅŁter iler
Ġkal Ä±n
Ġkat Ä±lan
eb iliyor
Ã¼mÃ¼z deki
ĠD iy
Ġanlam Ä±na
ĠM ark
k siyon
Ġsek s
ir e
lendir me
Ä±r lar
unuz u
n ik
Ġbek liyor
ĠÅŁek er
Ġtan Ä±ÅŁ
ĠS Ä±nÄ±f
on d
ĠiÅŁlem leri
ĠÃ§Ä±k art
ĠÃ¶nc eden
Ġc es
di ÄŁini
Ġver i
ar Ä±nda
D ev
ĠÃ¶ y
ar lÄ±
ĠS ek
ĠHav a
man Ä±zÄ±
Ġ3 5
ĠgÃ¼ven ilir
ĠR e
ĠÅŁ ub
Ġede bilirsiniz
ĠgÃ¶r sel
S T
ĠY unan
ĠB eÅŁiktaÅŁ
Ġk anÄ±
Ġs uy
ĠTr abzon
E l
Ġlez zet
2 6
Ġolan ak
Ġrak am
Ġbel ediye
ĠG erÃ§
Ġtut uk
Ġer iÅŁ
ĠEs ki
Ġr ed
Ġaz alt
Ġi tir
it er
iy a
Ġdir en
Ġbir den
ĠHas an
ĠYÄ±l dÄ±rÄ±m
Ġay Ä±
larÄ±mÄ±z a
ĠuÄŁr aÅŁ
Ġip tal
ĠD ers
ĠÅŁ ampiyon
Ġt Ä±r
enc er
Ġver ecek
o ma
an Ä±m
Ġs iyah
Ġt ers
lar daki
ĠÃ§ oÄŁun
ĠsÃ¶y leyen
ĠT at
ĠdÃ¼zen li
an larÄ±
Ġet ik
Ġikti dar
ĠyÃ¼z yÄ±l
ĠK ab
es e
Ġbelir len
g az
ĠÅŁ Ä±k
v ik
ĠCumhur iyeti
w it
ĠaÄŁ aÃ§
Ġkur ulan
Ġpoz isyon
den iz
ĠhazÄ±r lanan
Ã¼l ey
Ġek ib
ĠÃ¼st Ã¼n
m esinin
ĠhÃ¼kÃ¼m et
ĠÅŁ iÅŁ
u ÄŁu
ĠÄ°ngil tere
iy iz
Ġkullan dÄ±
ĠMur at
ĠC ez
O L
Ġsiyas et
Ġver gi
Ġbek l
Ã¼le bilir
Ġtarih li
umhur baÅŁk
la malar
Ġp il
Ġh ediye
ĠÄ° dar
D Ã¼n
Ġbec er
Ġolduk larÄ±
ind ows
Ġgiz li
ĠÅŁ er
ĠS h
k iÅŁ
Ġ8 0
ĠD ir
ti on
Ġist edik
H ay
A H
la dÄ±ÄŁÄ±
us una
Ã¼m Ã¼ÅŁ
ĠM ad
ĠI rak
ilm e
Ġk us
Ġs im
Ġgelen ek
ĠBank asÄ±
AB D
Ġek len
Ġad Ä±nÄ±
Ġist ik
Ġsorum luluk
ĠÅŀ u
Ġver miÅŁ
ĠaÃ§Ä±kla malar
Ġsay gÄ±
ĠdÃ¶n Ã¼ÅŁtÃ¼r
Ġihtiy acÄ±
? âĢĿ
Ä±lÄ± p
Ġnerede yse
t el
Ġkom p
ad et
ĠAraÅŁtÄ±r ma
ĠÃ¼lk ede
ĠÃ¼rÃ¼n Ã¼
n Ã¼n
lulu ÄŁ
Ġs Ä±ÄŁ
Ġr ast
ĠsÃ¼r eci
Ġi ken
Ġr en
ĠyaÅŁ at
ĠiÃ§in deki
ĠM et
ĠsÄ± v
Ġsay fa
ĠDe ÄŁer
Ġede bilir
Ġl Ã¼tfen
ĠÄ° ki
ĠTay yip
Ġht tp
ĠS Ä±r
Ġm Ã¼t
di ÄŁimiz
ĠY ine
Ġt anÄ±n
Ġdikkat e
ĠF iyat
ĠgerÃ§ekleÅŁtir ilen
ĠR ab
A s
s eri
ĠdÃ¼ny aya
Ġ[ âĢ¦]
Ä±l masÄ±na
Ġiht im
ya da
ĠB at
Ġih racat
Ġbulun dur
ok ulu
ĠulaÅŁ abilirsiniz
an e
Ġzaman larda
Ġoyun c
Ġden etim
Ġal ternatif
ĠO dasÄ±
Ġtar Ä±m
Ġ' '
ĠT am
ĠBiz im
Ġb log
G eÃ§
Ġyas al
er im
Ġn in
ĠbÃ¶lg ede
Ġbil iyor
lulu ÄŁu
ĠÃĩ ar
larÄ±n daki
Ġs af
ĠÄ°l iÅŁ
ĠM a
c isi
st it
ĠÄ°Ã§ in
ĠâĢ Ŀ
Ġt rafik
Ġtoplum sal
Ġyak alan
ĠkonuÅŁ ma
Ġkes im
ley ici
Ġkullan mak
Ġkur su
k adaÅŁ
ĠKan unu
ĠT he
ĠT ah
Ġinsan larÄ±
Ġtoplan t
ĠtaÅŁÄ±y an
di ÄŁim
ĠbÃ¶lÃ¼m Ã¼
ĠMuh am
Ġor du
ĠÃ§ocuk larÄ±n
ĠkaÃ§ Ä±r
c ar
ĠÃ§alÄ±ÅŁ tÄ±r
ĠÃ§ev re
liÄŁ inin
ĠyaÅŁam ak
M M
ĠkÃ¶ k
am ik
Ġdem ektir
ĠÃ¶z en
Ġfiyat Ä±
ĠS ey
Ġser may
Ġok un
Ġuz at
s ev
Ġhak im
ĠbÃ¶lg esinde
t Ã¼rk
Ġayr Ä±ntÄ±
em be
3 5
ĠUz un
Ġed iliyor
ĠFat ih
alar Ä±ndan
ĠkiÅŁ iye
Ġb Ã¼r
Ġdur dur
Ġh Ã¼k
l al
Ġedilm iÅŁtir
Ġboz uk
k ir
Ä±k lÄ±
2 9
Ġbulun ur
man lÄ±k
ĠÃĸn c
ĠMÃ¼ hendis
duÄŁ umuz
Ġg r
tik etler
ĠO nun
ah tar
Ġbin lerce
ĠkÄ± ya
Ġkit abÄ±
Ġot obÃ¼s
es ef
ĠÃ§alÄ±ÅŁ Ä±yor
li ma
uk at
Ġ7 0
Ġs Ã¼s
ĠY as
Ġ â
Ġv s
imiz den
Ġdur uÅŁ
dÄ±ÄŁ Ä±na
4 5
ES Ä°
Ġdep o
ĠdeÄŁ eri
Ġsanat Ã§Ä±
ĠalÄ±n dÄ±
Ġi di
Ġad r
1 00
r ed
ĠteÅŁ kil
Ġson una
m Ä±z
Ġyap abilir
A v
Ġt icari
Ġhas sas
ĠÄ° brahim
ĠgÃ¶rÃ¼l en
! !
ĠÃĩ aÄŁ
Ġd izi
ĠsaÄŁ lam
di p
Ġf i
irk eti
Ä° Åŀ
ĠKom isyon
ĠyÄ±l lar
Ġsistem leri
Ġd is
ĠÃ¶ t
ay Ä±m
Ġilg ilen
ĠW eb
lar i
ĠH ep
ĠOt el
Ġdolay Ä±sÄ±yla
ĠÃ§alÄ±ÅŁ masÄ±
Ġdek or
Ġbahs et
Ġmah kem
alt Ä±na
ĠgÃ¶rÃ¼n t
ĠS av
Ġis mi
Ġhep si
Ġdem iÅŁ
ĠbÃ¶lg e
g re
ĠC en
ĠB Ã¼tÃ¼n
or din
Ġpop Ã¼ler
Ġelekt ronik
et iyle
Ġ ;
ĠyaÅŁ ay
Ġb oÄŁ
Ġyap abilirsiniz
Ġmah k
Ġak tiv
Ġy alan
at or
Ä±y dÄ±
Ġincel em
ET Ãĸ
k on
akk abÄ±
Ġitibar iyle
Ġg Ã¼cÃ¼
ĠHat ta
ĠP KK
dro id
ĠPart isi
Ġhar it
Ġr ef
Ġsun ul
ma masÄ±
d o
ĠiÅŁ in
Ġbilg ilendir
Ġmet re
ĠMah kem
Ġbah Ã§
uyu cu
Ġak adem
ĠA dana
ĠHastan esi
ÄŁ ur
Ġyap Ä±mÄ±
Ä° l
Ġal maya
em li
ĠÃ¶n gÃ¶r
m is
Ġg em
ĠFran sa
ĠS p
r Ã¼k
201 6
Ġay n
ĠalÄ±n masÄ±
ĠF enerbahÃ§e
ĠDo lay
lan mÄ±ÅŁtÄ±r
lerimiz in
ĠsaÄŁ lÄ±yor
ad eniz
Ġdeste ÄŁi
l iye
Ġrenk li
Ġola caÄŁÄ±nÄ±
tan Ä±n
ik at
Ġbar Ä±ÅŁ
Ġun sur
ĠKan unun
Ġdem ir
k ol
Ġserv isi
om p
Ġbed el
ĠÅŁ ark
Ġkor uma
ĠS e
ĠÃ¼ret ic
Ġf Ä±k
ĠvÃ¼c ud
Ġteh dit
b il
Ġ eb
Ġol maktadÄ±r
Ġd iler
ĠkÄ±s Ä±m
ĠhÄ±z la
Ġetti ÄŁini
Al lah
ĠK it
Ġol malÄ±dÄ±r
Ġfayd alan
ĠM us
Ġt erk
ĠS Ä±nav
Ġetk ilen
Ġuygula masÄ±
ĠBeled iy
ĠpiÅŁ ir
ĠB atÄ±
: )
ĠkadÄ±n lar
k Ä±r
Ġb om
m os
k ur
ĠÄ°ÅŁ let
Ġ9 0
Ġt oz
l y
Ġbir er
c iler
ĠEk onom
ĠC ev
Ġkr iz
ĠA L
ot el
Ġvur gu
Ä±lÄ± ÄŁÄ±
Ġfay da
an akk
lan Ä±yor
Ġak lÄ±
ĠÅŀ irket
Ġdo laÅŁ
ĠAb d
ra ma
oc k
Ġimk anÄ±
ĠÃ¼niversit e
Ġsebeb i
eÄŁ e
Ġuy um
ĠO f
ĠP lan
Ġorgan izasyon
Ġb oya
ĠÃ¶nc elikle
Ġproj esi
ĠeÅŁ i
Ġkayde d
b on
Ġil Ã§e
Ġh Ä±r
Ġp et
duk larÄ±
ĠH iÃ§
ĠKay mak
ey a
emiz i
Ġzorun lu
Ġ4 5
ra g
ĠHay at
0 5
lem eye
Ġfon ksiyon
ĠsÃ¶y len
Ġbenz eri
ĠHÃ¼s eyin
Ġdurum larda
s ar
Ġbirbir inden
Ġden g
Ġbilin Ã§
yas al
ĠD Ã¼ÅŁ
ĠM ey
Ġtakdir de
Ġistiyor sanÄ±z
ar bak
ama m
E V
ĠaÃ§ Ä±lÄ±ÅŁ
Ġtarih leri
ĠÅŁ aÅŁÄ±r
ĠK uzey
B il
lan d
err ah
ĠS a
Ġkend ilerini
se f
ey ip
Ġyer li
Ġsev in
ĠN asÄ±l
ĠsÃ¼r en
an Ä±z
âĢ ĵ
ĠG alatasaray
aÄŁ Ä±n
ĠH ukuk
ĠP at
Ġd aÄŁÄ±t
di ÄŁiniz
ĠG Ã¼nÃ¼
ĠÃĸ mer
eb ilmek
Ġsak in
D aha
Ġsah ib
an ti
ĠB ek
C I
anakk ale
Ġil ave
Ġgel diÄŁi
ĠkarÅŁÄ± lÄ±k
us unun
Ġhayat Ä±
mak la
erj i
lay abilirsiniz
men t
Ġben ce
ĠbakÄ±m Ä±ndan
ĠsonuÃ§ larÄ±
Ġsab it
Ġmuh al
ĠÅŁ im
ĠG ru
Ġeder ken
ĠN ak
ĠS it
Ġal g
eli ÄŁi
Ġit hal
ĠBun lar
ĠEm niyet
Ġfak tÃ¶r
ĠyÃ¶n lendir
Ġsun uyor
Ġsiz ler
ĠgÃ¶z lem
ĠaÃ§ Ä±lan
E v
k el
ar y
Ġyen il
ĠE ÄŁitimi
Ġyum uÅŁ
ilece ÄŁini
ezer v
s inde
ay asa
Bu gÃ¼n
g ah
or i
l iliÄŁi
ĠS ig
ĠAlt Ä±n
Ġy e
im den
ĠF eder
Ġiyi ce
ĠyaÅŁ adÄ±ÄŁÄ±
f il
ĠAr tÄ±k
de b
v a
ĠB oz
Ġgel ece
S K
tÄ± cÄ±
ĠhÃ¼c r
Ġtep ki
ĠI s
ĠT eÅŁ
la mÄ±ÅŁ
ey h
un daki
Ġf atur
ĠKo ca
ĠY ok
tan siy
Ġist iyoruz
ĠKon ya
Ãĸz el
Ġyar Ä±
c ret
Ġs am
ĠDÃ¼n y
ĠKom ut
ey erek
Ġkal ma
ĠiÅŁ ler
laÅŁ Ä±k
T L
k im
Ġan lama
er t
Ġkon ak
ĠiliÅŁ ki
il ecektir
ĠparÃ§ asÄ±
arbak Ä±r
m it
ĠmaÄŁ az
ĠgÃ¶rÃ¼n Ã¼m
Ġkam p
E ÄŁer
ulu ÄŁ
N e
Ġtur izm
! âĢĿ
Ġa j
ro p
p aÅŁa
Ġmuh teÅŁem
o ur
mas yon
Ġkor u
ĠP eki
Ġver meye
ist in
ĠÅŀ ampiyon
Ġl ir
7 5
Ġmen s
an tep
ĠiliÅŁk iler
Ãľ N
ĠgÃ¼n dem
eme ÄŁi
Ġel b
E s
Ġkom ut
E tiketler
ĠBil gi
ula cak
Ġt it
ĠT Ä±p
ĠÄ°n ternet
ĠC em
ĠTar Ä±m
ĠG er
Ġak l
wit ter
Ã¼l mesi
in da
ĠhazÄ±r lÄ±k
Ġsan ayi
ac k
Ġbir leÅŁtir
ĠK Ä±lÄ±Ã§
Ġoyun larÄ±
ĠE d
I L
Ġal dÄ±m
Ä° lk
ĠTur izm
U M
eniz i
ĠÃ§ eki
ĠÃ¼y eleri
E B
Ġmod eli
is a
Ġbir ini
Ġdemok ras
i ma
Ġnokta da
ti c
k al
ĠZ aman
Ġkul ak
Ġ Q
it y
Ġb esin
Ġyen ilik
Ø §
tr en
Ġilg inÃ§
m esinde
c Ä±k
Ġgel ip
et er
ĠbaÅŁk anÄ±
Ġbilim sel
ĠÃ¶ÄŁrenc ilerin
Ã¶r Ã¼
ĠBÃ¶l g
Ġver ilir
Ġm Ã¼l
ĠarkadaÅŁ lar
ĠamaÃ§ lÄ±
Ġsig ort
s ul
Ġkolay ca
de mir
Ġm us
Ġindir im
m uz
ĠiÅŁ Ã§i
an dar
ĠgeÃ§ tiÄŁimiz
Ġu st
Ġi ade
6 5
ĠolduÄŁ unuz
Ġfutbol cu
t Ä±n
ĠtaÅŁ Ä±m
ĠaÅŁaÄŁÄ± da
ya j
ĠG rup
Ġkayn aÄŁÄ±
Ġbu z
Ġk u
Ġg Ä±da
Ġi P
Ġkur s
abilece ÄŁi
ĠS Ã¼per
Ġt en
ĠgeÃ§ er
Ġr estor
Ġver mektedir
ĠS aat
ĠÃĸÄŁr en
ĠseÃ§ en
Ġk ere
Ġb eb
Ġkaydet ti
S O
Ġbur aya
i ce
Ġbuy ur
Ä±y Ä±z
Ã¼ley man
T ek
ĠyÃ¼z ey
aya cak
alat ya
Ġe h
Ġk aÅŁ
Ġadet a
o li
ĠbÃ¼y Ã¼m
ĠbiÃ§ im
P S
ĠpaylaÅŁ Ä±m
Ġbeklen t
Ġsit eleri
Ġs arÄ±
Ġortam da
Ġmem ur
Ã¼b Ã¼
mas Ä±n
ĠD in
Ġyap Ä±sÄ±
enk ul
Ġm ekt
ĠD anÄ±ÅŁ
Ġ200 9
el l
ĠM ac
ĠFr ansÄ±z
Ġb l
iy el
Ä±n ma
ĠSay fa
Ġted bir
ĠaÅŁ a
ĠGÃ¼n eÅŁ
ĠSon uÃ§
Ġhiss ed
Ġtab lo
Ġet ki
kiÅŁ ehir
Ġol malÄ±
ĠEr z
3 3
m elik
ektÃ¶r Ã¼
Ġt uÅŁ
Ä±l masÄ±nÄ±
ÄŁiniz i
ĠEr kek
m m
ĠgÃ¶ster ir
ĠF in
Ġkon ser
ĠdÃ¶nem i
ĠkÃ¼ltÃ¼r el
Ġistedi ÄŁi
ĠyÄ±l Ä±ndan
Ġsev k
Ð ¸
ilm ez
of t
ĠkÄ±ya fet
ĠteÅŁ vik
ĠaÃ§Ä± dan
ebilir iz
cÄ± lÄ±ÄŁÄ±
T C
ĠyaÅŁ lÄ±
Ġd aÄŁÄ±
Ġyar g
ĠgÃ¶ster iyor
Ġekip leri
di v
os ya
Ġus ul
ab ilen
Ġmahal l
K ur
Ġsin ir
Ġtemiz lik
ĠyaptÄ±k larÄ±
ile ÅŁtir
lan tÄ±
v ar
ĠB ab
ĠaÄŁr Ä±
ĠgÃ¶z altÄ±na
Ġsan ki
Ġmak am
ĠyÃ¼z Ã¼nden
Ġist erseniz
Ġyol cu
Ä±l maktadÄ±r
olo g
Ġoran Ä±nda
ĠK iÅŁ
Ġkullan an
Ġc oÄŁraf
201 5
ĠY en
Ġsun an
af er
Ġp ort
ĠkarÅŁ Ä±lan
Ġkans er
Ġpo tansiy
Ġb a
Ġs aha
Ġk Ã¼t
ĠÃ§ek ti
ĠyÃ¼r Ã¼r
Ġyol uyla
ĠL e
ĠF Ä±r
lÄ±ÄŁ Ä±nÄ±n
ĠÃľ Ã§
ĠoÄŁ lu
Ġhast alÄ±ÄŁ
Ã§ uk
al esef
Ġvit am
ĠMuham med
ĠM ic
is iklet
Ġgenel inde
l eki
c k
O K
ĠH Ã¼kÃ¼m
Ġof is
Ġdar be
lÄ± dÄ±r
Ġkil omet
y alÄ±
ĠY ah
Ġyar gÄ±
ĠyaklaÅŁ Ä±m
ĠA c
Ġyetk ili
ĠTarih i
ĠkÃ¶ pek
ĠM en
ĠgÃ¶ l
ĠH ast
Ä°n san
Ġgru bu
Ġiz len
ĠBak an
ĠP aÅŁa
ĠÃĩ elik
l or
ler ken
Ġr efer
Ġkay Ä±p
Ä±l dÄ±ÄŁÄ±nda
r ay
Ġsor unun
T op
ĠÅŁ ef
m Ã¼ÅŁtÃ¼r
ĠBil im
ĠÄ° h
Ġh a
Ġet tim
ĠbugÃ¼n e
Ġyer den
ĠDolay Ä±sÄ±yla
o o
ĠdÃ¼z elt
Ġum ut
Ġbit k
lik ler
it ir
Ġbir inin
A V
ekt eyiz
ĠB alÄ±k
ĠyayÄ±n lanan
Ġk uma
ul l
ĠBah Ã§
ru f
ĠFa cebook
ĠkonuÅŁ an
ti b
r y
raf i
S en
ir v
vek il
Ġ200 8
ĠNe w
Ġd ini
E C
ĠÄ° let
ĠY eÅŁil
ta cak
Ġsebeb iyle
Ġbula bilirsiniz
ĠaÄŁ z
Ġal ak
Ġbilg iye
ĠK il
" ,
ah h
ĠÃ§aÄŁ Ä±r
ĠÃĩ Ä±k
ĠBak anlÄ±ÄŁ
n an
Ġed ilecek
0 1
y Ä±m
K on
Ġel bette
Ġmadde si
Ġalt yap
ĠS il
on un
ĠK art
Ġmut fak
ĠgÃ¶rev i
Ġw ww
Ġbirbir ine
ĠÅŁeh r
Ġkurum sal
Ġmad di
Ġbek lem
Ġend iÅŁ
lerimiz e
ĠÃ¼st Ã¼ne
ma dÄ±ÄŁÄ±
Ġ Ä±
ĠgÃ¶r Ã¼r
ĠC uma
Ġide al
alan dÄ±r
ĠdÃ¼ÅŁ en
Ġzam anÄ±
O B
Ġbir leÅŁ
ĠBÃ¶l Ã¼mÃ¼
s iyet
Ġinsan lara
m esiyle
iv as
od rum
Ãĩ ok
Ġar aba
Ġy ansÄ±
Ġsay ede
Ġn iyet
ĠgeliÅŁ meler
ĠR amazan
me de
Ġd ijital
en n
Ġu fak
Ġtamam lan
ĠuÃ§ uÅŁ
in sel
ot ik
ĠmÃ¼ hendis
Ġnef es
Ġet miÅŁtir
Ġ ï¿½
ĠÄ° kinci
Ġul usal
Ġbiri dir
ĠP ort
Ġherkes e
ĠYap Ä±lan
el ek
Ġkad Ä±nÄ±n
ĠLi gi
r is
ĠgÃ¼n Ã¼mÃ¼z
ĠKon s
Ġger eÄŁi
Ġd ip
I K
Ġt o
Ġalb Ã¼m
ĠP ark
alar la
lÃ¼ÄŁ e
v el
D A
Y ap
ĠkarÅŁÄ±laÅŁt Ä±r
Ġkav uÅŁ
ĠGenÃ§ lik
ĠbaÅŁla yacak
ĠgÃ¶ k
M A
ĠgÃ¼n e
ĠYÄ±l dÄ±z
Ġkar tÄ±
Ġbul mak
Ġbey an
Ġtak v
Ġt Ä±p
k Ä±rÄ±
lay abilir
p e
Ġins anÄ±
ĠbÃ¼ny esinde
Ġanla tan
pp le
ur k
ĠbÃ¶yle ce
ĠS tr
Ġtab ii
Ġesn asÄ±nda
Ġyar Ä±n
um artesi
Ġkon uk
ĠtanÄ± tÄ±m
ilm esini
ĠJ ap
Ġl ink
ĠM on
Ġsorun larÄ±
ĠgÃ¶ ÄŁ
Ġbas k
Ġboy u
ĠM HP
lan da
o lar
t eri
Ġyan Ä±na
ĠK ut
Ġfayd alÄ±
Ġon dan
Ġyap Ä±n
Ġma c
il ip
B ak
ĠkadÄ±n larÄ±n
ĠÃ¼lk emizde
âĢ ¢
ĠÃ¼ret imi
ĠR um
or b
Ġkapas it
Ä±la caÄŁÄ±
Ġmevcut tur
Ġbel ediy
Ġmev zu
Ġo p
Ġy edek
An kara
Ġok uma
is yen
Ġk uzey
Ġgal ib
g Ã¼
ĠHaz Ä±r
ĠÅŀub e
Ġola sÄ±
Ġad alet
Ġg Ã¼r
Ġp r
ĠaraÅŁtÄ±r malar
ĠdeÄŁ in
ĠHizmet leri
ĠKur umu
ĠalÄ±n arak
Ġedeb iyat
y ol
f Ä±r
Ġmet in
Ġy edi
ĠK up
ÅŁ ap
as Ä±ndaki
Ġan al
ĠM em
ĠiÅŁ leri
Ġkim lik
ĠCez a
Ã¼m rÃ¼k
ÅŁ iv
Ġz ek
Ġtut an
9 9
ĠÃĸ dÃ¼l
Ġgi dip
ĠF er
ver en
il la
Mer haba
z i
E k
Ġkal mÄ±ÅŁ
Ġo b
B el
ĠyÃ¼ksel t
Ġar an
Ġkeyif li
ĠiÅŁbir liÄŁi
ĠÃĸÄŁr enc
ĠgÃ¶r dÃ¼k
en a
Ġn as
4 4
duÄŁ unuz
Ġist if
Ã¼st r
Ġyen ilen
us uz
Ġistih dam
Ġgid iyor
Ġbur adan
Ä° D
ĠhatÄ±r lat
ĠKur t
ĠLis esi
Ġm Ã¼r
ww w
Ġm oda
ĠkarÅŁÄ± ya
b el
Ġk up
ĠyaÅŁ adÄ±ÄŁ
duÄŁ um
Ġde pr
Ġsev gil
Ã¼l dÃ¼
Ġbelir lenen
Ġv ir
Ġkah raman
ĠmÃ¼dahal e
r al
am i
Ġolduk larÄ±nÄ±
Ġf alan
ama ya
Ġkalit e
Ã§ Ä±k
ĠkaÃ§ Ä±n
Ġser g
t ek
ĠbÃ¶lÃ¼m Ã¼nde
ĠÃ§aÄŁ r
t uÄŁ
ĠsektÃ¶r Ã¼nde
ey di
Ġman z
Ġ Ä±r
am Ä±ÅŁ
Ñ ģ
elis iniz
Ġanlam Ä±
dÄ± lar
estiv al
ĠB oy
Ġf abrik
l os
dÄ±ÄŁ Ä±ndan
Ġbar Ä±ndÄ±r
Ġdav a
em eyen
o ut
Ġp ratik
b ek
ĠÃĩalÄ±ÅŁ ma
Ġyer lerde
Ġad landÄ±r
Ġedil ebilir
sÄ±z Ä±n
ecek siniz
Ġfizik sel
Ġmut luluk
ĠH erk
ley erek
ken t
at istik
ĠS Ã¼leyman
0 9
ir im
. [
Ġac il
ic iler
ĠaracÄ± lÄ±ÄŁÄ±yla
ĠGru bu
ĠHaber leri
ildi ÄŁini
ĠgÃ¶ster di
Ġp lak
ĠyÃ¼rÃ¼y Ã¼ÅŁ
Ġ19 7
Ġ3 00
Ġgenel de
adde si
Ġm imar
ĠkanÄ± t
Ġgerek tiÄŁi
ĠKam u
ĠyÃ¼k Ã¼m
ans iyon
ur ta
ĠÃĸ l
ĠEn stit
ĠgeÃ§ ici
g Ã¼r
an et
Ġol mayacak
m r
dik lerini
Ġsey ir
Ġbil et
ĠbaÅŁlan gÄ±Ã§
Ġmey dan
Ġkullan ma
S iz
ĠÃ¶n de
ĠbazÄ± larÄ±
l iy
Ġy av
0 3
ĠG erek
as i
Ä° z
Ġyak Ä±ndan
ro m
Ġay kÄ±rÄ±
Ġmak al
ĠA j
ĠC ih
g at
ĠÃ§Ä±k acak
ler di
m uyor
Ġver erek
ĠgÃ¶rÃ¼ÅŁ meler
lÄ±ÄŁ Ä±nda
Ġola caÄŁÄ±
Ġuy arÄ±
Ġgit mek
Ã¼ ce
Ġk imi
Ġver ilmesi
an d
Ġnes il
iÅŁ ik
ĠBir leÅŁ
l es
ĠW indows
ĠgÃ¼nde me
ĠF ar
Ġ est
ÄŁ imi
Ġd oy
Ġyok tu
m ekten
Ġyap Ä±lab
Ġhap is
tay Ä±z
Ġedildi ÄŁi
ĠbaÄŁ Ä±r
Ġdur uma
Ġhak larÄ±
Ġhalk Ä±n
Ġfazla s
ĠÃ¶lÃ§Ã¼ de
ĠKar adeniz
lerin deki
un ma
Ġkal Ä±r
ĠY a
Ġnakl iyat
ĠulaÅŁ Ä±m
Ġyar Ä±m
Ġbil en
ilm esine
ĠÃĸÄŁr etim
ĠT un
ĠgÃ¼Ã§ lendir
Ġk Ä±zÄ±
Ġrak ip
ÅŁ u
T Ãľ
ĠÅŁ unlarÄ±
U S
Ġtaraf tar
Ġu laÅŁtÄ±r
l us
Ġma Ã§Ä±
ĠF utbol
Ġedilm ektedir
ok ol
Ġb aba
ĠProgram Ä±
ĠsÃ¼r Ã¼cÃ¼
Ġden et
Ġkap an
d iniz
g ulan
3 1
Ġb iy
E O
ĠÄ°s pan
Ġek ibi
Ġar alÄ±k
Ġre j
ĠR eh
0 2
Ġtak Ä±mÄ±
gil iz
ĠHakk Ä±nda
Ġ3 6
Ġgerek ti
andar ma
. âĢĻ
usu f
Ġvar lÄ±k
Ġd edik
Ġkonu larda
ĠbÃ¼y Ã¼
Ã½ r
lÃ¢ m
sta gram
Ġtan esi
ĠAmer ikan
ĠB e
ĠtÃ¼r Ã¼
Ġh ab
ĠÄ°ÅŁ leri
ĠM Ä±sÄ±r
ĠB undan
ren s
Ġalan larÄ±
ĠEn d
Ġmalz eme
201 4
Ġser tif
ĠD estek
lik te
Ġr ezerv
ĠAn a
ĠDo Ã§
Ġser gil
ĠKay nak
ĠA R
E Y
h o
d eri
Ġkolay laÅŁtÄ±r
Ġyan gÄ±n
Ġk oc
ĠG ar
Ġtedav isi
3 2
ĠbaÄŁlan t
Ġyer ler
ĠyapÄ±l dÄ±ÄŁÄ±
Ã¢ y
iler inden
Ġma den
Ġol dum
Ġar alarÄ±nda
Ġkus ur
ĠUl usal
dÃ¼ÄŁ Ã¼nÃ¼
tÄ±ÄŁ Ä±mÄ±z
Ġkir alama
Ġh alÄ±
Ġkol tuk
Ġdev rim
orn o
Ġz eytin
ĠgÃ¶rÃ¼n Ã¼yor
ĠD ik
d iye
i e
ĠAs lÄ±nda
Ġkor umak
r ip
ĠC ar
Ġfin al
el al
ĠdÃ¶nÃ¼ÅŁ Ã¼m
O M
fer ans
ĠF ETÃĸ
ĠyÃ¶ntem i
medi ÄŁi
ĠÃ¶nc esinde
Ġayr Ä±l
aÄŁ Ä±nÄ±
Ġkap s
ĠÅŁey in
Ġkr ed
Ġuy umlu
Ġl ok
ĠAr ab
Ġoyn ay
ĠkÃ¼r esel
ĠF et
ĠsÃ¶z leri
mak tÄ±r
Ġk lasik
ĠÃ§ocuÄŁ un
edi ÄŁiniz
ut ma
ĠgÃ¼n Ã¼mÃ¼zde
ĠyaÅŁ adÄ±k
Ġfir masÄ±
Ġyol unda
Ã¼y e
Ġsev gi
Ġalan lar
Ġal Ä±nacak
um p
Ġyol da
ĠVak fÄ±
Ġincel en
3 4
ĠA dÄ±
0 6
ĠgÃ¼n ler
Ġhar ek
ĠT emiz
0 8
Ġgerek Ã§
Ġe p
y dÄ±
Ġf ar
Ġkar a
Ġay akkabÄ±
Ġma y
ĠÄ°let iÅŁim
Ġbelg esi
ĠV an
lÄ±k ta
3 6
Ä±s al
ĠO ÄŁ
iye de
Ġkazan Ã§
ĠM u
Ġkal Ä±cÄ±
ĠKar ar
Ġciv arÄ±nda
ĠK endi
Ġmar uz
Ì Ī
or g
malar Ä±n
Ġbelirt ildi
Ġyiy ecek
Ġkat Ä±
Ġolma dÄ±
ĠdÃ¼ÅŁÃ¼n Ã¼l
AD DE
ul uyor
Ġdil ek
Ġm m
ĠÅŁ irketi
Ġyap tÄ±m
an n
0 7
Ġkal ab
im le
Ġfir mamÄ±z
ĠYÃ¶net imi
ĠMÃ¼dÃ¼r lÃ¼ÄŁ
ĠG az
la yacak
ĠY urt
Ġma aÅŁ
Ġk aÄŁÄ±t
Ġan ahtar
ĠyÃ¶n Ã¼nde
Ġkal b
Ġbab asÄ±
m elerin
Ġtab an
Ġkon for
lem esi
p at
am Ä±yor
Ġy Ã¶r
Ġan i
ĠÃľ cret
ĠÄ° d
Ġy itir
ĠmÃ¼mkÃ¼n dÃ¼r
ĠProj esi
ĠÃ¼st Ã¼nde
Ġr ahmet
T Ã¼m
k or
ĠeÄŁlen celi
Ġb et
el le
Ġor man
ĠdÃ¼zey de
ĠalÄ±n Ä±r
res s
ĠbaÅŁ lÄ±klÄ±
par ator
E F
? ?
Ġd iyet
Ġifad elerini
ĠAk deniz
ad ir
v eya
ĠbÃ¼t Ã§
ĠAr t
z at
ĠsonuÃ§ lar
at Ä±n
Ġkim yasal
ĠeÅŁ ya
s oy
Ġev den
Ñ Ĥ
Ġgelenek sel
Ġsun ulan
ĠOr gan
ĠBÃ¶l ge
ĠG Ã¶n
ĠM obil
ĠE x
c ektir
Ġgar ant
meli dir
y eni
Ġdevlet in
ey se
Ġtasar ruf
Ġol mayÄ±
Ġdakik ada
ĠBey az
ĠgÃ¶rÃ¼n tÃ¼l
ĠgÃ¼n Ã¼n
ĠK av
ĠKo Ã§
s atÄ±
la z
Ġeg z
Ġkir al
Ä±sÄ± t
Ġv ad
ĠyaÄŁ mur
ĠkÄ± v
ĠK amp
Ġhan Ä±m
ar ik
it ler
Ġk a
Ġd Ã¼ÅŁtÃ¼
ek s
ĠK ent
on a
Ġderece de
ig it
Ġkal em
Ġel inde
Ġver im
ĠMes lek
Ġhal i
ĠgerÃ§ekleÅŁ en
az artesi
Ã¢ m
5 5
U z
ub e
Ġli g
Ġok ur
0 4
Ġb ez
Ġgerek se
Ġesn af
is iz
um an
ĠÃĩev re
ĠV at
ĠÃ¶n Ã¼mÃ¼zdeki
ĠgÃ¼n den
ak lÄ±
ĠÄ°s mail
ĠOr du
Ä±n an
Ġcez asÄ±
ĠA N
ĠZ aten
o od
ĠP r
Ġac aba
ĠF ark
ĠiÅŁ lev
ĠolduÄŁ um
Ġsev en
d Ä±ÅŁ
Ġkims enin
Ġmuh ab
ĠgÃ¼n ey
ĠÃ§aÄŁ rÄ±
ĠÃ§alÄ±ÅŁmalar Ä±nÄ±
er al
ĠBel ki
ĠÅŀah in
Ġkit l
ĠÄ°nÅŁ aat
Ġuy ku
Ġhat a
d Ã¼n
Ġsan Ä±rÄ±m
Ġst at
B MM
ir li
Ġmet al
y u
Ġev lilik
ĠHay van
ĠD oÄŁan
Ġbu lama
ĠbaÄŁ Ä±ÅŁ
ĠÃ§Ä±k mÄ±ÅŁ
Ġken ar
Ġr Ã¼z
ĠhayÄ±r lÄ±
Ġol may
Ġitir az
ĠAs ya
Ġsev g
Ġgur ur
Ġg ayet
os k
Ġkazan an
cÄ± larÄ±n
Ġdar b
or at
Ġkom isyon
Ġ ..
Ġol unca
ĠsÄ±v Ä±
v uru
ĠDÃ¼z en
ĠEs cort
ĠkÃ¶ pr
edi ÄŁini
Ġd an
ad Ä±n
ĠS itesi
Ġhal en
ĠS ok
lan dÄ±ÄŁÄ±
Ġe ÄŁit
Ġad resi
Ġhad is
3 9
ĠSistem i
deb iyat
Ġer iÅŁim
Ġgay ret
il eÅŁ
Ġbirey sel
Ġgetir mek
ĠElekt rik
ĠÅŀ en
m el
an Ä±k
Ġbulun mak
ĠM ersin
ĠÂ ·
Ġver imli
as Ä±z
Ġyaz Ä±k
Ġmet rek
tÄ±k larÄ±
Ġist an
Ġyap Ä±p
Ġgazet ec
Ġes k
Ġhis se
ĠgÃ¼ven liÄŁi
ĠAr kadaÅŁ
ĠgeliÅŁ miÅŁ
ĠÃ§ elik
Ġbahs ed
Ġtasar Ä±mÄ±
ĠbaÅŁla mÄ±ÅŁ
umhurbaÅŁk anÄ±
ad Ä±m
Ġden k
ĠÃ§ Ã¶
Ġt iyatro
ĠE uro
Ã¼k s
Ġan Ä±nda
ĠServ isi
A ma
Ġeder iz
Ġada yÄ±
Ġdiye bilir
ĠDem ok
Ġ Ã¼m
tÄ± lar
O y
an g
Ġnet ic
Ay rÄ±ca
elen dir
la v
Ġm Ã¼s
ĠUy gulama
ma mak
Ä±l dÄ±ÄŁÄ±nÄ±
Ġmens up
Ä±y Ä±m
ĠsÃ¼reÃ§ te
ĠsÃ¼r eli
ĠAn droid
ses uar
Ġkul Ã¼p
ĠmaÄŁ dur
ot os
eler ek
Ġsiz leri
ara j
ĠsÃ¼r edir
Ġkork u
y iz
ra Ã§
Ġp ah
ĠÃľy esi
ĠÃĩ anakkale
ĠDiy arbakÄ±r
Ġhast alÄ±ÄŁÄ±
j en
lan acak
Ġt ali
ĠS es
ĠGÃ¶r ev
ĠS em
Ġgec ik
ek er
m eyecek
Ġdal g
ĠSavaÅŁ Ä±
Ġyet ersiz
Ġkullan dÄ±ÄŁÄ±
ĠF u
Ġtoplum un
m eyin
dan Ä±
ĠkÄ±y met
Ġsur etiyle
ĠÃ¼lk eler
ĠÃ§ocuk larÄ±
Ġnokt asÄ±
Ġkullan Ä±lmasÄ±
akar ya
el li
Ġzor luk
Ã¼rk en
Ġsorun lar
Ġoyn an
o ok
ot er
ĠnÃ¼f us
Ġ3 2
ĠkarÅŁ Ä±lÄ±ÄŁ
Ġi ÅŁt
Ġzaman Ä±nda
ĠgÃ¶ m
ĠsÃ¼r ece
DÃ¼n ya
k o
Y az
ĠÃ§alÄ±ÅŁ mak
ĠsaÄŁ lÄ±ÄŁÄ±
ĠÃ§at Ä±ÅŁ
Ġyap manÄ±z
Ġy oÄŁ
Ġg Ã¼z
Ġtelefon u
Ð ½
ĠAra Ã§
Ġzaman lar
) :
ĠM alatya
Ãĩ ocuk
ib e
Ġhay ran
Ġk er
dav a
Ġday alÄ±
Ġoda sÄ±
Ġola ÄŁan
ĠT R
Ġpar mak
s av
Ñ Ģ
ec t
eb i
ĠÃľ zer
ĠÃĩ ek
Ġkullan abilirsiniz
ĠTel efon
Ġfark Ä±
Ġt ap
ĠY aÄŁ
Ġkend imi
Ġp u
Ġ200 7
Ġgit tik
Ã¢ t
Ġfark Ä±nda
ley in
Ġistan bul
ĠiÅŁ gal
ĠdÃ¼ÅŁÃ¼n ce
Ġmiktar da
Ġsig orta
Ġz emin
it i
Ġyap Ä±lÄ±yor
ĠÃ¶rgÃ¼t Ã¼
Ġkuma ÅŁ
ĠKul Ã¼bÃ¼
ĠBilg isayar
ic k
Ġar tan
alim anÄ±
3 8
O Äŀ
Ġger il
m uÅŁtu
S B
ĠMÃ¼ ÅŁt
G el
ĠAbd ullah
Ġpan el
Ġrek abet
ĠRab b
te in
Ġdikkat li
Ġic in
ĠOn lar
Ġyans Ä±t
ĠÃ§ Ã¶k
Ġreh ber
m ey
Ġver me
Ġc as
ĠÃ¶nc elik
Ġbilg isi
Ã§ u
malar Ä±na
Ġkullan Ä±labilir
mal Ä±sÄ±nÄ±z
Ġ3 4
ra dan
ĠOr man
ĠsÄ±nÄ±r lÄ±
Ġalan larda
ĠTur k
ĠN eden
Ġbey in
Ġmey v
ce ÄŁi
ĠyÄ±l lardÄ±r
w e
Ġuygula malarÄ±
ket bol
Ġhal kÄ±
Ġolabilir siniz
Ġspor cu
O n
d un
lÄ± ca
ĠAf rika
Ġmes le
_ _
ĠB oÄŁ
ÃľR K
id er
Ã§ isi
ĠÃ§eki ci
Ġt ok
ÅŁt Ä±r
Ġk Ä±sÄ±t
Ġist is
Ġtarih inden
mem esi
Ġihtim al
ĠÃ¼cret i
Ġinan Ã§
ĠGerÃ§ ek
Ġmey ve
Ġav ukat
ĠEs kiÅŁehir
Ġmu ay
ĠÃ¼rÃ¼n lerin
ĠyÃ¶n el
f ik
Ġnumar alÄ±
Ġtut ul
bal aj
u g
. '
Ġbin a
ĠT ut
Ġden ir
ĠAn n
O T
lar Ä±mÄ±
ĠM adde
Ġalt Ä±nÄ±
T ar
Ġyet enek
ĠE ge
Ġolma masÄ±
Ġ20 00
d ing
ĠY Ã¼r
ĠSek ret
iler le
Ã ©
ĠEv et
ĠteÅŁekkÃ¼r ler
y ken
3 7
Y Ä±l
uy um
ĠyaptÄ±ÄŁ Ä±mÄ±z
Ġtip i
Ä±yor sanÄ±z
estiv ali
ĠdeÄŁ ildi
ĠbÃ¼y Ã¼me
Ġhar iÃ§
de s
ĠseÃ§enek leri
ĠcÃ¼m l
ĠsÄ± fÄ±r
ĠiP hone
Ġat Ä±k
ĠM ez
umuz un
A d
ĠGazi antep
ĠR ad
Ġek mek
n uv
Ġd Ã¶
Ġk Ã¢
if e
Ġkar ma
Ġi man
la Ã§
Ġgel mesi
Ġkil it
19 9
ĠterÃ¶r ist
A C
ĠÃĩ ift
Ġsine ma
Ġyolc uluk
at es
ĠdÃ¼ÄŁ Ã¼n
er a
ip lin
d iy
Ġcam i
Ġal masÄ±
ĠsÃ¶z Ã¼
Ġhar f
ĠMÃ¼z ik
ãģĤãģĤãģĤãģĤ ãģĤãģĤãģĤãģĤ
ĠE b
Ġan Ä±
Ġmuh tem
Ġsebep le
ĠbaÅŁ Ä±
ÅŁam ba
Ġder nek
ĠD on
I I
Ġtaz min
uÄŁ la
Ġed ilerek
Ġtop r
Ġal abilir
Ġ5 5
ĠyÄ±l Ä±nÄ±n
Ġdon anÄ±m
ĠB ayan
Ã¼k le
iler de
S ev
Ġyet en
un cu
ĠK uvvet
ĠaÅŁ ama
Ġgel ince
m u
al og
ĠBÃ¶l gesi
et te
Ġbiz lere
r iyet
ĠD ep
ĠS arÄ±
L Ä°
Ġhayat ta
ĠTasar Ä±m
Ġm ini
Ġkelim e
tif ak
ĠtÃ¼k etim
Ġuygulan an
p az
Ġproj eler
o lat
ĠYÃ¶net meli
ĠÃ§ ey
B Ã¼yÃ¼k
Ì §
av a
an larÄ±n
Ġgeldi ÄŁini
ĠY usuf
ĠYat Ä±rÄ±m
ĠaÄŁ Ä±z
ĠEn erji
ĠÅŁah Ä±s
ĠTes is
lar ken
ĠA pple
Ġs a
LER Ä°
Ġs Ã¼per
laÅŁt Ä±ÄŁ
eb ilen
Ġ4 8
Ġadam Ä±
ĠTop lum
Ġ15 0
Ġd Ã¼k
ĠYap Ä±
Ġfel sef
ĠsÄ±r t
Ġbulun masÄ±
Ãĸ ÄŁr
Ġte mas
Ġm ir
ay as
larÄ±nÄ±z a
Ġs Ä±z
L U
Ġsavun ma
Ġsel am
Ġmuh af
Ġgel mektedir
Åŀ u
Ġdayan Ä±klÄ±
Ġaz Ä±ndan
Ġmak yaj
ĠTem el
ĠgÃ¼zel lik
lat ma
D oÄŁ
ĠgÃ¶ster mektedir
b ank
ĠĠ ĠĠ
ĠBun larÄ±n
ĠF otoÄŁraf
ĠgÃ¼n ah
Ġb Ä±
6 6
Ġsiz lerle
ĠdeÄŁerlendir me
ĠA da
Ġsun um
Ġhus us
men izi
Ġan tren
ĠMahkem esi
lem iÅŁ
Ġkend inizi
m ara
ĠÃ§alÄ±ÅŁ Ä±r
ley ecek
ĠDÄ±ÅŁ iÅŁleri
ĠÃ¼ret ilen
ĠT al
Ġtaraf tan
ĠgÃ¶z Ã¼k
Ġev len
ĠA dam
Ġhak lÄ±
Ä± d
Ġs Ã¼n
ĠÄ°ÅŁ lem
unuz un
ĠK Ã¼t
en de
Ġl og
s lan
ĠA ile
ĠsÃ¶zleÅŁ me
ĠyapÄ±l maktadÄ±r
An cak
Ġhav uz
ĠMec lisi
Ġz inc
ĠSat Ä±ÅŁ
Ġkay dÄ±
ĠK af
Ġsaat lerinde
ac Ä±k
Ġbes lenme
ĠC on
l Ã½
I S
Ġo lamaz
ĠgÃ¶r dÃ¼m
Ġm Ã¼n
Ġhas ar
Ãĸn c
Ġmec lis
Ġpet rol
Ġkey f
H al
Ġmal i
Ġb Ã¶yl
p a
Ġkamer a
rim enkul
o un
Ġcen az
Ġsun maktadÄ±r
Ġrahat lÄ±kla
Ġh ediy
Ġin c
ĠDÃ¶n em
lan arak
unuz a
ĠKar ÅŁ
umhur iyet
l eket
ĠV ol
ĠbaÅŁla dÄ±m
av i
Ġmas raf
ĠoluÅŁ ur
ab ilmektedir
ĠyukarÄ± da
ĠR ek
ÅŁ embe
Ġplan Ä±
Ġak Ä±ÅŁ
ĠyÃ¶net men
Ġmed yum
Ġses siz
ĠK aÃ§
s h
ĠÄ° t
Ġbak tÄ±ÄŁ
Ġf et
ĠsatÄ±ÅŁ a
ĠH ik
ĠulaÅŁ mak
ĠÄ° talya
iyet ini
Ä° Ã§
ĠGÃ¶r Ã¼n
g Ã¼t
ĠbaÄŁÄ±m lÄ±
ĠyÃ¶n de
eb ilm
Ġanlat tÄ±
az en
Ġolmak tan
Ġemek li
E y
ĠAv ust
Ġhareket e
Ġiy ileÅŁtir
lu p
ĠiÅŁ yer
or un
ab ilmesi
Ġma alesef
ĠÃ¼st Ã¼
201 3
Ġar ayan
Ġsig ara
ĠÃ¶ÄŁrenc ileri
Ù İ
ĠKar ab
Ġp rim
d oÄŁ
Ġd ili
L E
Ġmez ar
Ġn em
Ã¼l Ã¼r
Ġver ici
ĠiÃ§in den
Ġren gi
ĠÃ¶zgÃ¼r lÃ¼k
ĠTab i
Ġmakin esi
Ġyarat Ä±cÄ±
Ġay da
s is
uÅŁtur ucu
Â »
Ä° H
Ġkay bol
4 6
ĠG Ä±da
ĠyÄ±l larÄ±
Ġm or
G Ã¶r
ĠTekn oloji
al el
est er
ti h
Ġbon us
Ġet tiler
ÅŁ e
op er
Ġsen dik
ul maz
ĠÃ§ek im
ĠsÄ±k Ä±
t esi
i di
ĠgÃ¶rÃ¼yor uz
ĠaÃ§ ma
ĠÄ°s v
Ġvur gula
k un
Ġd osya
Gen el
Ġ3 8
Ġhaber leri
Ġyum urta
ĠM esel
Ġv ade
Ã ĥ
ĠkaÃ§ ak
ĠÃ§ek iyor
luk la
Ġmalzem eleri
ind istan
m ini
Ġtur ist
ir in
am uk
Ġy ur
bah ar
4 8
ĠP as
Ġkir alÄ±k
ĠhÃ¼k m
Ġmillet vekili
G S
T R
ĠF en
ĠoluÅŁtur an
Ġpar lak
k ul
ĠÃ§alÄ±ÅŁ maya
ĠV ali
ĠH Ä±r
uk ur
ĠH otel
dar oÄŁlu
Ġ6 5
ĠBayram Ä±
b eri
ĠS ez
ĠR apor
ĠS un
Ġbul du
ĠkarÅŁ Ä±mÄ±za
ĠZ ira
Ġaras Ä±ndan
Ġkah ve
pr iz
Ġbil eti
Ġoda s
ĠÅŁey leri
ĠgeÃ§ iyor
Ġ0 5
Ġoy unun
Ġv asÄ±
ĠS ivas
ĠOt o
Ġr Ã¶
ĠRes mi
ĠÃ§oc uÄŁu
ĠOy sa
Ġma vi
ĠN az
te matik
ĠTr ump
Ġver siyon
Ġbir ÅŁey
ĠFil istin
ĠÄ° mam
ĠProj e
Ġal ama
m edik
? "
ĠsÃ¼rec inde
Ġd eri
it ika
is indeki
ĠfÄ±k r
ĠiÅŁlet me
ayÄ± t
E vet
L AN
ĠK en
z an
ĠD aÄŁ
ĠmaÃ§ Ä±nda
Ġem niyet
ab i
Ġolay Ä±
larÄ±nÄ±z Ä±n
Ġan ti
Ġp en
Ġbek lenen
Ġt ev
r az
ĠÃ§ ik
la j
la ya
Ġyap masÄ±
ĠTan rÄ±
em em
uÅŁ u
ĠE debiyat
es ir
Ġb isiklet
Ġyap Ä±yoruz
Y A
ler inize
ĠsÃ¶y lemek
kir alama
Ġder ken
ĠH Ä±z
ĠsoruÅŁtur ma
ĠM aÃ§
Ġu laÅŁtÄ±
Ġkazan dÄ±
Ġmik ro
z em
Ġv ah
o x
Ġ lan
Ġsil in
S an
ĠTop lam
ler deki
ĠdÃ¶v iz
C HP
ĠH es
Ġat tÄ±
ĠolduÄŁ unda
ĠtaÅŁÄ±m ak
ĠD ar
ER S
Ġol malarÄ±
K ay
ĠMak in
ĠK arak
Ġh ekim
Ġyap rak
ĠLis ans
Ä±b bi
ĠT Ãľ
ĠKomisyon u
Ġnum arasÄ±
anlÄ± ur
ĠP erson
ay ol
Ġih al
U K
ĠdÃ¼zen lediÄŁi
Ġmon taj
Ġalan a
Ġsan ay
LAR I
Ã¶l y
Ġsaat leri
ĠD E
a a
Ġdepr em
Ġyer leri
ĠServ is
ĠiletiÅŁim e
ĠKup asÄ±
ĠâĢ ¢
Ġte or
Ġmerkez inde
Ġimk Ã¢n
ĠdÃ¼ÅŁ Ã¼ÅŁ
ek tif
ĠÃ¶ mr
ĠA T
Ġkon s
Ġal Ä±cÄ±
c Ä±nÄ±n
Ġolmas a
e e
Ġar asÄ±na
it if
meler ini
den in
ĠFeder asyonu
Ġson suz
ĠYar Ä±ÅŁ
ĠPol is
j i
Ġd i
Ġ âĢĻ
Ã¼yor um
aÄŁ Ä±na
Ġmik tarÄ±
ĠbÃ¶l Ã¼n
Ġkaybet ti
Ġincel eme
Ġver iler
Ġsistem inin
t h
Ġar az
Ġbak an
Ġg elerek
ĠkarÅŁ Ä±n
Ġist edim
ĠP an
Ġkar go
ĠyumuÅŁ ak
Ġo lama
Ġik ram
ĠP et
ĠdÃ¼zen leme
ĠÃ¶nem i
Ġmas a
ĠC addesi
-- --
Ġban yo
ĠSon r
ĠYunan istan
imiz le
ĠF ik
Ġf uar
duk tan
ĠB et
Ġak r
I Z
Ġt oh
Ġman tÄ±k
Ġk aÅŁÄ±
ĠilÃ§ esi
ĠÄ° b
Ġd Ã¼r
ec ik
Ġil anÄ±
Ġk Ã¼Ã§
B aÅŁk
ĠgÃ¶ÄŁ Ã¼s
Ġmillet vekil
ĠN ec
ĠBaÅŁ bak
c Ã¼k
Ġbel ge
Ġgel miÅŁtir
ĠÅŁek li
manÄ±z a
ĠHak an
tik ten
Ġbit ki
Ġkar iyer
Ġsun duÄŁu
da ÄŁÄ±
ĠÃ¼rÃ¼n Ã¼n
eler iyle
ĠS tan
Ġpotansiy el
iy aret
ĠÅŁ Ã¼k
Ġtep k
Ġsay g
ĠT Ã¼r
Ġ0 9
ma d
Ġimz alan
Ġn ih
an dev
Ġol manÄ±n
Ġgar anti
ĠÃ¼y elik
ĠG Ã¼Ã§
ĠKÃ¶y Ã¼
ĠðŁ Ļ
ĠT eb
L Ãľ
ĠB Ã¼l
ã ĥ
ĠC umartesi
U l
ĠBaÅŁk anlÄ±ÄŁ
ĠseÃ§ imi
Ġtam ir
ĠK es
m esinden
Ġhal ka
ĠÃ¶r t
eb il
Ġor anda
A t
de si
Ġhat t
Ġfir malarÄ±
Ġyap mayÄ±
ĠAÅŁ aÄŁÄ±
Ġko du
Ãľ lk
ĠH emen
lama yÄ±
ÄŁimiz i
Ġay larÄ±nda
Ã¼n ce
ĠS iyas
Ġister im
ilm elidir
Ġkat Ä±ldÄ±ÄŁÄ±
4 7
Ġedece ÄŁiz
Ġkahv altÄ±
ĠS aÃ§
Ġal gÄ±
Ġden em
uv alet
ĠkeÅŁ f
Ġbes len
ĠP ay
ĠTak Ä±m
Ġsev er
l iyat
ĠÅŁeh rin
ece ÄŁim
lan maktadÄ±r
Ġy el
ĠL im
o le
ĠKoca eli
ĠKon trol
Ġettik leri
ĠUz man
Ġ3 7
Ġd ans
Ġm uk
Ġ4 00
ÅŁ i
Ä°S T
ĠÅŁif r
l ob
Ġs Ã¶
abilir iz
ĠMod el
uyor du
umuz u
Ġp encer
Ġbeklen iyor
il l
b Ã¼s
Ġkem ik
Ġt l
Ġonun la
ap i
ĠfÄ±r satÄ±
ĠadÄ± yla
A h
Ġdu a
ĠEt kin
v in
ĠT anÄ±
iv e
Ġsit esinde
ĠdeÄŁiÅŁik liÄŁi
ĠÄ±ÅŁ Ä±ÄŁ
ĠS Ä±
ĠÄ°n dir
Ġ7 5
S aÄŁ
ĠP sik
Ġal kol
in er
Ġdemok ratik
Ġen te
Ġnit eli
Ġduy arlÄ±
Ġsaat i
ĠM imar
ĠD uy
Ġ $
Ġve s
g ari
Ġhakk Ä±nÄ±
un lar
O P
Ġtarif i
ĠÃľst elik
Ġy Ä±la
Ġenf eksiyon
Ġsermay e
Ġsah ne
ĠKay seri
Ã§ ek
l iyoruz
Ġver ilecek
ĠB odrum
I Åŀ
ĠM e
Ġan lar
Ġkal Ä±p
ĠN et
Ġbilm iyorum
abilir ler
Ġoyun lar
n deki
r uk
ĠOk u
ĠT BMM
Ġon ur
es por
Ġsab Ä±r
ĠÃĸ Z
ĠeÅŁ liÄŁinde
Ä±l mak
Ġsit emiz
amÄ±z da
ĠTab ii
ĠÃĸ yle
K al
Ġev et
ĠF estivali
ĠKÄ±s a
Ġolab ilecek
Ġpsik olojik
ĠN er
Ġic ra
tr e
ĠKr edi
Ġsun mak
ĠyÃ¼z lerce
ĠgÃ¶r dÃ¼
Ġdam ar
Ġmev sim
ĠÅŁ unu
ĠÃĩ ay
Ġarac Ä±n
ĠoluÅŁ um
Ã¼y Ã¼
B Ã¶l
Ġar ÅŁiv
A ÅŁ
ĠÄ° r
Ġgeldi ÄŁinde
Ġpazar lama
Ġv el
ez il
ĠM at
ĠG al
ti p
la b
Ġ200 6
Ġ19 6
Ġc errah
Ġy aÄŁÄ±
ĠÅŁ eye
ĠAr dÄ±ndan
Ġkon uyu
ĠE c
las man
Ġkalit esi
ĠarkadaÅŁ Ä±
ĠÃ¶ mÃ¼r
M S
Åŀ imdi
leÅŁtir me
ĠEnstit Ã¼sÃ¼
Ġisteyen ler
Ġbir liÄŁi
ĠAn ayasa
Ġerkek ler
ĠgÃ¶rÃ¼l Ã¼r
Ġetm ez
h as
yas por
Ġp eygamber
ud ak
Ġhayat Ä±n
is ar
k y
Ġma il
Ġkullan Ä±larak
aÄŁ Ä±nÄ±n
Ġ201 9
Ġidar i
Ġg eb
Ã¼m an
Ġtab let
Ġvat an
Ġev inde
ĠkaÅŁÄ± ÄŁÄ±
ĠD oktor
Ġet ken
Ġ ec
ĠgÃ¶rev l
Ġkur mak
Ġekip man
cÄ± larÄ±
ut an
ĠkullanÄ±cÄ± lar
Ġger ide
ĠPar is
ĠT witter
Ġk lima
ĠÄ°s lÃ¢m
M E
ĠgÃ¶rÃ¼n ce
ak al
Ġs om
ros oft
Ġbul an
Ġsoru lar
ĠÄ±sÄ± t
Ġolay lar
em edi
Ä±yor sunuz
ĠOr t
lin ik
Ġsey ret
ĠbaÅŁk anlÄ±ÄŁ
Ġsan al
Ã§Ä± lÄ±k
Ġboz ul
im ini
ĠGazet e
Ġyas a
ĠSor u
Ð¾ Ð
ĠÄ° le
Ġz irv
Ġakadem ik
Ġv al
Ġkaz a
c Ã¼sÃ¼
ĠÅŁart larÄ±
Ġkarar lÄ±
Ġbun lara
ĠT ok
ĠgeniÅŁ let
ĠY av
ĠÄ°l Ã§
Ġtehlik eli
Ġbah ar
A Äŀ
ĠÃ¶ÄŁrenc ilere
ik alÄ±
Ù Ħ
Ãľ n
Ġah ÅŁap
eÄŁ ine
Ã¼p han
Ġal mÄ±ÅŁtÄ±r
r ist
Ġbilg ilere
ĠdÄ±ÅŁ Ä±na
Ġ Ã¼s
Ġengel li
ĠDair e
ĠkÃ¶ p
ĠK uÅŁ
Ġkar anlÄ±k
Ġsev iyorum
Ġcan landÄ±r
ĠmaÃ§ ta
Ġdok u
Ġh itap
Ġbak Ä±n
ĠbaÅŁ lama
Ġg rafik
l eyece
Ġprot okol
Ġ Ø
ĠErz urum
ĠkiÅŁ iyi
Ġmuhal ef
ama ÅŁ
Ä°z mir
an ta
ã Ĥ
suz luk
ĠBunun la
d Ä±ÅŁÄ±
ĠÃ¶z et
ĠO p
ĠÃ§ eÅŁ
em eyece
ob ot
ĠO lay
laÅŁtÄ±r ma
anlÄ±ur fa
Ġver dim
g Ã¼l
lÄ± lar
Ġar zu
ĠkÄ±r Ä±k
Ġeg emen
Ġin f
d il
Ġed ici
ĠKr al
ĠiÅŁlem ler
ĠkayÄ±t lÄ±
ĠhatÄ±r la
Ġal Ä±rken
ĠP iyas
Ġt Ã¶r
ĠTekn oloj
Ġn Ã¶
div en
Ġah lak
Ġs esi
eb ilmesi
ĠÅŁ air
l edim
ĠÃ§iz gi
Ġr is
ley ip
Ġp eyn
ĠOr tak
Ġuyar Ä±nca
ir aat
ĠV ide
Ġal dÄ±k
Ġmekan iz
y az
ĠgÃ¶rev lendir
ĠÃĸz gÃ¼r
Ġir ade
ĠkullanÄ±l maktadÄ±r
Ġek lem
d Ã¶n
A F
Ä±n d
ĠiÅŁlet im
ĠgÃ¶r dÃ¼ÄŁÃ¼
Ġtan Ä±k
Ä±ÅŁ lÄ±
Ġ !
ĠO da
ĠÃ§Ä±k arÄ±
em iyor
Ġkut u
ma at
Ġsay Ä±sÄ±nÄ±n
T r
Ġt ay
ĠE mek
dÄ±r ma
am Ä±n
lay Ä±nÄ±z
Ġolm uÅŁtu
ĠTar af
ĠN ev
Ġgetir diÄŁi
Y aÅŁ
Ã¼r riyet
ebilece ÄŁi
Ã§ Ä±n
ĠÃ§alÄ±ÅŁmalar Ä±na
Ġiz lem
ler imi
b iy
ac h
Ġetm eyi
p h
Ġil ah
sev er
len iyor
Ġkol eksiyon
Ġdair e
k as
igit urk
Y ar
Ġd iyorum
lan abilir
Ä±la v
Ġplan a
Ġnes n
ĠÃ¶ lÃ¼
Ġdurum un
ab ak
Ġanlam lÄ±
201 2
ĠM aÄŁ
l ed
Ġa ilen
Ġkonu lar
Ġsev gili
ĠvatandaÅŁ lar
Ġv izyon
ĠkatkÄ± da
M adde
B unun
ĠdÃ¼ÅŁÃ¼n Ã¼r
Ġbildir di
ĠOr han
ĠsaÄŁlan masÄ±
ĠÃ¶ÄŁren mek
y urt
ĠÃĸr gÃ¼t
Ã» l
ĠÃĩ Ã¶z
Ġyor gun
liÄŁ iyle
p osta
Ġaktiv it
st il
lÄ±k tan
ĠHan Ä±m
ĠsÃ¼r Ã¼yor
Ġn o
ep e
D r
ond ra
ĠÃ§ek ir
4 9
Ġm it
Ġkategor isinde
ĠAÄŁ Ä±r
. (
Ġg ib
ĠAÅŁ k
ece ÄŁiniz
ĠAk adem
Ġzarar lÄ±
Ġk Ã¶r
ĠKaymak am
l d
Ġben den
x y
Ġman evi
Ġbir ine
Ġbil eÅŁ
ĠR enk
aÄŁ Ä±nda
Ġelb is
Ġkalab alÄ±k
Ġp rens
Ġb acak
ĠT av
Ġkal acak
tr al
ĠsÄ±nÄ±r larÄ±
ĠgÃ¶z den
ĠsÃ¼r priz
ĠbÃ¶lg eye
ĠsektÃ¶r Ã¼
Ġtes cil
Ġs eri
lam alÄ±
ĠgeliÅŁ en
Ġnokt asÄ±nda
ĠgerÃ§ekleÅŁ ti
Av rupa
Ġsat Ä±ÅŁÄ±
eb ilmektedir
on ik
ĠM Ã¼cad
ĠH ey
g Ä±t
ig ht
Ġver ilmiÅŁtir
Ġden ilen
Ġy uvar
ĠB ana
ur a
ĠdoÄŁ an
Ġ3 3
Ġmas aj
ĠaraÃ§ larÄ±
ĠbaÅŁla dÄ±ÄŁÄ±
Ġbul ur
ĠgÃ¼n leri
ĠmÃ¼l k
Ä £
ĠÃ¶r neÄŁi
Ġgerek sin
or u
Ġak sine
Ġ0 1
ĠgÃ¶ster mek
tÄ±k tan
ekt aÅŁ
Ġkayb Ä±
ĠEm re
ĠT iyatro
art man
Ġko ordin
Ġok umak
l it
Ġev ren
us e
ĠDoÄŁ al
b as
ĠDoÄŁ ru
ĠkÄ±y as
ĠKar ÅŁÄ±
ĠR oman
Ġ2 50
ĠAd alet
ĠÅŀ im
ĠL a
ĠÅŁeh ri
Ġark asÄ±nda
ĠR oma
AS I
Ġef san
Ġail esi
T K
d Ä±nÄ±z
y asÄ±
Ġetkil ey
Ġkam yon
Ġsem bol
Ġl ek
l on
Ġenf lasyon
laÅŁ masÄ±
ĠÅŀeh it
esin ce
Ġinsan a
Ã¼ ya
ĠðŁĻ Ĥ
Ġ Ä±n
ĠdÃ¶nem in
Ġi kin
ĠÃĩar ÅŁamba
Ġpah alÄ±
Ġhafta da
V e
ĠaÃ§ an
ĠM etin
st e
Ġy ah
Ġl Ã¼ks
o tiv
Ġn ez
Ġh orm
B ah
Ġyap Ä±labilir
ij inal
B ey
ĠÄ±r k
Ġbek let
h ab
Ġalan Ä±na
Ġli deri
Ġma ter
Ġist atistik
m ec
ĠÃĩ ak
ĠkÄ±sm Ä±nda
iÅŁ e
ken ti
ĠeÅŁ lik
Ġak sesuar
ĠsÃ¶z ler
Ġtali mat
Y ak
lÄ±yor uz
g resi
Ġdekor asyon
ĠÃ¼lk elerin
ĠY ork
Ġann esi
av uÅŁ
ĠBahÃ§ eli
Ġolm uyor
nam e
Ġelem an
ĠyÃ¼rÃ¼r lÃ¼ÄŁe
im et
Ġkor uy
ĠBar Ä±ÅŁ
Ġprogram larÄ±
ĠyapÄ±l mÄ±ÅŁtÄ±r
Ġolmak la
ĠÃĸÄŁren ci
ĠbÃ¼y Ã¼y
Ġces aret
Ġfinans al
ĠÃ§Ä±k masÄ±
Ä±l maya
Ġh ip
ĠdoÄŁ a
ma ÄŁ
ĠÅŁirket in
Ġkar bon
Ġalak alÄ±
Ġhem ÅŁ
Ġr iv
ĠP azartesi
Ġdevr eye
Ġekonom i
Ġkamu oy
st r
am Ä±nÄ±
Ġhizmet ler
Ġbil iyorum
Ġisten en
Ġas it
ĠY azar
om e
Ġbek leyen
Ã¢ l
ĠdeÄŁil im
Ġtut um
ĠsÃ¼r Ã¼m
Ġtaraf Ä±nda
ĠTem sil
Ġetti ÄŁiniz
Ġted arik
ĠKÄ±lÄ±Ã§ daroÄŁlu
ĠkÄ±sm Ä±nÄ±
ĠÃ§ atÄ±
ĠdÃ¶nem lerde
Ġok um
Ġve fat
ĠÃ§Ä±k Ä±p
Ġhab eri
ĠyÄ±l Ä±na
ĠK aya
ĠDair esi
ĠdeÄŁer leri
Ġkilomet re
Ġim ar
Ġkur ban
Ġdel il
ĠbÃ¼y Ã¼t
ER Ä°
Ġnum ara
it asyon
Ġkan at
ĠgÃ¶rÃ¼l mektedir
ĠÃ§Ä±k tÄ±ÄŁÄ±
Ġsoru larÄ±
g ini
ĠÃ§ or
ĠkiÅŁ ilere
ĠM otor
ĠBak Ä±m
ĠD ek
Ġrad yo
Ġrahat sÄ±zlÄ±k
Ġest etik
Ġih ale
ĠaÅŁk Ä±n
Ġf estival
âĢĻ âĢĻ
ĠGÃ¶ ster
Ġzaman la
Ġbizim le
y im
ĠyaÅŁ Ä±yor
Ġbul uÅŁtur
ĠÃĸn ce
ĠS orum
Ġkal mak
ĠbaÄŁ lam
Ġkayb eden
ĠS akarya
Ġbu ton
Ġs of
ok s
eden iyet
ĠOk ulu
Ġkullan Ä±lab
ĠG elen
ĠgeliÅŁ me
Ġtek er
est o
ĠN ot
Ġhayat Ä±na
ĠaÃ§ tÄ±
p oz
ĠB M
ĠFin ans
m es
Ġmahal le
ĠGir iÅŁ
Ġk afa
ĠHD P
Ġayak ta
k aya
tal yan
Ġiz lemek
ĠolduÄŁ unun
giliz ce
Ġko v
ay Ä±p
acaÄŁ Ä±mÄ±z
Ġp orno
t op
S Y
ĠgÃ¶ster diÄŁi
Ġg ram
ĠÃ¶ÄŁren ildi
sim um
Ġduyg usal
ĠÃĩ iÃ§ek
Ġteb rik
eli f
Ġtarz Ä±
ĠS oy
ĠI ÅŁÄ±k
Ġoyn anan
ĠÄ° Åŀ
ĠsÃ¼r Ã¼k
ĠY emek
Ġver g
Ġsah il
ey ebilirsiniz
Ġpiyas aya
ĠayrÄ±ntÄ± lÄ±
Ġdip lo
Ġkontrol Ã¼
Ġal Ä±mÄ±
Ġik lim
lu b
D P
ĠSay f
ĠÃ§ap Ä±nda
ĠyaptÄ±ÄŁ Ä±nÄ±
Ġdemokras i
ĠdoÄŁ ur
de d
ĠKor e
Ġbiz zat
ĠdÃ¼z gÃ¼n
ĠyayÄ±m lanan
Ġ3 9
ĠdÄ±ÅŁ Ä±ndaki
Ġ200 5
Ġim alat
laÅŁt Ä±k
ĠaÃ§ Ä±ÄŁ
Ġtak sit
Ġtav siy
Ã¼yor uz
ĠaÃ§Ä±kla masÄ±
ĠY abancÄ±
Ġegz ersiz
ĠKon u
Ġz ul
ĠJ andarma
Ġbil iyoruz
Ġbak alÄ±m
Ä° ÅŁte
Ġn iÅŁ
ĠO per
Ġev ine
Ġm im
Ġorta da
ĠN it
Ġend Ã¼str
Ġmekt up
Ġev in
il t
Ġetk ileri
la malarÄ±
ĠkarÅŁÄ± lÄ±klÄ±
Ġz ehir
ĠÃ§ab uk
Ġkend isinin
Ä° C
c usu
Ġs log
ĠÄ°l gili
Ġalt Ä±ndaki
ĠbaÅŁar Ä±sÄ±z
Ġkapsam lÄ±
iy eli
Ġol say
Ġmem leket
ĠKah raman
a il
Ġkal dÄ±ÄŁÄ±
tÄ± lÄ±
Ġtarih ine
Ġsek si
Ġmadde sinin
ĠÃ§ocuk lara
Ġkul Ã¼b
Ġkok u
Ñ ĸ
Ġkr iter
ĠaÃ§Ä±k Ã§a
Ġkat k
Ġfilm in
Ġdev ir
T A
Ġkr em
Ġbula b
end im
ĠaÃ§ Ä±ldÄ±
ĠgÃ¶rev ini
Å ¸
Ġtaz e
Ġsun ar
Ġetik et
ĠgÃ¶rev li
Ġgiy im
ĠDer gisi
Ġger iye
Ġcep h
ĠsÃ¶y ler
Ġb r
g azi
Ġol gun
ĠsaÄŁla maktadÄ±r
Ġs Ã¶n
Ġpro tein
Ġgel dik
S er
ĠÄ°l Ã§esi
len diÄŁi
Ġkend ileri
ĠGazet esi
Ġyarg Ä±lan
Ã¼kle er
Ä° V
Ġpla stik
ĠU ÄŁur
ĠyÃ¼rÃ¼t Ã¼len
K at
Ġyer lere
tad oÄŁu
ĠÃ§ el
Ã§ ilik
ĠdÃ¼zen lendi
Ã¼ÄŁ Ã¼n
Ġbom b
Ġcin ayet
ĠD iz
Ġanlat Ä±yor
Ġyolc uluÄŁ
eniz e
Ġbiz ler
Ben im
Ġtamam Ä±
ĠgeliÅŁtir me
H aber
Ġorgan ize
usun daki
ĠM in
Ġev i
p Ä±nar
Ġder g
ĠB ebek
Ġrapor u
ĠfarklÄ± lÄ±k
Ġbildir ildi
Ġmak ine
Ñ ĥ
i ca
ĠsÄ±k Ä±n
19 8
U T
Ġk g
Ġ0 8
m Ä±yorum
ĠR uh
ĠPer ÅŁembe
mal Ä±yÄ±z
ĠKons eyi
ĠÃ§ek in
Ġver ilmektedir
ĠbÃ¶lÃ¼m de
ĠHav alimanÄ±
ĠamaÃ§ la
ĠdÃ¼zenlen ecek
ĠmÃ¼ h
ĠMÃ¼hendis liÄŁi
ĠinÅŁ allah
Ġpay laÅŁtÄ±
ĠN um
Ġbenim le
ĠS ol
ĠoluÅŁtur mak
ĠA le
malar a
ĠY orum
Ġd Ã¶r
y eri
Ġtekn olojik
h ay
ĠÃ¶rg Ã¼tÃ¼n
Ġ lik
Ġuz an
p s
t s
Ġp ayÄ±
Ġver ilmiÅŁ
Ġeder ler
Ġuy du
Ġs et
lÃ¼l Ã¼k
ĠÃ¶de y
Ġyol larÄ±
Ġak Ä±m
Ġy emeÄŁi
larÄ±mÄ±z la
ledi ÄŁiniz
Ġk ek
Ġrezerv asyon
as h
Ġt ef
ĠdeÄŁiÅŁ en
k ray
zer bay
j e
k ap
k ili
ĠKon ut
Ã¢ lÃ¢
ĠUy gula
ĠFark lÄ±
Ġev r
anÄ± p
K ul
m us
ĠKÄ±z Ä±l
ĠiÃ§ ecek
ay olu
ĠF az
ĠÃ§iz g
Ġdur uyor
ĠBaÅŁ vuru
Ġhakk Ä±ndaki
ĠgÃ¶r Ã¼le
ĠP en
ĠarkadaÅŁ larÄ±
Ġpar alel
ĠG Ã¶l
ow n
Ä±k Ã¶y
Ġh aÅŁ
ĠK ayÄ±t
Ġ0 2
ĠEn gel
Ġim al
res yon
Ġbekl iyoruz
o id
ĠÅŁar j
iz li
Ġvad eli
s Ã¼
Ġb atÄ±
I T
ĠA lÄ±
R us
Ġkonu ya
o du
ĠK er
ĠM ik
dir ne
umuz a
Ġ Ù
Ġbl ok
ĠA D
Ġbir inc
Ġkab il
ec iler
Ġtamam la
Ä±mÄ±z dan
Ġyak Ä±t
Ġf en
Ġm ide
ĠÃ¼zer i
ĠMar mara
ĠL ev
Ġtaraf Ä±
ĠE R
andev u
Ã¼ ÄŁÃ¼
Ġbul ma
ĠH ac
Ġlis te
k s
Ġu sta
ĠbaÅŁla mÄ±ÅŁtÄ±r
Ġbit ti
ĠÃ¶zg Ã¼
luÄŁ a
Ġsistem in
ĠA p
Ġ4 7
ĠA il
ĠD al
ĠMÃ¼z esi
Ãĸ R
ĠeÄŁlen ce
n Ã¼
Ãĸ N
Ġsistem ine
Ġimz al
Ġdon dur
lan t
Ġmahk eme
A Ã§Ä±k
C umhurbaÅŁkanÄ±
ĠS alÄ±
m emek
ĠOn line
Ġver mesi
ĠKal kÄ±n
ĠÃ¼y eler
Ġin ci
in dan
Ġsiz den
Ġinan Ä±lmaz
ĠyardÄ±m Ä±
Ġla b
Ġkonu larÄ±
Ġuy uÅŁturucu
ĠSok ak
Ġcen net
lÄ±yor um
is ti
ĠHast alÄ±k
Ġ lam
Ã½ Ã¾
ĠgÃ¶r mÃ¼ÅŁ
y aÅŁ
ĠyÄ±k ama
m emiz
Ġtoplant Ä±sÄ±nda
Ġpol itika
ĠD i
Ġdil iyorum
ĠSÃ¶z leÅŁ
y aman
ĠKullan Ä±cÄ±
Ġgel ec
Ġr af
Ġgide cek
Ã§ Ä±sÄ±
ĠÃ§ aba
ĠYaÅŁ am
ĠÃ¶ p
ĠÄ±s rar
oh n
Ġfaaliyet leri
Ġr o
ĠBir Ã§ok
ĠTer Ã¶r
ama yan
Ġgetir iyor
g ur
ĠbÃ¶lg esi
ĠMesel a
Ä±n dÄ±k
Ġev rak
Ġpro fil
lob al
ĠgÃ¼n Ã¼nde
ĠseÃ§en eÄŁi
iÅŁ li
Ġf ant
ĠB o
Ġbul ut
lama da
ola b
ĠeÅŁ siz
ĠGel iÅŁtir
Ġs kor
Ġyak Ä±ÅŁ
t asÄ±
ahh Ã¼t
Ġr eng
ĠgerÃ§ekleÅŁtir ildi
Ġik isi
Ã¢ b
Ġp ak
Ġyaz dÄ±ÄŁÄ±
Ġkazan mak
ĠA ir
ĠÃ¶ v
Ġd elik
acÄ± lÄ±k
Ġs ad
at ta
Ġlezzet li
ĠP ek
tÃ¼r Ã¼
Ġuygulama ya
ĠG e
D V
ĠÃ¼lk emiz
ĠdÃ¶n dÃ¼
Ã§Ä± lar
Ġn az
Ġgerekir se
luÄŁ unu
ĠÅŁirket leri
Ġt ey
ĠÅŁimdi den
Ġyap maktadÄ±r
I n
ĠÃ¼lk emizin
ĠyÃ¶ntem leri
Ġtah sil
ĠBirleÅŁ ik
Ġdedi ÄŁi
tÄ±ÄŁ Ä±m
u da
Ġsiyas al
Ġkon ferans
ers iniz
Ġs emin
ek om
Ġbed eli
Ġuz ay
ĠtÃ¼ket ic
Ġv ic
ĠgÃ¼n dÃ¼z
Ġkampan ya
v at
Ġol masÄ±nÄ±n
Ġyaralan dÄ±
Ġham ur
ĠiÃ§eri ÄŁi
Ġnetic esinde
Ãľ r
ir t
ĠgeÃ§ir mek
ĠrÃ¼z gar
meye ce
Ġbilin c
Ġik ili
Ġkom ÅŁu
ĠiÃ§er ir
Ġbak Ä±mÄ±
ĠiliÅŁk ileri
M uh
dÄ±k Ã§a
Ġt v
ÅŁ ek
ĠKaz an
Ġc az
mÄ±ÅŁ tÄ±m
me ce
ĠdÃ¼ÅŁÃ¼n dÃ¼ÄŁ
ĠD alÄ±
E P
Ġhes abÄ±
ĠiÃ§er isine
Ġhizmet e
Ġib adet
ĠkeÅŁ fet
eng iz
Ġdoktor a
Ġsistem ini
Ġyeter ince
ĠarkadaÅŁ Ä±m
ĠsÄ±cak lÄ±k
ĠGeÃ§ en
ĠS ch
ĠÃ§Ä±k arak
Ġtoplan tÄ±sÄ±
Ġn Ä±n
ĠVal isi
Ġede cektir
Ġmed y
s et
Ġbun lardan
Ġsiz lerin
ĠkarÅŁ Ä±sÄ±na
Ġo cak
Ãĸ r
Ġtab ak
ĠÃ§alÄ±ÅŁ Ä±yoruz
Ġdir ekt
Ġkr al
Ä±lacak tÄ±r
ĠSeÃ§ im
ĠR as
y di
Ġan tik
Ġdin amik
ĠkatÄ±lÄ±m cÄ±
Ġgibi dir
Ġel inden
Ġk Ã¼f
ĠHay Ä±r
ĠsÃ¼r Ã¼
Ġor aya
Ä±lÄ± ÅŁÄ±
Ġih lal
Ġat mos
ĠgÃ¶z e
ĠNak liyat
ĠT Ã¼k
Ã¼ler ek
à ¸
Ġsuy un
Ã¼ yada
Ġkal Ä±yor
ĠhÃ¢ l
lÃ¼ÄŁ Ã¼nÃ¼
ĠSaÄŁ lÄ±ÄŁÄ±
ĠH a
Ġsen ar
Ġist asyon
iniz den
Ġmater yal
Ġeden ler
ĠÃ¼lk eye
ĠaÅŁa masÄ±nda
Ġ lay
ĠK erim
ĠBas Ä±n
Ġbor u
Ġla f
ĠyerleÅŁ im
ĠÃĸr nek
Ġalan larÄ±nda
Ġbulun duÄŁunu
e x
4 2
S el
ĠÃ¼lk elerde
Ġdiz isi
m ektir
ĠÃ§ il
Ġet meniz
9 5
ĠT or
Ġkonak lama
Ġbe dava
l Ã®
ĠÃ§Ã¶ p
der e
Ġb iber
ĠyaÅŁam Ä±nÄ±
Ġam balaj
S am
Ġkaynak larÄ±
zerbay can
Ġlis e
umuz da
Ġek st
Ä±ÅŁ Ä±n
ĠK AR
T V
Ġ19 5
ĠÄ°n ce
Ġolmaz sa
Ġf orum
ĠL ondra
Ã ħ
in ler
Ġmerkez ine
ĠY un
ĠsÃ¼r Ã¼c
Ġhep sini
Ġkon ulu
Ġark ada
Ġkurul muÅŁ
ĠHar eket
ĠbÃ¼y Ã¼sÃ¼
Ġp ost
Ġhukuk i
Ġkoy un
ĠD aÄŁÄ±
Ġodak lÄ±
ĠYal nÄ±z
Ġetti ÄŁimiz
ĠDeniz li
ĠyardÄ±m Ä±yla
ĠÃ§ Ä±r
Ġsunu cu
Ġpoz itif
ĠH indistan
Ġunut mayÄ±n
ĠN ih
ĠkarÅŁ Ä±lÄ±ÄŁÄ±
ĠO d
iÄŁ eri
M ar
ĠkarÅŁÄ±lÄ±ÄŁ Ä±nda
ĠPerson el
ĠÃ§ek mek
Ġok ula
c ik
t or
Ġiy ileÅŁ
Ġistedi ÄŁini
Ġtop la
Ġherk esi
Ãĸzel likle
ebilir im
mat es
Ġyol unu
Ġver dik
Ġanla mak
m l
Ġkap ak
as ebe
ĠBil imleri
ĠAn d
cel l
ĠBaÅŁk a
ĠdanÄ±ÅŁ man
ĠanlaÅŁ ma
P ar
Äŀ Ä°
Ġem ir
Ġism ini
Ġsertif ik
Ã§ ilerin
Ġbak ar
ĠBÃ¼l ent
Ġanlam Ä±nda
s ey
Ġilan larÄ±
Ġ1 000
Ġay et
Ġsey r
Ġtr en
ĠÃ§Ä±k ma
eri f
K end
ĠP h
Ġdir ek
ĠÃ§ ak
Ġel ine
ĠK Ä±y
Y D
Ġt or
Ġadam Ä±n
Ġbiz leri
ĠÃ¶nem lisi
Al man
ĠSav unma
amaÅŁ Ä±r
Ġsat Ä±r
Ä±lÄ±r ken
ĠÂ «
ĠalÄ±n mÄ±ÅŁ
ĠA V
Ġstr es
Ġsahip leri
ĠYÃ¶net melik
Ġy uv
Ġkolay lÄ±kla
ĠeÅŁy alar
ĠP lay
Ġfor ma
ĠgÃ¶rÃ¼ÅŁ me
ĠSil ah
ĠT C
ic h
Ġyurt dÄ±ÅŁ
A A
mas i
ĠBak anlÄ±k
ĠbaÅŁ kenti
ak in
f t
Ã§ asÄ±
Ġ <
adÄ±ÄŁ Ä±nÄ±z
Ġdis iplin
ĠalÄ±ÅŁ kan
ur e
Ġbelir gin
as tik
Ġda ima
e ÄŁini
ĠH e
Ġbay rak
ĠiÅŁ ini
ĠbaÅŁ tan
D er
Ġsorun suz
u x
em iyorum
4 3
ĠgÃ¶r ebilirsiniz
Ġyum urt
Ġgel eceÄŁi
ĠÄ°span ya
j inal
Ġd ediler
Ã¼r t
Ġ200 4
ĠDeÄŁ iÅŁik
Ġo radan
Ġmes leki
ĠbaÅŁ lÄ±k
Ġ1 20
ĠK ud
ĠÃ¶lÃ§ Ã¼m
or it
Ġolur du
p o
ĠOt om
Ġolan Ä±
Ġtaleb i
ey t
Ġgalib iyet
ĠÃ¶ÄŁren me
Ġgetir ir
Ġhaft alÄ±k
Ġdevam lÄ±
6 8
Ã¶n Ã¼
Ġ5 8
ub u
ĠCev ap
Ã¢h il
ĠkÃ¶ tÃ¼l
Ġyaz Ä±yor
ĠG Ã¼mÃ¼ÅŁ
Ã¼ lasyon
duÄŁ unda
Ġbu dur
Ġgir er
Ġetraf Ä±nda
br ek
g n
Ġdep lasman
B UL
g ut
k usuz
Ġs akat
d Ã¼ncÃ¼
ĠZ eytin
Ġcev ab
ap ort
u du
P G
ebilece ÄŁiniz
Ġih raÃ§
Ġkoy u
Ã§ ileri
as Ä±n
ĠtaÅŁ Ä±yor
Ġteknoloj isi
b at
ek ili
Ġr Ã¼y
ĠKalkÄ±n ma
Ġs Ã¶k
y at
Ä±m dan
Ġproj enin
ĠAma Ã§
ĠgÃ¼c Ã¼nÃ¼
Ġdef ter
Ġver ileri
eb ze
ĠGÃ¼n cel
Ġkurul um
ĠK oc
ab rika
ĠpaylaÅŁ mak
laz Ä±ÄŁ
len erek
ĠÃ¶ f
Ġder t
ĠhazÄ±r lanmÄ±ÅŁ
ilir ken
Ġma tematik
Ġsat Ä±
Ġsahip liÄŁi
Ġdes en
ÄŁ iyle
ĠgÃ¶ v
Ġiz ni
ĠtÄ±k layÄ±n
ĠdÃ¶ ÅŁ
Ġtoh um
ĠÃľ N
ĠkÃ¶ ken
Ġhayat Ä±nda
Ġmanz ar
Ġsan Ä±k
ĠÃ¶zellik ler
Ġistik rar
ĠDevlet i
Ġal et
og raf
Ä±s Ä±n
ĠbÃ¶lg enin
Ġzaman dÄ±r
edik leri
uy du
Ġoyun cak
ik al
uyor lar
laÅŁ Ä±m
ĠY ay
Ġyol una
Ġanlay Ä±ÅŁÄ±
Ġolur ken
Ġetm em
caÄŁ Ä±z
por taj
Ġyar alÄ±
Ä±l lÄ±
s ed
Ġaj ans
Ġyaz an
Ġmesel a
abilm e
g Ã¶z
Ġmut f
K Ä±r
7 8
ak istan
Ġbas tÄ±r
Ġmadd eler
ĠF orm
Ġk uy
an dum
Ġ( %
Ã¼mÃ¼z e
una cak
E Z
Ġkor uyucu
Bur ada
da s
ĠU lu
ĠD ok
ĠP R
ĠM ate
Ġlist esi
ĠÃ§alÄ±ÅŁ tÄ±ÄŁÄ±
Ġsem t
Ġproj eleri
g im
at lÄ±
ĠdeÄŁiÅŁiklik ler
ut in
Ġmec bur
Ġzorunda dÄ±r
Ä±n c
S Ã¶z
Ġkat li
Ġar Ä±z
am e
ĠsÃ¶ylem iÅŁ
ĠÃľ ret
Ã¼l mÃ¼ÅŁ
Ġkom bin
Ã¼l Ã¼yor
M il
ilece ÄŁiniz
ĠgÃ¶z et
ĠHar ek
landÄ±r Ä±cÄ±
liÄŁ inden
ĠM ek
ĠArab istan
is in
ĠK Ã¶r
D iÄŁer
Ġp ir
ĠEf end
ĠTak Ä±mÄ±
alar Ä±yla
Ġolay larÄ±
Ġak la
Ġl it
ĠsektÃ¶r Ã¼nÃ¼n
Ã§ Ã¼
Ġfazla sÄ±
lo ad
ĠOr tadoÄŁu
ĠaraÃ§ lar
Ġlab orat
mek le
Ġidar e
kray na
Ġkut sal
Ġcan Ä±m
Gen Ã§
Ġsev iyede
ĠH acÄ±
s alar
H A
ĠyetiÅŁ kin
dan Ä±n
Ġd udak
Ġris ki
Ġger eÄŁ
Ġyaz arÄ±
ĠHal il
otos iklet
d oÄŁu
t as
Ġbirlik t
abilece ÄŁini
ĠyÄ±l larÄ±nda
ĠÃĸz tÃ¼rk
ĠF i
Ġkad ros
Ġh oca
Ġor ijinal
ĠE min
Ġolmas Ä±n
ĠÃľ s
Ġsonra dan
Ã¼m in
ĠaÃ§Ä±k landÄ±
malar Ä±nÄ±n
ey sel
am alarÄ±
4 1
ĠgÃ¶r me
y sa
Ġders i
Ġsek iz
Ġkend ime
201 1
ĠMan isa
ĠB eni
ĠdaÄŁÄ± tÄ±m
Ġkur du
masÄ± dÄ±r
ĠM Ã¼slÃ¼m
ĠBir inci
Ġt uvalet
Ġo muz
u el
Ġbiz den
ĠTe dav
ĠP ara
ĠY Ä±lÄ±
oper atif
Ġayr Ä±m
Ä±y an
Ġ| --
Ġisim ler
ĠgÃ¶nÃ¼l lÃ¼
ĠA day
Ġetk iler
ÅŁ ak
ĠdeÄŁiÅŁ ken
Ġg emi
ĠD ef
Ä±ÅŁÄ±k lÄ±k
ĠyapÄ± larak
Ġmis iniz
Ã¼s Ã¼nÃ¼
ĠboÅŁ an
ĠS n
Ġtut mak
ĠP a
) )
Ġab on
Ġmedya da
ay dÄ±
Ġ6 00
luÄŁ un
ĠYav uz
n daki
Ġduy ar
ĠvatandaÅŁ larÄ±n
Ġbilg ilerin
ĠDoÄŁ um
Ġs us
ĠKo ordin
y ak
ĠÃ§ ant
Ġhalk Ä±nÄ±n
Ġbula cak
Ġisten ilen
if i
ĠÅŁah it
R es
ĠSal onu
ĠmÃ¼z ak
edek tif
li p
Ġit tifak
Ġih mal
ĠgeÃ§ erek
ĠAk Ä±n
Ġtamam ladÄ±
U y
bir liÄŁi
S D
ÄŁim de
Ġtur nuv
il iÅŁ
Ġtr end
ĠaÄŁÄ±r lÄ±k
h iÅŁ
Ġkon se
ĠB eÅŁ
ĠZ iyaret
Ġgerekli dir
ĠDÃ¼ny anÄ±n
ÅŁ et
Ġmillet in
K adÄ±n
iv er
Ġyap acaÄŁÄ±
ĠÃ Ĥ
iÃ§ i
mas Ä±z
es un
ĠÃ§Ä±kar dÄ±
Ġetkil eÅŁ
ĠM ir
ildi ÄŁinde
Ġtav Ä±r
ĠbÄ± Ã§ak
ĠgeliÅŁtir mek
Ġtazmin at
Ġiz leyen
ĠsÃ¶ mÃ¼r
ĠÃĸ de
Ġtut un
Ã¼n Ã¼r
ma dÄ±m
Ġanlat Ä±m
r it
Ġma z
Ġoyn amak
ĠAz iz
ĠÃ¶ tÃ¼rÃ¼
ĠbugÃ¼n kÃ¼
Ġort asÄ±nda
Ġf it
Ġbozuk luk
Ġortam Ä±
Ġpiyas a
Ġcas ino
Ġhak em
Ġn ik
Ġsistem e
ala xy
ĠTÃ¼rk men
eyin ce
oc uÄŁ
ĠkoÅŁul larÄ±
Ġtat min
Ġvurgu layan
Ġas gari
ĠÃ§Ä±kar mak
ĠÃ¶z gÃ¼n
s Ã¼n
y n
Ġzaman a
Dev let
Ġb ag
ĠBan ka
Ġ200 2
Ġrefer ans
Ġes nek
Ġbayan lar
Ã¼ el
Ġaltyap Ä±
K AR
AN BUL
ĠÃ§evr esinde
ĠBoÄŁ az
Ġsor du
ĠT im
ĠseÃ§ ilen
Ġhttp s
Ġla stik
iyor sunuz
op ark
ĠSiz in
ĠB Ä°L
Ġ len
Ġbar dak
Ġnef ret
Ġsun uyoruz
ĠSel Ã§uk
ĠSar ay
Ġt Ã¼y
G B
ĠKÃ¶ pr
Ġpil ot
ĠÃľniversit e
Ġes eri
Ġuygulan Ä±r
Ġyarar lÄ±
an ak
ĠR o
ĠSab ah
ĠiÅŁlet meler
y olu
medi ÄŁini
Ġtop luluk
Ġst ok
Ä±nÄ±z dan
Ġy alÄ±
Ã¼k sek
Ġkullan maya
Ġsam imi
or a
ta Ã§
Ġkayb ed
ĠM el
co in
An talya
Ġhik Ã¢y
Ġk ade
Ġem r
ĠoluÅŁtur ur
ĠbaÅŁ Ä±ndan
ĠB azen
ĠÅŁey den
Ġkayde den
Ġzaman lÄ±
ĠÃ¶z Ã¼r
ĠÄ°m parator
is h
z aman
ti ÄŁiniz
aÅŁk Ä±n
Ġsizin le
c uluk
Ġd ey
Ġmet r
ĠT h
ĠO la
ĠC anlÄ±
Ġob j
ĠK a
as eb
am alar
ul uÅŁ
Ġziy ade
Ġoy na
ĠÃ§Ã¶zÃ¼m Ã¼
ĠA la
c uk
ĠGÃ¼n lÃ¼k
ĠHan gi
Ġitibar Ä±yla
Ġ4 6
ĠTr ans
ĠmÃ¼ te
ĠSamsun g
Ġsaat te
d el
ĠK em
Ġmark asÄ±
ĠT ip
Ġdur an
ĠsÄ±ra dan
ĠHol landa
Ġk aÄŁÄ±
ĠÅŀub esi
K an
ĠsaÄŁ lay
Ġkorun masÄ±
ĠBul gar
7 7
ĠC ep
gel en
S P
Ġh id
Ġf Ä±
Ġm Ã¼st
Ġiler leyen
lÃ¼ÄŁ Ã¼ne
l ilerin
Ġplan da
ĠD iÅŁ
ĠolmasÄ± dÄ±r
Ġmak simum
Ġzor lu
k Ã¢r
Ġi mam
ĠboÅŁ al
ĠtakÄ±m Ä±n
ĠB Ã¶yl
on lar
Ġtoplam da
M an
ĠMÃ¼cad ele
Ġdil im
Ġisim leri
r d
ĠS af
ĠÄ°ÅŁlet me
Ġdolar lÄ±k
ĠâĢĺ âĢĻ
ĠÃľr etim
Ġv ize
ĠgÃ¶rev e
ĠCumhurbaÅŁk anlÄ±ÄŁÄ±
Ġv ol
Ġgetir ilen
ĠKit abÄ±
ĠolaÄŁan Ã¼stÃ¼
ĠKor uma
Ġsilah lÄ±
ti har
ĠHerk es
D eniz
ĠH oca
ĠÄ° L
ĠOn u
Ġk el
Ġc oÅŁ
Ġkaynak lÄ±
la dÄ±m
ĠJap onya
ĠÃ§Ã¶zÃ¼m ler
Ġtop u
d olab
Ġg Ã¼v
Ġyok sul
Ġs ag
uÅŁt uk
ĠdÃ¼ny ayÄ±
ĠEr men
m ik
Ä ł
ĠolacaÄŁ Ä±z
g ul
dir im
an ya
ya ÄŁ
Ġn iye
T er
ĠÃ§ am
S u
Ġortam Ä±nda
ĠG ol
Ġharek eti
Ġib aret
Ġn eÅŁ
ĠD igiturk
it ab
Ġzinc ir
ĠÃĩ etin
ĠaÃ§Ä±klamalar da
Ġfiyat lar
ĠÃľ l
Ġir tib
d inde
ĠbaÅŁ lÄ±ÄŁÄ±
Ġsan dal
Ġsayf ada
Ġbet on
ĠPol itik
ĠgÃ¶ster ilen
Ġkaynak lanan
ama yacak
Ġoyn ayan
Ġhat tÄ±
Ġgir ip
Ġres imleri
r id
Ġden ize
ĠYok sa
T T
Ġpla j
Ġ200 3
ĠC o
Ġmemnun iyet
Es ki
Ġper de
ul ma
ĠTeÅŁ kil
ĠmÃ¼ sa
A mer
uk i
li dir
Ġmin ik
r aÄŁÄ±
Ġanla tÄ±r
Ġbilg ilerini
Ä° B
Ġev vel
ĠgeÃ§ mek
ay n
dÄ±ÄŁ Ä±nÄ±n
ĠSu udi
ĠÄ° talyan
Ġc h
ĠmeÅŁ hur
Ġon arÄ±m
Ġyav ru
ĠÄ°n an
un um
Ġcev abÄ±
ĠE mir
Ġk Ã¼l
Ġolan larÄ±n
ĠoluÅŁtur duÄŁu
ĠS ohbet
ĠdeÄŁiÅŁ imi
ĠbaÅŁarÄ± lar
ĠoluÅŁtur ulan
Ð º
ĠÅŁ ok
! ..
ĠiÅŁlem e
Ġg Ä±d
ĠYak Ä±n
Ġmo tiv
Ġhem de
uc usu
Ġorgan ik
on t
Ġbekl iyorum
ur du
elle f
Ġteklif i
ĠyÄ±l dan
Ġd Ã¢hil
Ġd isk
ĠkÄ±sa ca
ĠTop lantÄ±
am in
un d
am Ä±yorum
Ġr obot
S por
ĠS tad
ĠAs lan
Ġdevlet i
B azÄ±
Ġver in
ĠKadÄ±n lar
l usu
Ġal mayÄ±
Ġkapsam da
Ġbur un
Ġfirmalar Ä±n
Ġal dÄ±ÄŁÄ±nÄ±
ĠÄ°Ã§ er
Ġm edeniyet
bur g
Ġyet ki
lik ten
Ġgir mek
Ġserg ilen
O D
Ġkitap larÄ±
ĠR ob
esi dir
il ler
Ġs h
ĠhÄ±z landÄ±r
Ġner eye
Ġdeney imi
it Ã¶r
ĠaÅŁ Ä±k
ĠS elim
Ġhak aret
Ġi ÄŁ
ĠMed ya
ĠgÃ¶rÃ¼n en
Ġberaber inde
ĠF orum
ĠboÅŁ luk
Ġce maat
i o
G K
ĠB Ã¼r
O sman
Ġuy dur
Ġistem ez
ĠUz manÄ±
met ik
Ġfor mat
Ġ4 9
Ġmalzem eler
an o
alar ca
Ġar d
ĠBay rak
ĠE N
c in
Ġmevzu at
Ġhay li
Ġnokt aya
ĠBaÅŁ ar
ĠD is
ĠÃ§Ä±k mak
hal e
ĠAb dÃ¼l
dÄ±ÄŁ Ä±nÄ±zda
Ġko z
Ġolmas Ä±ndan
ĠY azÄ±
ĠGel iÅŁ
ĠÃ¼ret en
ĠKad Ä±kÃ¶y
ĠD es
Ġtemiz liÄŁi
ĠdÃ¶n er
Ã½n Ã½
Ġk edi
ĠkullanÄ±cÄ± larÄ±n
Ãĸ K
Ġdepo lama
Ġgider ken
Ġe x
Ġkitap lar
Ġboy un
Ġriv ayet
Ä±l malÄ±dÄ±r
Ä±s Ä±ndaki
Ġistif a
h id
Ġduyur du
ĠkÃ¶pr Ã¼
Ġn am
S A
Ġtit iz
ĠS oÄŁ
yacaÄŁ Ä±z
Ġp omp
leriniz in
ĠF or
Ġz em
Ġduy duÄŁu
Ġal dÄ±ÄŁÄ±mÄ±z
Ã½ m
ÄŁr Ä±
Ġgir miÅŁ
ĠÃĩ ank
Ġkr itik
ĠiÅŁt en
M AN
Ã¼l Ã¼k
ĠC om
Ġn olu
Ġik amet
Ġnakl iye
Ġaray Ä±ÅŁ
ĠB os
Ġsiz de
Ġvar lÄ±ÄŁÄ±
Ġhaber ler
ĠÃĸnc elikle
ĠEr meni
ĠÅŀ ekil
Ġ4 2
Ġkav g
Ġmer h
Ġdurum lar
Ġu ÄŁur
Ġg e
tÄ±k larÄ±nÄ±
Ġkad Ä±nÄ±
ĠdoÄŁr usu
ĠgerekÃ§ esiyle
ĠEkonom i
Ġn a
hat s
Ġtarih ten
ig Ã¼r
m Ã¼yor
ĠÃľrÃ¼n leri
an Ä±zÄ±
ĠY ukarÄ±
Ġonlar ca
Ġtav uk
Ä° ki
ĠM o
duk Ã§a
ĠBÃ¼yÃ¼k el
Ġmin im
Ġyaz ma
n av
ĠBil imler
Ġs Ã¼z
ĠAn ne
Ġham il
Ġverm eden
ĠoluÅŁtur ul
ĠgenÃ§ ler
ĠJ o
ĠSin an
Ä±la caÄŁÄ±nÄ±
Ġhey et
Ġhak sÄ±z
un Ã§
ĠbÄ±rak Ä±n
Ġkon uyla
s Ã¶r
k ut
ĠBun lardan
ĠihtiyaÃ§ larÄ±nÄ±
ĠyarÄ±ÅŁ ma
D Ã¼ny
ĠÄ°liÅŁ kin
ĠÄ°st ik
ĠO b
up er
en ce
Ġgit tim
p ress
ĠHol ding
Ġgazet e
Ġif tar
ĠyÃ¼r Ã¼m
iyan et
r ah
Ġolur sunuz
Sam sun
Ġden en
ĠD ayan
ĠSal ih
ĠÃ§alÄ±ÅŁmalar Ä±n
I F
ĠaÃ§ mak
Ġmus unuz
S ur
ĠparÃ§ alarÄ±
Ġsin yal
Ġgid iÅŁ
Ġoran larÄ±
Ġsan iye
Ġlay Ä±k
Ġperson eli
ĠÃ¶ÄŁrenc isi
ĠgÃ¶rÃ¼l Ã¼yor
larÄ±mÄ±z da
ĠÄ° lan
Ġtesis at
Ġotur um
Ġkend inize
Ġgir ecek
ĠOÄŁ uz
ĠyÃ¼z Ã¼
ĠB es
ol os
ĠA cil
ĠgÃ¶nder ilen
ĠKart al
Ã µ
r ib
Ġediyor lar
ĠiÅŁ it
ĠÃ§ Ä±l
ĠB iy
tu ÄŁu
Ġprot esto
Ġver ip
ĠsÄ±nÄ±f Ä±
Ġinan Ä±yorum
Ġuyan dÄ±r
ĠdoÄŁ u
ĠboÄŁ az
M al
ĠJ ohn
Ġd eli
AT O
ĠU Ã§
ebilir ler
ĠÄ° laÃ§
Ġhar ca
tÄ±ÄŁ Ä±nÄ±z
ĠyÃ¼k leme
ĠBir az
f ir
k Ä±ÅŁ
ĠsektÃ¶r de
Ġver iyoruz
ĠsÄ±k lÄ±kla
Ġkullan Ä±r
Ġbunun la
Ġi ma
ĠGÃ¶r Ã¼ÅŁ
Ġil i
Ġstratej ik
Ġdahil inde
i on
ĠP arkÄ±
ĠaÄŁr Ä±sÄ±
Ġ @
ĠE dirne
Ġ 00
Ġr Ä±z
Ġorgan iz
Ġpar sel
ĠYak laÅŁÄ±k
ĠAr slan
Ġithal at
az z
Ä±r t
ĠbÃ¼t Ã§e
Ġrad y
Ġbir inde
ĠI Åŀ
ĠKad ir
laÅŁ an
ĠÄ° ht
ĠaÃ§Ä±k lan
Ġf ot
Ġkims eye
ĠbaÅŁla dÄ±k
ĠHiÃ§ bir
ĠB aba
l unun
ĠA zerbaycan
ĠdÃ¼k kan
ĠyapÄ±lacak tÄ±r
Ġuzak laÅŁtÄ±r
ĠÃ§aÄŁ daÅŁ
ĠSay Ä±lÄ±
Ð »
Ġtarih lerinde
ĠÃ§alÄ±ÅŁ tÄ±
Ġr eÃ§
Ġil ham
Ġol manÄ±z
ĠS ize
) ;
af e
Ġta ahhÃ¼t
ĠÃ¶y kÃ¼
ĠCam ii
ĠBalÄ±k esir
Ġfik r
ĠbasÄ±n Ã§
ĠgerÃ§ eÄŁi
Ġkurum lar
ĠbaÅŁ lay
Ġyaz Ä±sÄ±
ĠgeÃ§ tik
Ġst il
Ġh Ä±zÄ±
ĠK aÅŁ
ĠMal iye
w ork
ilm eye
Ġtut uklu
ĠS ine
Ġm ol
Ġm e
Ġhastan eye
Ġvurgula dÄ±
Ġayr Ä±lan
Ġmilyon larca
ĠYÃ¼k sel
Ġkarma ÅŁÄ±k
ĠOt obÃ¼s
ĠZ iraat
Ġtarih te
Ġbiz de
Ġon lardan
S osyal
Ġiz ledi
Ãĸnc elikle
Ġgetir ildi
Ġmesaj Ä±
ĠsÃ¼r esince
Ġvir Ã¼s
Ġistedi ÄŁim
Ãľ L
may e
ĠÃĸrgÃ¼t Ã¼
ad iÅŁ
ĠÃľcret siz
ĠgÃ¼l Ã¼m
Ġfark Ä±nd
Ġmark et
ĠEf endi
Ġtad Ä±nÄ±
ab ol
Ġyap Ä±yorum
M ADDE
ĠKuvvet leri
âĢĿ .
iler inde
oj istik
Ä°Y E
ĠÃ¶r neÄŁin
ĠD etay
c al
S Ä°
ĠteÅŁkil at
ĠA lÄ±ÅŁ
ĠMey danÄ±
ĠtartÄ±ÅŁ ma
ĠgerÃ§ekleÅŁtir di
Ġses li
ĠT ez
Ġr andevu
ĠMah mut
ĠaÃ§ Ä±l
Ġhastan e
Ä±lmÄ±ÅŁ tÄ±
laÅŁ mÄ±ÅŁ
b it
Ġism inin
s p
ras i
ur un
Ġyap Ä±ÅŁtÄ±r
Ġhar ic
ĠÃ§eÅŁit leri
Ġsu ya
Ġd Ã¼ÅŁt
L Ä°K
ev ler
ĠdÃ¶n dÃ¼r
ec h
larÄ±mÄ±z dan
ĠHak larÄ±
sar ay
Ġtes ti
Ġsay Ä±lÄ±r
ĠMic rosoft
Ġg Ã¼mrÃ¼k
ĠB olu
ĠÅŀ anlÄ±urfa
Ġtaraf ta
Ġprogram Ä±na
Ġ utan
Ġyarat tÄ±ÄŁÄ±
Ġper iy
em eyecek
ir daÄŁ
caÄŁ Ä±m
Ġlim on
Ġcez alandÄ±r
ĠZ or
Ġyorum lar
ĠyaptÄ±ÄŁ Ä±m
k ale
ĠÃ§Ä±r p
Ġh ic
ĠkÃ¶ t
ic il
ulu ÄŁu
H ar
Ġgel mez
Ġd edektif
H az
Ä±t ma
N A
Ġat tÄ±ÄŁÄ±
Ġbelir lendi
luÄŁ unda
ĠD el
ĠS ektÃ¶r
Ġyaz dÄ±
ĠmÃ¼r aca
er iler
Ġgir diÄŁi
it h
ĠÅŁiir leri
ĠÃ¶n lemek
ro w
Ġsay Ä±sÄ±nÄ±
caÄŁ Ä±na
ĠdÃ¼z el
Ä±lÄ±m Ä±
ĠSistem leri
E ÄŁitim
Ä± cÄ±sÄ±
Ãľ K
ĠyÃ¼k len
Ġko ca
Ġatmos fer
ĠkardeÅŁ i
Ġk Ä±yÄ±
av Ã¼z
Ġdurum una
Ġk ula
Ġger gin
Ġbak Ä±ldÄ±ÄŁÄ±nda
enc ere
Ġik na
ĠaÄŁÄ±r lÄ±klÄ±
Ġfir manÄ±n
ĠR ektÃ¶r
Ġkullan Ä±c
Ġyer inden
ĠTrabzon spor
ĠN ik
ĠgÃ¶z ler
ĠS Ã¼t
ĠAt eÅŁ
ĠK Ä±zÄ±
ĠyapÄ±l dÄ±ÄŁÄ±nÄ±
ĠÅŁ ansÄ±
Ġsom ut
ĠtoplantÄ± da
ĠM uÄŁla
ĠS c
ili ÄŁin
ĠM ali
7 6
et en
Ġal dÄ±klarÄ±
ĠyaÄŁ Ä±ÅŁ
Ġinsan lÄ±k
c unun
Ġp or
lo w
Ġkitab Ä±n
ec ilik
Ġolab iliyor
um un
ĠbaÄŁlant Ä±sÄ±ndan
E m
ĠyaptÄ±ÄŁ Ä±nÄ±z
ma dÄ±ÄŁÄ±nÄ±
K im
Ġvic dan
Ġmuhaf aza
Ġp is
om uz
ĠKon uÅŁ
s us
H K
ĠAj ansÄ±
Ġyaz Ä±n
ĠD an
ĠdÃ¼ÅŁÃ¼n en
ĠhastalÄ±k larÄ±
ĠgerÃ§ekleÅŁtir ilecek
ĠMuh ar
ĠyaÅŁ a
Ġetm ekte
ĠFu arÄ±
M illi
ĠG ec
Ġkim in
Ġon larla
B ay
Ġtemsilc isi
ĠMate matik
ĠK K
ĠDer nek
ĠsÃ¶z cÃ¼k
Ġbar daÄŁÄ±
ĠOy unu
Ġb ran
Ġyap acaÄŁÄ±z
ama dÄ±
ÅŁt ur
ong ul
tÄ± p
Ġrek or
Ġuzman Ä±
siz in
Ġt ac
H as
ĠYaÅŁ ar
Ġtop ar
Ãĩ alÄ±ÅŁ
G e
ons or
ĠT ÃľRK
Ġle h
ĠKil is
ĠdÃ¼ÅŁ er
i x
ĠÃĩ eÅŁit
ĠdÃ¼ny asÄ±nda
ĠElekt ronik
s aÄŁ
Ġhan g
Ġoyn adÄ±ÄŁÄ±
Ġyar Ä±sÄ±
Ġyap ay
ĠB oÅŁ
los uz
ongul dak
Ġgerektir en
ĠG ece
ĠsÃ¶z lerine
Ġvitam ini
ĠB ol
m esin
ĠRek lam
Ġgetir erek
ow er
Ġbur s
Ġhisset tir
Ġkas ab
LI K
Ġat Ä±lan
b iz
Ġk esi
c am
ĠBaÅŁ sav
ĠÅŀampiyon asÄ±
Ġhan gisi
Biz im
o Ã§
k lar
ĠTat il
ÄŁr ul
Ġt Ä±bbi
ah il
Ġsah te
ĠÅŁiddet li
ĠKan al
Ġmen f
ab ah
Ġilg ilendir
Ġi ÅŁtir
âĢ¦ âĢ¦
Ġkat lÄ±
Ġsayf asÄ±nda
Ġd iÄŁeri
Ġhey kel
ĠE g
ĠÅŁer ef
ĠT uz
eb ir
ah ya
S S
Ġolay Ä±n
ĠE K
Ġadr esine
f Ã¶y
Ġedilm elidir
ĠN edir
Ġt rafi
Ġkar n
ĠÃ§alÄ±ÅŁ Ä±rken
Ġprogram Ä±nda
Ġs osy
ĠG ez
ĠvazgeÃ§ ilmez
Ġihtiyac Ä±nÄ±z
Ġgec esi
ĠmÃ¼s abak
Ġkon usundaki
lÄ±ÄŁ Ä±ndan
alar ak
ĠEs as
l ini
ĠM Ã¼st
5 3
ĠtÃ¼rk Ã§e
Ġkar Ä±ÅŁÄ±k
landÄ±r ma
ĠOyun larÄ±
Ġsorun larÄ±n
hal de
Uz un
ĠKurul uÅŁ
Ġv ekil
Ġy eme
Ġmac er
ĠHaz ret
ĠdanÄ±ÅŁ manlÄ±k
ĠS Ã¼n
Ġhorm on
Ġkonu larÄ±nda
ĠS P
Ġist eÄŁi
ĠÃ¶zellik lerini
ĠMut fak
ĠHÃ¼kÃ¼m et
ay arak
ĠKon gresi
Ġis pat
Ġgay rimenkul
D em
L AM
d ilik
Ġkab lo
ĠilaÃ§ lama
Ġop siyon
f f
Ġbelg eler
ĠdÃ¼r Ã¼st
ĠVer gi
ĠyaÅŁan dÄ±
ĠgeÃ§ir en
ist ler
Ġuzak tan
Ġil a
Ġal ey
Ġikti d
ĠT Ä±k
ĠV Ã¼c
ĠÃĩ avuÅŁ
ant ol
ĠoluÅŁ maktadÄ±r
Ġdin len
Ã¼l dÃ¼ÄŁÃ¼
ĠmaÄŁ lup
Ġhaber ine
Ul uslararasÄ±
I C
ĠÃ§oÄŁun lukla
ic ileri
ola ta
ĠS ak
ap p
5 00
Ġcih azÄ±
Ġokuy an
ĠkuruluÅŁ larÄ±
Ġoy una
Ġsar f
Ġsev dik
! "
ĠsÃ¼rdÃ¼r Ã¼lebilir
ĠgeliÅŁ imi
Ġkr izi
Ġyan lÄ±
Ġz ik
T he
Ġh il
ĠG ay
Ġbelg eleri
ĠAr da
ĠgÃ¼nÃ¼mÃ¼z e
ĠrÃ¶ portaj
ĠAy r
acak sÄ±nÄ±z
Ġfik ri
Ġal dÄ±ÄŁÄ±m
ĠGel ir
may la
ĠdÃ¶nem ine
la ck
Ġtemsilc ileri
Ã¼m de
atÃ¶r Ã¼
Ġtav an
ĠsÃ¼n net
ĠVat andaÅŁ
ĠMal zem
ĠÃ¼rÃ¼n lerini
ĠiÅŁ veren
ĠaÃ§ ar
Ġiz leme
Ġc hat
ĠGerÃ§ ekten
ic isi
ĠKud Ã¼s
ĠP latform
ĠyayÄ±n landÄ±
Ġgez i
Ġy ir
Ġedil ecektir
ĠmÃ¼z i
z ir
ĠIn stagram
Ġgar ip
Ġgerek siz
ĠÅŁehir de
Ġal man
Ġdo z
Ġyol dan
ĠsÄ±nÄ±r sÄ±z
Ġseb ze
Ġyarat an
alar Ä±mÄ±z
K ap
ĠdÃ¶n Ã¼m
GeÃ§ tiÄŁimiz
Ġvitam in
ĠseÃ§ in
Ġd et
Ġetkil eyen
Ġdevam Ä±
ÅŁ un
ara cak
Ġdedi ÄŁimiz
ÄŁ day
Ġver il
ĠÄ° sa
len miÅŁtir
Ġverdi ÄŁimiz
im ine
ĠsÃ¼r dÃ¼
ĠiliÅŁk isi
Ġhizmet lerini
Ġser isi
am il
Ġhaf Ä±z
Ġsor gu
Ġoldu g
t iy
ĠD ak
Ã¢ nÄ±
Ġkeyf ini
L EM
m edim
ĠK UR
ĠKal ite
Ġrestor an
iniz le
ĠB on
ĠÅŁirket ler
ĠsaÄŁla dÄ±ÄŁÄ±
leÅŁ miÅŁ
Ġel ini
ĠQ u
Ġs ade
Ġhareket li
ĠD ol
Bur sa
ĠBel gesi
ĠT a
tic aret
Ġvar mÄ±ÅŁ
ĠmÃ¼t hiÅŁ
ĠM or
ĠaracÄ± lÄ±ÄŁÄ±
v al
ĠsatÄ± lÄ±k
Ġyaz mak
6 9
ĠgeliÅŁtir ilen
H z
ĠÃ¶nem ini
Tar ih
Ġmuhalef et
at lar
5 7
ĠMÃ¼ÅŁt eri
ĠV en
ĠÃ¶rnek leri
ĠL ist
Ġkuvvet li
Ġverdi ÄŁini
his ar
Ġ4 1
Ġtarih e
of Ã¶r
Ġtop lanan
ĠG alaxy
Ġmes l
ĠOn ur
ĠtÄ±k anÄ±k
Ġse x
ĠiÃ§er isindeki
Ġailen in
Ġsev ilen
ĠyÃ¼ksel en
ĠsaÄŁlayacak tÄ±r
Ġok uyucu
Ġtarih inin
er g
Ay nÄ±
Ġdev re
Ġc ar
Ä± ÄŁÄ±
ĠU krayna
ĠEv e
ĠcÃ¼m le
Ġt Ã¼p
ĠVide o
ĠAn al
Ġhastan Ä±n
ĠS ayÄ±
Ġdeneyim li
Ġin tik
Ġres men
ĠÃ¶ÄŁ le
Ġmotor u
ĠÃ¶ len
ĠG Ã¼nde
ĠyaÄŁ lÄ±
Ġmil liyet
Ġolur sak
ĠyÃ¶n lÃ¼
ĠÃľn lÃ¼
ĠulaÅŁ an
ĠB Ä°R
ĠbaÅŁ a
Ġcin siyet
ev eyn
Ġelb ise
ĠGÃ¼n Ã¼mÃ¼zde
ĠK oz
Ġkullan Ä±yor
Ġmu c
os unu
ĠC ol
Ġuygulan masÄ±
Ġ0 6
Ġait tir
ĠKur an
ĠeÄŁlen c
Ġver ebilir
ak ende
ĠK iÅŁi
Ġvar say
Ġs ec
ĠÅŁÃ¼ph eli
ĠU r
Â Ł
Ġan kara
fa iye
B Ã¼tÃ¼n
ĠbaÅŁar Ä±yla
om b
Ġdo la
Ġhedef i
ak lar
al d
ĠÃĸdÃ¼l Ã¼
Ġma t
Ġperforman sÄ±
Ġal eyh
Ġotur ma
Ġs is
oloj isi
iv an
B A
ebilece ÄŁini
Ġde g
) âĢĻ
Ġden eme
Ġb ilmek
Ġm el
ĠS im
Ġmad denin
ĠsÄ±nav Ä±
ĠyÃ¼ksel di
ob i
lÃ¼ÄŁ Ã¼nde
leÅŁ en
201 0
Ã¼mÃ¼z Ã¼n
Ġantren man
Ġceza ev
Ġp osta
Ġgeb elik
am da
bar at
ĠÅŁ Ã¶
f eri
ĠÅŀ eker
Ġolur lar
ĠÃ¶n der
Ġfatur a
Ġh ur
eÄŁ inin
Ġkend imizi
ĠÃ¼lk eleri
on i
ast am
is im
ĠyÄ±l larÄ±n
ĠTel ekom
ĠHaf ta
Ġolsay dÄ±
ĠgeÃ§ ecek
ĠhÃ¢ lÃ¢
Ġgazet eci
GeÃ§ en
ĠsÄ± fat
Ä°T ESÄ°
ĠtaÅŁÄ±n maz
Ġol gu
Ã¼n tÃ¼
Ġuz anan
iyor sanÄ±z
ĠDav ut
ĠÅŀ iir
ĠyÃ¶net ici
g Ã¶l
Ġbildir im
ĠgÃ¶rÃ¼nt Ã¼len
ce ÄŁim
8 2
Ġdo lara
Ġmerkez li
Ġyer yÃ¼z
ĠKar deÅŁ
ĠAf yon
ĠÄ°dar esi
B B
ĠÃ¶y k
ur ya
Ġente gre
ĠdÃ¼nya daki
Ġhikay e
ĠTur an
Ġ4 4
ĠsÃ¼rdÃ¼r en
ĠgeliÅŁ meleri
ĠÃ¼z Ã¼l
Ġbirbir lerine
ĠgeÃ§ir di
et li
ĠkÃ¼ltÃ¼r Ã¼
Ġner eden
Ġok si
ĠS tar
ĠP la
Ġkan aat
ĠyaÅŁam Ä±ÅŁ
Ġsap tan
6 7
ĠmÃ¼ j
lerimiz de
ĠS iyah
Ġzor lan
ĠK Ä±ÅŁ
Ġmetrek are
Ġboyut u
Ġoyunc usu
ĠbÃ¶lg elerde
Ġkur ucu
Ġgit miÅŁ
Ġinan c
it a
Ġm Ã¼ÅŁ
ĠÃĩ am
ĠSen dik
l uyor
ĠbaÄŁlÄ± dÄ±r
ĠkullanÄ±l dÄ±ÄŁÄ±
ĠNit ekim
iy o
Ġproblem i
Ġmir as
Ġves ile
ĠOn larÄ±n
ĠAd nan
ir iz
as on
ĠiÃ§ e
Ġy i
ĠUy gun
Ġor uÃ§
ĠÃ¼y elerinin
mar aÅŁ
meler ine
Ġhep imiz
Ġan Ä±m
Ġpar la
Ġkap lama
Ã¼min yum
z en
ĠbÃ¶lÃ¼m Ã¼nÃ¼
Ġyap Ä±ÅŁ
ĠD ub
Ġ0 3
Ġz afer
Ġg ev
ĠÃ¶ÄŁrenc inin
Ã§ in
Ġart masÄ±
Ġekley in
ĠG B
ac asÄ±
Ġkarar lar
ĠsavaÅŁ Ä±
ber g
ĠoluÅŁ uyor
I D
ĠgeÃ§ tiÄŁi
ĠO lan
ce ÄŁiz
ĠsÄ±r al
aÄŁ Ä±ndan
ĠG eri
Ġer di
Ġs taj
Ġoy unda
Ġsit ede
Ġn Ã¼kleer
ĠS Ä±k
ĠEkonom ik
S t
8 5
larÄ± dÄ±r
ĠfÄ±r Ä±n
ĠKar aman
Ä±p lak
ĠkatÄ±l mak
ĠC engiz
ĠAk si
Ġod alarÄ±
Ġmobil ya
Ġmad al
Ġnitelik li
ĠIÅŀ Ä°D
Ġmadde sinde
ĠdÃ¼ny asÄ±nÄ±n
A b
las h
hab alar
Ġf rag
ĠtÄ±r man
ĠBaÅŁ ak
adiÅŁ ah
ĠS Ä±nÄ±r
Ġk Ä±lav
ĠÄ°nsan lar
ĠCih az
ĠDir ektÃ¶rÃ¼
Ġis yan
Ġdon at
Ã¼mÃ¼z Ã¼
Ġc Ã¼z
Ã¢ yet
ĠÃ§ iÄŁ
bey az
Ãľ Z
Ġis lam
Ġd Ã¼
ya ÄŁÄ±
Ġyan g
eler imiz
T ur
ĠV ad
Ġetkin liÄŁi
ĠkatÄ±lÄ±m Ä±yla
Ġmadd eleri
y m
Ġform u
E Åŀ
Ä°V ERS
em edim
Ġsorum luluÄŁ
Ġil im
acaÄŁ Ä±na
ĠKap Ä±
Ġgez eg
ĠgÃ¶rÃ¼l dÃ¼
am Ä±zÄ±
ĠaÅŁama da
em ektedir
Ġoyuncu lar
Ġsigort alÄ±
ĠdÃ¼zen ledi
Ġtespit i
em de
Ġdo mates
m Ã®
Ġyorum larÄ±
larÄ±nÄ±z da
tik leri
lerimiz den
ĠbÄ±rak Ä±p
ĠDev amÄ±
Ġr ot
Ġedildi ÄŁini
ĠL ab
ĠAl bay
ĠZ ar
Ġsev iyesi
g rama
m iyorum
Ġr azÄ±
al anÄ±
Ġkar Ä±n
f af
ĠsektÃ¶r Ã¼n
Ġkullan Ä±n
G E
Ġg Ã¼mÃ¼ÅŁ
ij yen
Ġg un
ĠT est
Ġkalit esini
Ġsal onu
ĠD urum
Ġp ik
ĠÄ° N
Ã¼s Ã¼nde
I P
Ġruh sat
Ġadres inden
Ġakr ab
ahat tin
ĠdÃ¶n Ã¼k
ĠgÃ¶rÃ¼n Ã¼r
duk larÄ±nÄ±
ĠÃľzer ine
ak larÄ±
Ù Ĩ
ul larÄ±
ĠÃ¶rg Ã¼
ĠmeÅŁ ru
mayacak tÄ±r
Ġgel ebilir
us a
ĠT oto
Ġmuay ene
Ġ0 7
ĠyaptÄ±r Ä±m
Ġher ÅŁey
ĠKomut anlÄ±ÄŁÄ±
ĠK DV
tis iz
A f
Ġkoy du
ĠgÃ¶Ã§ men
Ġsan tral
Ġkad er
Ġet sin
ĠM Ã¼n
s inden
ĠhÃ¼kÃ¼m leri
Ġsev diÄŁim
ĠbÃ¶lg edeki
Ġd k
am es
ĠBir lik
ĠH edef
ĠÄ° mar
ers ek
ab ildi
Ġyetkil ileri
Y ine
s k
Ġvar lÄ±ÄŁÄ±nÄ±
aman Ä±n
ĠparÃ§ alar
Ġkurul masÄ±
v is
b uki
Ġmas k
p ro
Ġdal ga
ti ÄŁim
e da
Ġimk ansÄ±z
Â °
ov er
ÄŁ a
ĠaÃ§ tÄ±ÄŁÄ±
ĠÃľN Ä°VERS
per yal
Ġsit emizde
Ġp az
A na
Ġetm eden
malar da
Ġd eyip
ĠtÄ±k layarak
Ġyap acaÄŁÄ±nÄ±z
ĠmÃ¼k ellef
ĠtÄ±p kÄ±
F ir
ĠCumhurbaÅŁk an
Ġde gil
ĠdoÄŁ du
ab ey
ĠkÄ±z ar
Ġtut k
Ġzor la
Ġkal eme
ĠsÃ¶z lerini
ĠBal kan
Ġt etik
Ġhayat Ä±nÄ±n
Ġs ep
M es
ilm esinin
Ġgelec ekte
ĠK esin
ĠyÃ¼k s
Ä±r nak
ĠHat ay
d y
ĠE lazÄ±ÄŁ
BaÅŁ bakan
ĠÃ¶l dÃ¼
ĠK el
or ld
ĠD a
ĠbÃ¶ cek
ĠÃ¶ÄŁren im
Ġsaat lik
Ġfil tr
u a
Ġa g
Ġtab ir
ĠihtiyaÃ§ larÄ±
ĠN ormal
Ġcerrah i
ĠTab lo
ĠTÃ¼rk ler
Ġfazlas Ä±yla
Ġetk isini
Ġay Ä±nÄ±n
Ġ5 2
ĠdÃ¶n en
ĠÃ§alÄ±ÅŁmalar Ä±nÄ±n
ĠiÃ§ ten
ĠS eb
in can
Ġolab ileceÄŁini
Ġdiyebilir iz
ĠiÅŁlem lerini
Ġyer in
av v
ĠM is
Ãĸ Z
mÄ±ÅŁ lar
ĠMah al
ĠoÄŁ lum
Ġmuh tar
Ġerkek lerin
Ġbak mak
Y ukarÄ±
EF A
Ġmer diven
ar ac
ĠbaÅŁ layarak
Ã¼nÃ¼z Ã¼
Ġmal iyeti
ĠtecrÃ¼b e
Ġdetay larÄ±
Ġart Ä±ÅŁÄ±
ĠdeÄŁil se
ĠD ost
Ġbal kon
Ġdost u
K am
ilmiÅŁ ti
ĠÅŁart lar
S ar
ĠÅŁirket lerin
ay Ä±cÄ±
uÅŁt uÄŁ
ĠBr ezil
ĠgereÄŁ ince
ĠdeÄŁer ler
tÄ±ÄŁ Ä±nda
Ġtop tan
ĠTop rak
ĠarkadaÅŁ lÄ±k
onom ik
ĠSekret eri
ĠyapÄ± ya
iler iyle
ĠF ull
Ġkad Ä±na
ĠMillet ler
Ġgir erek
Ġey alet
G erÃ§
ĠkÃ¶y lÃ¼
ĠilaÃ§ lar
ĠfotoÄŁraf larÄ±
ĠEl bette
ĠgerÃ§ekleÅŁtir diÄŁi
ĠTaÅŁ Ä±ma
D e
b aÄŁ
ĠSÄ± cak
Ġihtim ali
ĠÃĸn emli
Ġik iye
Ġekst ra
lan tÄ±sÄ±
eh r
Ġtasar lanmÄ±ÅŁ
Ã¼st ri
ĠRes im
ĠÄ°liÅŁ kiler
ĠKÄ±r mÄ±zÄ±
Ġsenar yo
ĠT ep
ĠB i
ĠyayÄ±n lan
ĠbÃ¶lg esel
Ġkur duÄŁu
Ġv a
Ġk Ã¼p
Ġver gisi
Ġanlam Ä±yla
r anÄ±
ci ÄŁer
eÅŁ me
ĠdÃ¶r dÃ¼ncÃ¼
Ġiz liyor
Ġan ket
Ġsat an
Ġseviy esine
Ġ6 4
Ġat Ã¶ly
out ube
ĠkÄ±sm Ä±na
Ġbul gu
ĠO L
Ġr ica
ĠbaÅŁ rol
Ã§ uklu
ĠKaymak amÄ±
ĠhazÄ±rla dÄ±ÄŁÄ±
ĠkuruluÅŁ u
5 9
Ġistedik leri
Ġc on
ĠBelediy espor
mos yon
ĠkiÅŁi den
ĠhÃ¼kÃ¼m eti
Ġkullan Ä±ma
ĠyÃ¼ksel iÅŁ
Ġn azar
ĠP C
Ġli f
p iyat
ĠyÃ¼k lÃ¼
Ġle v
d unuz
ĠB a
ĠGeÃ§ miÅŁ
Ġkullan Ä±lacak
Ġdav asÄ±
Ġy emin
Ġb ot
DÃ¼ny anÄ±n
Ġek ledi
Ġelektrik li
t ra
Y Ã¼ksek
al ik
Ġort ala
uÅŁt um
ĠÄ° Ãĩ
Ã¼n c
Ġart tÄ±
Ġboyut lu
Ġdir ektÃ¶r
Ġn is
ĠM ADDE
ĠaydÄ±n lat
Ġpeyn ir
Ġrefer andum
Ġmuhtem elen
Ġbilgilendir me
ĠB ize
la sÄ±
Ġaday lar
ĠbÃ¶ brek
iyor dum
ĠStr atej
ĠHÄ±z lÄ±
Ġsit esinden
ĠÃĸ te
eÄŁ iyle
Ġeksik siz
Ġkir a
ation al
ĠVak Ä±f
ÄŁin ce
AR I
Ġtop lama
Ġetkinlik leri
ĠY AP
ĠÃĩ at
Ġiz mir
Ġp ap
Ġdurum unu
Ġhast alar
ĠBak anlar
Ġyol un
ĠHes ap
ĠiÅŁ ken
Ġal dÄ±ÄŁÄ±nÄ±z
Ġart Ä±yor
Ġ emeÄŁi
Ġolacak sÄ±nÄ±z
ĠÃ§ Ã¼r
Ġolab ileceÄŁi
B Ã¶yle
ĠEv ren
Ġsemin er
ĠFiyat larÄ±
t d
Ġ200 1
Ġv as
ĠÄ°Ã§ iÅŁleri
par ta
U Z
Ġkal masÄ±
ĠJap on
Ġiler lem
Ġtah sis
Ġfilm leri
Ġayr Ä±ldÄ±
Ã§ elik
ĠPro t
ĠBel g
ac i
6 4
ĠMes leki
iÃ§ in
ĠvasÄ± t
ĠÄ°nÅŁ allah
Ġmin eral
oc am
kÃ¼ dar
Ġkol tuÄŁ
ĠkardeÅŁ im
Ġnokt alarÄ±
h ak
ĠSu Ã§
Ġkans eri
Ã¼z Ã¼n
el in
og rafi
Ġb araj
ĠC in
il de
As lÄ±nda
Ġsor gulama
b Ã¼r
ĠdoÄŁal gaz
y alar
Ġok ulu
eniz in
Ġlim an
Ġn adir
se de
Ġem anet
Ġola s
ï¿½ï¿½ ï¿½
ĠaÃ§ Ä±lmasÄ±
ĠetmiÅŁ ti
Ġad li
elik op
Ġmez unu
Ġk Ä±lÄ±
O C
5 8
Ã¢ s
Ġmas al
ĠC errah
Ġm elek
ĠSig orta
men ize
ĠkÄ±z Ä±n
ĠÃ§alÄ±ÅŁmalar a
ĠÅŀ er
H erk
Ä°S Ä°
Ġsev iÅŁ
ĠayrÄ± c
Ġuzak laÅŁ
ar da
Ġbir imi
ĠFÄ±r at
Ġh el
Ġm Ã¼lt
Ġyap mÄ±ÅŁtÄ±r
mas ya
Ġyaz Ä±lan
Ġoyn at
Ġk ed
ĠgeÃ§ir diÄŁi
ing ton
ob an
ĠboÅŁ alt
ĠsÄ±k Ã§a
de di
ili ÄŁinden
Ġkural larÄ±
ĠgÃ¶ster gesi
ĠbaktÄ±ÄŁ Ä±mÄ±zda
Ġas ans
ac iÄŁer
ĠsÃ¶z lÃ¼
ĠÃ§alÄ±ÅŁan larÄ±
ĠE ÄŁ
Ġotur an
Ġkelim eler
dÄ±ÄŁ Ä±n
Ġmek Ã¢n
ĠKK TC
ĠgÃ¼ncel lem
Ġpar ayÄ±
Ġver miÅŁtir
Ġp oÅŁ
Ġsit eler
ht tp
ĠÃľNÄ°VERS Ä°TESÄ°
ĠartÄ±r mak
ĠdÃ¼ny asÄ±
ĠbaÅŁla mak
Ar kadaÅŁ
ĠZ eyn
ĠT rafik
Ġbulun mayan
ĠkÃ¶y Ã¼
ĠT v
Ġgel dim
ĠbaÅŁ landÄ±
Ġf es
ĠF on
Ġanlat mak
âĢ ĭ
ki f
Ġbilm eyen
Ġmi dir
ĠaklÄ± ma
akk ak
ĠsÃ¼r Ã¼ÅŁ
Ġetti ÄŁim
ken der
Ġbelir lenir
ĠJ e
ĠyaÅŁ ar
Ġes ir
ĠI P
Ġ5 7
ĠbÄ±rak tÄ±
Ġhay v
Ġbilg iyi
Ġmev ki
Ġgetir ilmesi
Ġnih ayet
amÄ±z Ä±n
Ġgel sin
Ġkat Ä±lma
ĠbaÅŁvur usu
ener al
! )
ĠtÃ¼ket ici
Ġtr av
Ġedil emez
Ġbah Ã§e
Ġat mak
Ġâ Ĩ
O kul
Rus ya
Ġtit r
Ġtec avÃ¼z
ĠgenÃ§ lerin
tak Ä±m
Ġpat ron
amÄ±z a
Ġmez h
Ġetm eleri
c im
Ġyaz Ä±lmÄ±ÅŁ
Ġbelir lenmesi
Ġkaz Ä±
Ġdikkat i
Ġm otosiklet
Ġend ek
Ġver dikleri
el a
ĠÃ§ if
Ġkend isinden
Ġettik lerini
ĠÃ§ Ä±ÄŁ
ra j
ĠgÃ¼n dÃ¼r
ĠbaÅŁlat Ä±lan
Ġmim ari
Ġher ÅŁ
ĠÃ¼st e
ĠF uar
Ġbek ledi
Ġkonfor lu
astam onu
ĠyÃ¶netic ileri
Ġetk isiyle
Ġduy ulan
ĠaÅŁ Ä±
ĠBas ketbol
ĠBaÅŁkan Ä±mÄ±z
ĠkaÃ§Ä±n Ä±lmaz
ep yeni
cu lar
T S
ĠbilinÃ§ li
ĠtÄ±k layÄ±nÄ±z
ĠG Ã¼mrÃ¼k
Ġilg isi
lan maz
Ġneler dir
Ġ5 4
ÄŁ Ä±n
ĠTer c
Ġsat Ä±lan
Ġt encer
ĠÃ§ek erek
ev er
ĠKanunun un
ĠÃ¶ncelik li
ĠhÃ¢ kim
Ġhak larÄ±nÄ±
ĠA det
ĠgÃ¶z Ã¼
Ġev lat
Ã¼c el
lerin ce
ĠC as
Ġs ir
ĠMar din
dir me
ĠkÃ¶ÅŁ e
u larak
Ġbak ter
Ġf ull
ĠT EK
s c
ĠAl p
m Ã¼ÅŁtÃ¼
ĠÃĩ iz
Ġlir aya
ĠÃ§ amaÅŁÄ±r
C umhuriyet
ĠYer el
Ġtarih sel
Ġsev diÄŁi
ĠhÃ¼c re
Ġb y
Ġpat ates
T ak
ĠyaÅŁ adÄ±
Ġmen Ã¼
Ġkur ucusu
ĠÃĸl Ã§
ĠA Y
ĠG it
Ġyap abilecek
Ġet i
i da
ĠÃ§ek ilen
ĠÃ¶nc Ã¼
ĠT ev
ĠC ey
Ġanla ta
el iyiz
ĠyapÄ±lan dÄ±r
ĠÄ°n cel
Ġep ey
ĠÃĸ y
Ġet ek
os un
ĠadÄ±m lar
Ġgen e
Ġz ira
av an
âĢ¦ âĢĿ
Ġfak Ã¼lt
Ġdo g
ĠKit ab
ĠdeÄŁiÅŁtir mek
ĠalÄ±n dÄ±ÄŁÄ±
ĠdeÄŁer ini
Ġdiren Ã§
la manÄ±n
Ġm Ã¼slÃ¼man
ĠÃ¼ret ici
len mektedir
iz mi
Ġver iliyor
T M
o ot
ĠÃ¼lk eyi
ĠC emal
Ġb est
n ci
ĠEn g
ĠMus a
Ġar tar
Ġhal iyle
Ã¼ÄŁ Ã¼nÃ¼
id in
Ġbor c
abil im
Ġol uÅŁtu
Ġbul dum
Ġger ilim
ir kin
Ġtaraf a
Ġ4 3
Ġhoc am
Ġkampany asÄ±
Ġin tihar
Ġmemnun iyeti
ik ler
Ġoku dum
ĠaraÃ§ larÄ±n
ĠaÃ§Ä±ÄŁ a
Ġtemiz leme
ĠÅŀ arkÄ±
ĠBek ir
ĠbaÅŁ lÄ±
Ä° yi
ĠsÃ¼rdÃ¼r Ã¼yor
Ġders leri
ĠmÃ¼ d
ĠmÃ¼raca at
Ġplan lanan
Ġseb z
Ġh ek
c ilerin
Ġann em
ir se
et le
ĠGel in
L A
ĠUn ut
ĠAs ker
ĠÃ§ ub
v il
Ġhaber dar
Ġku cak
ĠkÃ¼t Ã¼phan
Ġc adde
Ġmenf aat
Ġda im
ĠH ad
Ġsan dÄ±k
Ġp Ã¼r
Ġnak it
ĠilÃ§ esine
lÃ¢ h
ĠyÃ¶n Ã¼nden
Ġayn en
Ġmahk um
Ġel den
G Ã¶z
ĠSig ort
ĠN es
EN D
ĠmÄ± dÄ±r
ĠÃĩÃ¶z Ã¼m
ĠO na
alÄ± lar
oy un
ĠRes ul
Ġlim it
Ġr Ã¼ya
K Ä±z
ĠalÄ±ÅŁkan lÄ±k
ĠÃ§Ã¶z Ã¼nÃ¼r
ĠK eÅŁ
Ġar azi
ĠÃ§Ä±k maktadÄ±r
ĠaklÄ± m
Ġi bar
ĠII I
ĠgenÃ§ lik
ĠGÃ¶n Ã¼l
iÃ§ re
ĠgeÃ§erli dir
en s
ĠMet al
ĠÅŁu an
ĠÄ°sv eÃ§
Ġnamaz Ä±
Ġal madan
ĠKomut anÄ±
Ġed elim
Ġokul da
ĠF izik
.... ....
B ar
tu ÄŁrul
ĠtanÄ± ma
Ġbelirt mek
Ġmet ro
M erkez
ĠN ATO
ĠR ize
ĠK um
it eli
Ġkur ma
Ġtamam Ä±nÄ±
Ġhastan ede
ĠakÅŁam Ä±
ĠgeÃ§ mesi
Ġitir af
ĠyÄ±k an
Ġf av
Ġkat Ä±lacak
Ġm isyon
ĠadlandÄ±r Ä±lan
ĠH il
Ġu f
Ġbenim s
m il
Ġat Ä±ÅŁ
Ġkaps ayan
ĠyÃ¼z Ã¼ne
z el
Ġyap madan
ĠÅŁar tÄ±
Ġb asÄ±
Ġtemin at
ĠaÃ§ Ä±p
ĠK lima
Ġseviy esinde
Ġbelir lem
Ġred det
ral ya
edi ÄŁim
Ġedeb ilecek
bul ans
Ġifade si
Ġhassas iyet
Ġharic inde
ĠY um
Ġal Ä±na
ĠAf rin
edi ÄŁimiz
ĠyaptÄ±k larÄ±nÄ±
ĠgÃ¶r mez
d Ä±zÄ±
Ġman tar
meler de
ada m
ĠaÃ§Ä±klama ya
ĠKÃ¼r d
ĠP o
ĠO larak
Ġvak Ä±f
ĠYun us
ĠsaÄŁla dÄ±
Ġat e
Ġadam larÄ±
Ġid rar
Ã¼r ler
el eme
PS S
Ġ8 5
ĠnÃ¶ bet
ĠkonuÅŁ mada
Ø ±
Ġpas ta
Ġf rek
Ġkoy up
ĠpeÅŁ inde
ĠV ekili
P eki
Ġk las
Ġkarar Ä±nÄ±
Ġkullan Ä±lÄ±yor
ĠdÃ¼ÅŁÃ¼nc eler
Ä±m lÄ±
g atif
ĠyÃ¶net melik
Ġkap Ä±sÄ±
Ġkom ik
Ġil tih
Ġf abrika
ĠÃĩocuk lar
Ãĸ te
mem ektedir
k ay
ĠTel evizyon
Ġdiyor lar
Ġistem iyorum
ĠBur ak
ĠD am
ĠbaÄŁlan tÄ±sÄ±
Ġpolitik asÄ±
ĠP ap
lili ÄŁini
ĠsÄ±ÄŁ Ä±n
Ä° st
Ġd ed
ä ¸
ĠgerÃ§ekleÅŁ ecek
Ġtehlik e
Ġodak lan
K Ä±s
ĠK oÅŁ
Ġkal madÄ±
ĠKiÅŁ isel
res el
ĠkeÅŁf ed
Ġs oÄŁan
ed iyesi
ĠeÄŁitim e
Ã¶r ek
S M
ĠGir esun
ĠTÃ¼rk Ã§
Ġar alÄ±ÄŁ
ĠG r
Ġik tis
uh af
ĠsÃ¶yley erek
Ġt Ã¼zel
ĠEs en
atÄ± lÄ±k
Ġinsan larla
ĠdÃ¼z eni
ĠdeÄŁiÅŁtir me
Ġsit eye
um da
Ġbeb eÄŁin
8 8
Ġfa cebook
en lerin
as ay
Ġp antol
ĠBur s
Ġpart ner
Ä°L Ä°
ĠV eli
Ġm eme
S it
ĠÄ±ÅŁ Ä±n
Ġd uÅŁ
ĠHastalÄ±k larÄ±
ĠÃ§ im
Ġfilm de
ĠHik ay
re e
Ġmuhtem el
ĠB AÅŀ
ĠÅŀ ey
f ez
ar ya
Ġoran la
ĠsÄ±r asÄ±yla
Ġre ak
d on
D K
mar Ä±m
Ġdin ley
Ġ9 5
at ay
ĠÃ§ iÃ§
ĠsÄ±k Ä±ÅŁ
ĠtanÄ±n an
ĠSal on
200 9
Ġpiyas ada
Y er
i dir
y umu
Ġdin lem
Ġkurul muÅŁtur
ĠKat Ä±lÄ±m
Ġ5 6
Ãĩ Ã¼nkÃ¼
Ġar Ä±za
ĠÃĸz demir
Ġh d
ĠArap Ã§a
ĠbaÅŁkan lÄ±k
ĠAy ÅŁe
ĠmÃ¼cadel esi
ĠO rada
Ä°s lam
Ä° kinci
li mat
ĠDeÄŁer lendirme
ĠReh beri
ĠmÃ¼ÅŁter ilerine
Ġg Ã¼ler
ĠtecrÃ¼b eli
Ġkusur suz
Ġyol lar
sas por
eniz de
Ġtak ib
gÄ±t ay
eh ri
Ġvak ti
Ġk Ä±t
ĠM ag
ir et
ĠÃ§alÄ±ÅŁ Ä±yorum
ï »
ĠMuhar rem
" .
ĠgÃ¶rev leri
ĠEr dem
T Ä°
d elik
Ġkullan Ä±ÅŁlÄ±
Ġm Ã¼c
ĠBak Ä±r
Ġpu anÄ±
ĠyaÅŁam Ä±
Ġyet mez
ama y
K ah
Ġyan Ä±l
ĠAmer ikalÄ±
Ġail esinin
200 8
Ġmut luluÄŁ
l osu
eÄŁ im
ten j
Ġkonse pt
ĠDik kat
Ġgir iyor
SaÄŁ lÄ±k
Ġkur ab
ya caÄŁÄ±
Ġiy ilik
Ġbur adaki
Ġpro p
ĠbaÅŁar dÄ±
f an
ĠsÃ¶yledi ÄŁi
Ġy il
Ġ ]
Ġeh liyet
Ġmu am
Ġhis si
Ġe uro
ĠmaÃ§ Ä±n
ĠKah v
Ġtan rÄ±
Ġtut arÄ±
ĠÃ¼n it
Ġek s
Ġsay Ä±lan
Ġyak Ä±nda
ĠyapÄ±l masÄ±nÄ±
ĠGeliÅŁtir me
Ġsaha da
ĠM Ãľ
Ġkay gÄ±
ĠsÃ¼rec ini
bar ek
Ġbilin mektedir
Ġmerkez leri
ĠA ÄŁrÄ±
en ci
Ġv iz
Ġan t
7 1
Ġr it
Ġhuzur lu
la bilir
Äŀ Ä°T
Ġvide osu
Ġkon ul
ĠÅŁÃ¼ph esiz
Ġmuhab bet
ĠsÃ¶zleÅŁ mesi
ĠTat lÄ±
ĠtÃ¼ket imi
Ġat arak
Ġkur an
m elisiniz
ĠG u
Ġh i
Ġdayan an
ĠgÃ¶r eceksiniz
ĠÃ§Ä±kar Ä±lan
Ã§ Ä±nÄ±n
Ġcihaz lar
ĠsÃ¼rec inin
leriniz de
Ġal acaÄŁÄ±
ĠbÃ¼r ok
M ah
ĠyatÄ±rÄ±m cÄ±
ĠBun larÄ±
eÄŁ inde
ĠE bu
Ar tÄ±k
ĠM it
Ġyuvar lak
BaÅŁk an
ĠK i
ĠP al
ĠSÄ±nav Ä±
ÄŁiniz de
ĠS Ã¶y
ĠÃĩ ukur
Ġb am
ĠyoÄŁ urt
Ġam ir
Ġrej im
ĠÅŁek eri
Ġk Ã¢r
Ġref orm
Ġpas aport
ĠTop lantÄ±sÄ±
Ã½ nda
Â ¼
Ä± h
eh met
ĠEm lak
Ġk eÃ§
Ġy Ä±ÄŁ
ĠRad yo
ĠC ilt
G Ã¶n
ĠFa aliyet
Ġsp onsor
lan a
ĠgiriÅŁ i
ĠÃ§alÄ±ÅŁan larÄ±n
ĠYet er
ĠyÃ¼rÃ¼t tÃ¼
Ġ8 00
. -
Ġ0 4
al isyon
Ġbak arak
ĠkÄ±z lar
n af
Ġ199 9
Ġkal dÄ±m
ĠtÃ¶r eni
dÄ±r an
Ġkur ut
ĠÃ§ek me
Ġsat Ä±cÄ±
ĠtÃ¼r leri
S adece
li b
ĠgÃ¶ster erek
ĠL Ã¼tfen
5 6
ĠTÃ¼k et
ĠTR T
lÃ¼k te
ĠN ef
ĠMod ern
Ġdep resyon
ĠyÃ¼k le
ĠbaÅŁ Ä±nÄ±
Ġmodel ler
ĠF el
Ġileri de
ĠÅŀ eyh
Ġgel eceÄŁini
ĠtaÅŁ Ä±r
ã Ģ
Ġs i
Ġverir ken
c esi
Ġkav uÅŁtur
OÄŀ LU
ĠM oda
ĠBÃ¶yl elikle
iz in
ĠgÃ¶r Ã¼lebilir
Ġgelece ÄŁe
Ġkesin tisiz
Ġc al
ĠGÃ¶k han
b ab
Ġgel mek
lek s
ĠbaÄŁlam da
ey ebilir
ĠFet h
ĠM avi
... ]
ĠDen etim
osk ova
Ġap artman
at an
Ġhaft asÄ±nda
ĠgÃ¶nder ildi
ĠÃĩ el
ĠÅŁim diye
Ġyah ut
ĠA lev
ar lÄ±k
ĠbaÅŁ lÄ±ca
Ġher halde
Ġb erek
ĠAk ÅŁam
c ili
ĠyaÅŁama ya
Ġkop ar
Kul lan
er gah
E H
Ġanal izi
Ġser gi
ĠEv den
Ġkred isi
Ġt ir
ĠyÃ¼kÃ¼m lÃ¼lÃ¼k
ĠSekret er
ĠÃ§ adÄ±r
Ġasker lik
ĠAdÄ± yaman
ĠbaÅŁlat tÄ±
EL Ä°
Ġsez onu
Ġyaz mÄ±ÅŁ
ĠoluÅŁtur uyor
uz el
Ġkon unun
Ġgazet esi
Ã½ l
ĠgÃ¶rdÃ¼ÄŁ Ã¼nÃ¼z
ĠB Ã¼y
Ġyap Ä±lacaÄŁÄ±
ĠGÃ¼ven liÄŁi
ĠdÃ¶n Ã¼p
oter api
Ġenerj isi
f one
larÄ±m Ä±n
Ġbab asÄ±nÄ±n
ĠÃľ z
ĠðŁ ĺ
ĠTanÄ± tÄ±m
ĠgeÃ§miÅŁ te
Ġsevin irim
as al
Ġn eyse
ĠStan dart
ĠBaÅŁbak anÄ±
is tir
Ġev li
ĠsaÄŁlan Ä±r
Ġ5 3
Ġsar ay
Ġyel paz
Ġot ob
yacaÄŁ Ä±nÄ±z
nav ut
Ġne gatif
ĠZ afer
ĠEs er
ece ÄŁimiz
ar m
ĠÄ°h racat
9 8
5 2
maz lar
ĠTur gut
Ġdur ak
Ġyaz Ä±mÄ±zda
un g
ĠS ov
en leri
Ġinsan i
k oz
ĠaÃ§Ä±kla masÄ±nda
ĠÃ§oÄŁun luÄŁu
Ġay a
Ġv an
ĠÃ¶zel liÄŁini
Ä°M Ä°
Ġyenilik Ã§i
Ġsit enin
H em
Ġha in
Ġbir de
k eme
kur may
ĠiÅŁ ley
Ġgit tiÄŁi
ĠsÃ¼r ecek
t iz
Ġan Ä±lan
Ġar Ä±
Ġhareket leri
Ġalt Ä±ndan
Ġmuhal if
7 2
ĠSel Ã§uklu
BÃ¶l Ã¼m
dÃ¼ÄŁ Ã¼nde
ĠyaÅŁ ta
ĠKat egor
ĠYayÄ±n cÄ±lÄ±k
Ã¶z el
Ġberaber lik
- )
ĠgÃ¼Ã§ leri
ĠtÄ±r nak
Ġtez gah
ĠYÃ¼ksek okulu
ĠFar uk
ĠdÄ±ÅŁarÄ± dan
Ġd uv
Ġk ot
Ãľn iversit
Ġser in
ĠÃ§ ekt
Ġd iyoruz
ĠalÄ±n mÄ±ÅŁtÄ±r
H ep
Ġfak ir
h em
Ġk linik
P ol
Ġkazan Ä±r
Ġbulunma maktadÄ±r
ĠdÃ¼zey inde
ĠGenel likle
E t
Ġasans Ã¶r
ĠgiriÅŁ imi
ĠBah ar
Ä±l masÄ±nÄ±n
Ãľ Ã§
H iÃ§
ĠG ran
Ġbey ler
Ã§ ika
Ġhakk Ä±na
Ġkim e
ĠyazÄ± lar
Ġf igÃ¼r
ĠyardÄ±m cÄ±sÄ±
ĠN il
ĠR ef
Ġses lendir
x t
ĠÃ§el iÅŁ
ĠB l
Ġkavram Ä±
ãģĤãģĤãģĤãģĤãģĤãģĤãģĤãģĤ ãģĤãģĤãģĤãģĤãģĤãģĤãģĤãģĤ
Y Ã¶n
Ġan ayas
Ġemin im
Ġolan larÄ±
Ġhikay esi
KAR A
Ġhar am
Ġar amak
Ġy Ä±p
Ġart arak
Ġot opark
or y
i er
Ġgel eni
Ġef end
l iydi
z Ä±
ĠKur ban
Ġhav ada
d is
Ġs oya
Ġdiler im
ĠbaÅŁ lÄ±klarÄ±
5 4
N et
Ã½ z
ĠgeliÅŁtir ilmesi
Ġz an
Ġla zer
s o
ĠUz ak
Ġj e
ĠT amam
H AL
ĠHer hangi
st eri
ĠU SB
Ġ Ä±ÅŁÄ±
Ġgrup larÄ±
Ġt uru
ĠbÃ¼yÃ¼y en
Ġyaz Ä±yÄ±
ĠkÃ¶ mÃ¼r
ĠsÄ±nav a
ĠÃ§oÄŁ al
Ġsayf asÄ±
AN I
Ġem lak
ĠAlan ya
Ġnokt asÄ±na
ĠMÃ¼st eÅŁ
ĠÃ§Ä±k mÄ±ÅŁtÄ±r
ĠYal Ã§Ä±n
ĠÃ ¾
ĠMem ur
Ġsak Ä±n
ĠÄ°span yol
r Ã¼
Ġver mez
Ġkas a
Ġk ep
ĠArt vin
ark a
Ġbas ketbol
Ġtarif leri
ĠgÃ¶rÃ¼l dÃ¼ÄŁÃ¼
Ġmut lak
u e
lan dÄ±ÄŁÄ±nÄ±
Ġs os
Ġanla tÄ±
g raf
Ġgen etik
Ġgel miÅŁti
H Y
Ġbu har
ĠMes aj
ĠgÃ¶rev lisi
T ab
Ġbul uÅŁtu
ĠseÃ§im leri
ĠBilg iler
Ġpar amet
Ġkon gr
ĠKÄ±zÄ± lay
a in
Ġetkiley ici
eter iner
ĠdÃ¼ÅŁÃ¼nÃ¼yor uz
Ġbuton una
at in
Ġolay larÄ±n
ad Ã¼f
Ġdin le
6 1
f alt
Ġsar s
Ġk Ã¼m
ĠyaÅŁ Ä±na
Ãľr Ã¼n
Ġhal ini
G Ã¼zel
ĠB Ã¼t
ĠkarÄ±ÅŁ Ä±m
ĠdoÄŁ umlu
ĠtaÅŁ Ä±t
Ġden li
ĠBulgar istan
ĠeÄŁ ilim
ok er
Ġay dÄ±r
ar s
ĠyaÅŁam Ä±n
Ġhast alarÄ±n
Ġistedi ÄŁimiz
F F
Ä±lab ilecek
ing ir
T P
l Ã¼t
Ġoyn ama
ĠÅŁehr inde
è ¦
âĢ º
ah isar
Ġtoplu ma
Ġs tad
Ġbaz Ä±nda
ĠkadÄ±n lara
Ġtopr aÄŁa
Ġun van
Ġeksik liÄŁi
ĠkÄ±s men
ĠsÄ±k Ä±ÅŁtÄ±r
ĠSilah lÄ±
ecek ler
ilm i
M ET
ĠKir alama
ĠÃ¶ÄŁretmen ler
Ġh ev
Ġcil d
ĠBer lin
lerimiz le
istan bul
âĢĻ ,
Ġdola p
ĠSÃ¼r ekli
ĠÃľ mit
oz a
Ġekran a
Ġyarat mak
Ġfazlas Ä±nÄ±
Ã® n
t iÅŁ
ĠhÃ¼kÃ¼m etin
Ġsof r
ĠMil yon
ĠgeÃ§ in
ĠolduÄŁ umu
Ġnit elendir
ĠyaptÄ±k tan
S Ã¼r
ĠkaldÄ±r Ä±ldÄ±
ev re
Ġsorun larÄ±nÄ±
6 3
ad ar
Ġfilm ler
ĠÃ¶t esinde
ĠA S
Ã½ k
ilm eli
Ġfiyat a
luÄŁ unun
Ġb ant
ĠO s
ey ecektir
Ġder gi
K Ä±
Ã¼s Ã¼ne
Ġuygun dur
Ġilk e
Ġkok usu
ĠYal ova
Ġetkinlik ler
Ġplak alÄ±
Ġetm esini
Ġcenaz e
Ġtur larÄ±
Ġediyor du
ĠY ou
Ġvide oyu
Ġder hal
Ã§ek mece
ĠOf is
Ġek me
Ġser p
T el
da ha
Ġsik iÅŁ
ĠGir iÅŁim
Ġbitk isel
ĠcoÄŁraf y
Ġkes kin
Ġkurtul mak
å ¤
ĠkarÅŁÄ±la mak
ĠgÃ¶ t
of f
ĠÃ¶dÃ¼l Ã¼
ĠKur s
Ġdok uz
Ġbilin meyen
Ġkurum larÄ±
ĠÃĸÄŁrenc iler
ĠgerÃ§ekleÅŁtir mek
Ġkalk Ä±ÅŁ
Ġbom ba
Ġtah t
ĠÄ° ST
Ġyol la
Ġce h
Ġtedav isinde
ĠA ta
Ġkapas itesi
ĠÃ§alÄ±ÅŁ anlar
ĠsÃ¼t Ã¼
ĠBor Ã§
elikop ter
I LI
onom i
Ġf ed
iÅŁ imi
ĠÃ¶ÄŁren ebilirsiniz
Ġ18 0
Ġver ilerine
ĠyaÅŁadÄ±k larÄ±
A dana
Ġ8 1
Ġboy unda
c uz
K Ã¼Ã§Ã¼k
ĠBil iÅŁim
Ġrenk ler
Ġal kÄ±ÅŁ
adÄ±ÄŁ Ä±nÄ±
Ġetm eyin
Ġkil is
Ġy epyeni
ĠR ak
ĠÄ° p
Ġslog an
ĠÃ¼lk eden
ĠD iyanet
ĠiÅŁlem ini
Ġsen t
Ġdiler iz
7 9
ĠdÃ¶k Ã¼l
Ġmesaf e
ĠCam i
Ġdiz ayn
ĠO lim
G azi
S eÃ§
paz arÄ±
ĠtÄ±k la
us uyla
ĠKurum sal
ĠÅŀ Ã¼k
Ġf as
am lar
ĠeÄŁ il
ĠÅŁ an
ĠP il
Ġunut ulmaz
Ġay Ä±n
ĠfotoÄŁraf Ä±
ĠhazÄ±rlan Ä±yor
ĠÃľ ye
Ġk ef
Ġrak ib
Ġk ast
ĠsÃ¶yl edik
ĠdÃ¼ÅŁÃ¼n Ã¼n
Ġ5 9
Ġbelg esel
y sanÄ±z
ĠAn tik
Ġsahib inin
k z
ï» ¿
ĠS ite
ĠFir ma
Ġak Ä±n
v eÃ§
) '
maktadÄ±r lar
ay dÄ±n
Ġres imler
ĠÅŀ ef
et k
ĠÃ§ ektir
Ġy aban
ĠÄ°stik lal
Ġm uz
ĠÄ°s met
ĠyÃ¶n elt
ĠÅŁekil lendir
Ġgel miyor
Ġsor usuna
ĠiÅŁ lerini
ĠyÃ¼r ek
Ġhaf tanÄ±n
Ġeser leri
Ġzaman Ä±n
Ġbuz dolab
ĠiÃ§ me
ĠY Ã¶r
ĠHÄ±r ist
qu e
Ġ5 1
eler dir
ĠT as
ĠsonuÃ§ larÄ±nÄ±
Ġfaaliyet lerini
ĠÃ§Ä±k maya
alim an
ĠkiÅŁ ileri
ĠDÃ¶n Ã¼ÅŁ
ĠkullanÄ±cÄ± larÄ±
Ġv arken
Ġtab anlÄ±
Ġc o
oj en
ĠbaÅŁ layÄ±p
Ġzih n
ĠKon gre
Ġlaborat uvar
ĠsÄ±nÄ±r Ä±
ĠyÃ¶ntem ler
Ġmas um
ĠyaÅŁan dÄ±ÄŁÄ±
Ġn ci
ĠS enin
ĠAvust urya
Ä ¢
ĠÃ§Ä±kar an
ĠkÄ±r sal
Ġbir takÄ±m
mÄ±ÅŁ lardÄ±r
Ä±m sÄ±z
Ġdetay lar
Ġbilin ir
ĠbaÄŁÄ±r sak
Ġeb eveyn
ĠÃ§alÄ±ÅŁ acak
ĠSer maye
ĠbiÃ§ imi
Ġan lÄ±k
ĠTemiz lik
Ġsistem inde
Ġham ile
ĠvÃ¼cud un
ĠyÃ¼z Ã¼nÃ¼
ÅŁ a
T E
ĠAn t
Ġbirey ler
l ov
__ __
Ġred ded
ĠTurk cell
lis h
Ġkilomet r
Ġpak eti
Ġt Ã¼f
Ġbas amak
Alman ya
Ġh ijyen
uy uz
ĠAV M
Ġb o
Ġc ik
âĢ ²
ĠKar s
ĠiliÅŁk ili
Y K
ĠEk ip
luÄŁ una
ĠgerÃ§ekleÅŁtir en
Ġk lav
Ġbab am
ĠY olu
Ġsuy unu
Ġgetir ecek
ĠsÃ¼rdÃ¼r dÃ¼
Ġin Ã§
ĠD uvar
Ġsal at
D iy
Ġ19 80
Ġar Ä±yorum
ĠbaÅŁlama dan
ĠÅŁar ap
Ġoldu lar
er on
Ġon ar
B eÅŁiktaÅŁ
ĠhastalÄ±ÄŁ Ä±n
O G
S ayÄ±n
ĠL ED
ĠyÃ¼kÃ¼m lÃ¼
de ÄŁer
ĠaÃ§ Ä±lÄ±r
Ġi v
az e
ĠÅŁey tan
Ġar dÄ±
Ġat ar
ĠgÃ¶n l
Ġal ev
Ã¼s Ã¼nÃ¼n
g eneral
ĠyÄ±l larca
Ġolduk tan
iyor sa
Ġken ara
ĠyapÄ±l malÄ±dÄ±r
Ġtay in
ĠTasar Ä±mÄ±
Ġgrub un
Ġbirey lerin
Ġede mez
Ġrenk leri
Ġtamam layan
ĠyÃ¼zyÄ±l da
ĠmÃ¼dÃ¼r Ã¼
Ġb ebe
ĠgÃ¶r Ã¼ÅŁt
ĠmÃ¼ÅŁteriler imize
âĢ Ķ
ĠyÃ¼r Ã¼
ĠD Ã¶rt
ĠaÅŁ am
ĠM ol
Ġgrup lar
ĠK ON
T am
ĠmeÅŁ gul
ilm esinde
Ġbul uyor
os man
ĠEr tuÄŁrul
Ġp Ä±r
ĠÃ¶r ne
Ġmuay en
Ġedece ÄŁini
ĠmÃ¼d det
Ġy uk
Ġkav ga
imiz deki
ĠP ir
ĠE ur
Ġbu ÄŁday
ĠgÃ¶r meye
Ġok ut
ĠgÃ¶r Ã¼p
Ġteb liÄŁ
ĠAh med
Ġ eli
Ġkayded ildi
ĠEr ol
Ġetm eyen
ĠtÃ¼k en
Ġ199 0
Ġer it
ĠTeÅŁ ekkÃ¼r
ĠT ol
Ġc umhuriyet
Ġfark Ä±na
Ã» r
ĠÄ°k tis
Ġyaz Ä±da
Ġprogram lar
Ġfi il
Ġyap ama
ĠyukarÄ± daki
ade mi
R ET
li g
Ġbil diÄŁi
ĠdÃ¼ÅŁÃ¼n m
ĠbÄ±rak mak
Ġeski den
Ġkop y
ĠbakÄ±m dan
k oÅŁ
ĠseÃ§ men
Ġkal maz
Ì Ĩ
ĠKom itesi
Ġevren sel
Ġa bi
alan an
ĠâĨ Ĵ
Ġkur uÅŁ
ĠMark a
Ġtoplum u
ĠgÃ¶z leri
ĠMÃ¼hendis lik
n ess
Ġt Ã¼n
Ġsorum luluÄŁu
Ġhisse de
Ġk ib
S ay
ĠkÃ¶tÃ¼l Ã¼k
Ġbur asÄ±
Ġve sil
Ġf Ä±ndÄ±k
ĠKo lay
ĠÃ§Ã¶z Ã¼l
Ġolmak sÄ±zÄ±n
Ġniteli ÄŁinde
A li
ĠsÃ¶z cÃ¼
ĠS ad
f Ã¼m
ĠHayvan cÄ±lÄ±k
Ġkab a
ĠÃ§ orb
il d
Ġistedik lerini
Ġa ÄŁÄ±
Ġ6 8
ĠD ili
Ġken tin
Ġkay d
an ik
Hay Ä±r
ĠKap alÄ±
ĠÃ§Ä±l gÄ±n
lar sa
r ef
Ġson landÄ±r
Hay at
H af
ĠDak ika
ĠmÃ¼z iÄŁi
Ġkat il
may Ä±p
Ġaray arak
Ġg Ã¼b
Ġbey n
Y Ã¼z
Ġyok sun
ĠÃ¶z lem
ĠÅŁ en
Ġvur gulan
Ġet ap
D eÄŁ
s Ã¶z
Ġtelefon dan
ĠYaz Ä±lÄ±m
ĠsaÄŁ layarak
ĠM c
Ġordu s
Ġkent inde
ĠE h
Ġmesaf ede
ĠYah udi
ĠY Ä±k
ĠBir bir
Ġce b
ĠiÅŁ ine
Ġkurul du
len ecek
ĠkÄ±sm Ä±nÄ±n
, âĢĿ
Ġetk isiz
Ġrol Ã¼
Ġyap alÄ±m
Ġgerektir ir
ĠÃĩev r
Ġizley ic
ĠDev am
Ġc em
ĠÃ§alÄ±ÅŁ manÄ±n
ĠÃ¼n cÃ¼
Ġtan k
ĠDo lar
ĠgÃ¼ncel leme
art Ä±n
ĠdeÄŁerlendir ilmesi
Ġkom bi
ĠgÃ¼z ergah
ĠgÃ¶v de
ĠaÃ§Ä±k lanan
baÅŁk a
ĠÅŀehir cilik
imi Ã§i
ĠvasÄ±t asÄ±yla
ĠHaber ler
ĠyaÅŁ Ä±yoruz
Ġak tÃ¶r
Ġiy isi
Ġ Ø§
p as
ĠBiz ans
Ġkar ara
B aÄŁ
Ġg or
Ġihtiyac Ä±nÄ±
ĠPlan Ä±
Ġu ÄŁ
Ġemek lilik
ĠFat ma
Ġzek a
oz gat
b olu
Ù ħ
Ġp res
ĠKullan Ä±m
Ġgetir miÅŁ
Ġiddi alÄ±
ĠfotoÄŁraf lar
ĠYÃ¶netmeli ÄŁi
ers en
Ġdost luk
Ġsev inÃ§
Ġk uz
edi a
H ak
Ġbas kÄ±n
Ġzar f
A ÄŁ
as por
ĠÃĸ lÃ¼m
ag anda
Ã¼p he
ĠKan ada
Ġn ar
ĠdemiÅŁ ti
C O
ĠdoÄŁr ul
ĠkonuÅŁ masÄ±nda
ĠgÃ¶nder di
ĠÄ°dar i
ĠEv i
ĠSer dar
la dÄ±ÄŁÄ±mÄ±z
Ġaray Ã¼z
ĠbarÄ±ndÄ±r an
Ġhep imizin
Ġdiy alog
em eye
y etik
d s
al eti
Ä±r da
ĠbaÄŁlantÄ± lÄ±
ĠE ÄŀÄ°T
ledik leri
ĠR ah
At atÃ¼rk
G ir
ĠgÃ¶rÃ¼ntÃ¼ ler
ĠkÄ±ymet li
Ġyir mi
fes Ã¶r
len in
Ġsit esine
ĠÃ¼rÃ¼n lerinin
l uyum
ĠHaf tasÄ±
Ġkoy mak
ĠdÃ¼ÅŁÃ¼n erek
ĠH ab
Ġkullan Ä±yorum
Ġruh sal
ĠÅŁ eri
Ġders ler
Ġdurum dan
b aba
et tÃ¼r
Ġkan alÄ±
Ġifade sini
Ä°n ternet
ĠM ari
ĠM y
Ġmesel esi
un t
g ir
K Ã¶
iz y
om i
201 9
Ġkarak teri
ĠSar ayÄ±
at larÄ±
Ġ7 00
Ġar tÄ±
ĠSur iyeli
dÃ¼k ten
ig er
r uklu
ledik lerini
Ġlog o
anlÄ± ÅŁ
ĠhazÄ±r lamak
5 1
Ġdil ediÄŁiniz
Â §
ĠdÃ¼ÅŁ Ã¼yor
Ġay Ä±na
ĠL ef
ĠG iz
Ġbor cu
Ġsol unum
ĠiÅŁ g
7 3
ĠsÃ¶y leÅŁ
ĠGeÃ§ tiÄŁimiz
ekk e
Ġve da
ĠarasÄ±nda dÄ±r
ĠÃ¶ te
Ġder ler
ĠgÃ¶rÃ¼yor um
ĠsuÃ§ lu
ĠÃ§ik olata
c rip
Tr abzon
de st
Ġz ann
d ini
Ġpersonel in
len ebilir
ĠT rak
ĠtaÅŁÄ±ma cÄ±lÄ±k
ĠBul un
Ġs ark
ĠOla ÄŁan
ĠG Ã¼len
ĠMut lu
Ġver ildiÄŁi
Ġmet abol
b eti
Ġbuyur du
Ġfiyat larla
ĠBiz ler
ĠÃ§alÄ±ÅŁ tÄ±m
ĠPazar lama
Ġdef alarca
Ġis abet
Ġsit esinin
ĠiÅŁ siz
Ġstan dar
Ġminim um
ĠAÃ§ ma
ĠAlan Ä±
Ġseviy eye
ĠH alÄ±
ĠendiÅŁ e
Ġuy uÅŁ
Ġkarar larÄ±
ek sel
Ġp ast
ĠiÅŁlem lerinin
Ġal dat
ĠkadÄ±n larÄ±
ĠTeknoloj ileri
ĠÄ±ÅŁÄ± ÄŁÄ±
et tin
ĠÄ° pek
mem iÅŁtir
Ġbelir siz
oda fone
Ġduy an
ĠY rd
Y a
ih a
ĠKir alÄ±k
ĠgeÃ§ ip
Ġedece ÄŁi
t es
Ġvur uÅŁ
Ġkend inden
maz lÄ±k
Ä±nÄ± p
ĠYaz Ä±cÄ±
aliz asyon
ĠsÃ¶n dÃ¼r
Ġ Î
ĠU sul
larÄ±m la
s Ä±nÄ±
Ġkom b
Ġilg isini
Ay dÄ±n
ĠB Ãĸ
Yap Ä±lan
F a
ĠC D
ĠmÃ¼lk iyet
T Ä°R
ĠsaÄŁ lama
m od
Ġih bar
Ġken ti
Ġeser ler
ĠY Ã¼ce
Ġhayvan lar
Ġplan lama
in san
st en
Ġdiyebilir im
iy enin
Ġh ele
iz min
ĠaÄŁ ac
ĠÃ§alÄ±ÅŁmalar Ä±nda
h y
Ã§ o
Ġkoc aman
Ġima j
Ġpar asÄ±
7 4
ĠH Ã¼rriyet
Ġkanal Ä±nda
ĠaydÄ±n latma
Ġb iÅŁ
ĠTek irdaÄŁ
Ġprens ip
ĠYÃ¶n tem
ĠdÃ¼ÅŁÃ¼n dÃ¼m
Ġtoplum da
Ġincel eyebilirsiniz
ĠbÃ¶lÃ¼m Ã¼ne
Ġar alar
ĠB uz
un e
ĠDemir taÅŁ
Ġis eniz
Ġnas ip
Ġcevab Ä±nÄ±
dik i
ĠsÃ¶z de
Ã ¡
ĠÅŀ em
ĠU N
Ġhar ik
d eler
ing Ã¶l
ĠyÄ±l dÃ¶n
mas a
lan gÄ±Ã§
Ġfel aket
da a
Ġteknoloj ileri
Ġyaz dÄ±r
Ġs Ã¼p
af ak
may Ä±nÄ±z
ĠsÃ¼rec in
Ġbelir lemek
v ur
ĠÃľn al
Ġt ansiyon
ĠDek or
Ġkon tr
ĠkullanÄ±m Ä±na
Ġvade de
ĠdeÄŁil iz
Ġdam la
Ġtak dim
ĠÅŁef faf
t iniz
GÃ¼n Ã¼mÃ¼zde
ey z
ĠG ÃľN
ĠY IL
Ġplatform u
at Ã¼r
ĠÃ¼m it
ĠÃ§ocuÄŁ a
Ġotur up
R AM
ĠAlÄ±ÅŁ veriÅŁ
Ġzih insel
è¦ º
Ġkitap ta
ĠÃ§ey rek
ĠS EO
al lÄ±
Ġdiren iÅŁ
Y ON
ĠÃ§Ä±kar ma
Ġc om
Ġmes ai
ĠAn lat
Ġd eyince
Ġhizmet ini
ĠG Ã¼ler
Ġk Ä±lan
ĠBat man
Ġail esine
Ġkork unÃ§
ĠhÄ±r sÄ±z
Ġaray Ä±p
ĠRapor u
Ġyeterli dir
Ġal erj
Ġdurum larÄ±
ĠB ed
ĠyaptÄ± lar
i et
Ġal Ä±yoruz
Ġden ildi
ĠM oskova
Ġek lenmiÅŁ
Ġhayat i
SY M
k isi
k ileri
Ġkar g
ah an
Ġkon t
ik e
Ġpart inin
ĠĠĠĠ ĠĠĠĠ
larÄ±nÄ±z la
ĠC ity
o lan
ĠÅŁ ap
der es
F enerbahÃ§e
unuz da
ĠhÃ¼kÃ¼m lerine
Ġsay Ä±n
ey bol
ĠKo le
Ġg Ã¼
ĠsÃ¶yley ebiliriz
Ġaday larÄ±n
ĠYah ud
ĠB erk
ĠKon ser
Ġn ice
ĠÃ¶lÃ§ ekli
ĠKur su
c iv
gil tere
ĠYarÄ±ÅŁ masÄ±
abiliyor sunuz
Ġt adÄ±
ĠT S
Ġteknik leri
ĠÃ§ek tiÄŁi
Ġmetrek ar
Ã° i
Ġedilm esini
c on
ĠkÄ±z Ä±m
ĠkarÄ±ÅŁtÄ±r Ä±n
por t
ĠsaÄŁ lanan
ĠÄ° f
ĠÃ¶f k
ĠÅŁ ebek
Ġd ib
ĠK ey
Ġkazan Ä±m
ĠtaÅŁÄ±mak tadÄ±r
tay dÄ±
Ġad il
ĠyÃ¼z me
ĠÃ§ irkin
Ġdestek leyen
Ä° P
ĠÅŁekl indeki
Ġer t
× Ĺ
y ani
ÄŁiniz e
Ġbin asÄ±
ĠZ onguldak
ĠmÃ¼ f
ĠsÃ¶z Ã¼nÃ¼
ĠH ekim
Ġyap Ä±nÄ±n
onu Ã§
Ġalan Ä±ndaki
Ġay aÄŁa
il emez
ik leri
Ġaday larÄ±
El ekt
Ġal dÄ±r
est en
ĠN as
ul e
ula b
ĠP olat
ĠdÄ±ÅŁarÄ± da
ĠiÅŁ yeri
ĠgÃ¶z le
ĠMad rid
Ġinternet te
ĠAf gan
ĠÄ°sv iÃ§re
ĠÅŁ ofÃ¶r
lar Ã½
ĠÃĩ orum
Ã¼le cek
Ġf eder
ok si
Ġfil an
ĠAn gel
n ey
ĠP lus
ĠdÄ±ÅŁ Ä±ndan
ĠA st
ĠÃ¼y eli
ak tif
f iye
ĠyaptÄ±r mak
mam Ä±zÄ±
ĠP amuk
Ġkim liÄŁi
c m
ĠdÃ¶nem e
N ot
ĠAn ayas
Ġ9 9
Ġbank alar
ĠdÃ¼zen leyen
Ġvar an
Ġam bulans
, "
ĠkarÅŁ Ä±nÄ±za
Ġyat an
ĠGen iÅŁ
ĠmantÄ±k lÄ±
Y ani
Ġh elal
ec k
ĠiÅŁaret i
Ġgir mesi
E ÅŁ
Ġekley ip
Ġceh enn
ĠseÃ§ ildi
od ik
Ġmuh akkak
ĠÃ¼z Ã¼m
Ġetm iyor
m ran
Ġkey fi
l iyorum
ĠÃ¼lk emize
ĠÄ°slam i
Ä°L ER
ĠdeÄŁiÅŁ ti
Ġim parator
Ġlam b
s ir
ĠKaf kas
Ġalan Ä±n
Ġs esini
ĠF abrik
Ġtek stil
Ġkelim esi
ĠBul ut
Ġduy uru
Ġizley ebilirsiniz
ĠkÃ¶k lÃ¼
ĠÅŁÃ¼ph el
Ãħ Å¸
Ġmit ing
ĠÃ¶l Ã¼mÃ¼
miÅŁ tim
Ġuygulan acak
Ġsar Ä±m
ĠÃ¼cret leri
ĠiÃ§in dir
Ġkim dir
Ġsu da
s iyle
ĠK Ã¶k
ĠLev ent
ĠÃ¶zellik lere
D Ã¼z
ĠÃ§ Ä±
ene ÄŁini
ĠyaÅŁadÄ±ÄŁ Ä±mÄ±z
P D
l Ä±nÄ±n
Ġiz n
eb ilme
Ġak siyon
Ġbin anÄ±n
ek iz
Ġama tÃ¶r
ĠkÄ±lav uz
in li
ĠkÃ¶ken li
ĠMil liyet
Ä±l dÄ±m
Ġgel ecektir
ah it
Ġgel meye
ĠÅŀ Ã¼ph
ĠS ivil
h ir
ĠÃľlk emizde
Ġkurum larÄ±n
ĠÃ§ok tan
ĠÄ±s Ä±n
O lay
Ġet nik
ĠI SO
ĠgeÃ§ir ilen
Ġeder se
t Ä±nÄ±z
ĠY ÃĸN
ĠkeÅŁ if
' m
Ġp ul
din ilen
ĠL ok
ĠyÃ¶n den
G oogle
ĠÄ° Y
Ġad Ä±nda
Ġcev iz
Sur iye
Ġsezon unda
ĠY ET
Ġbelir lenmiÅŁ
Ġoper asyonu
ĠKurt uluÅŁ
Ġkent sel
di ÄŁinde
ĠiÅŁ sizlik
ĠD Ã¼ÄŁÃ¼n
ĠgeliÅŁ mesi
Ġc a
ĠÃ§ocuk larÄ±nÄ±n
len mesine
ĠA dem
ĠSay Ä±sÄ±
ĠAt ak
Ġver iyorum
ĠbaÅŁla mÄ±ÅŁtÄ±
ĠO R
is y
Ġkazan ma
Ġy ut
ĠÃ§alÄ±ÅŁma da
Ġbir ebir
ĠSer best
ce ÄŁini
Ġolan lara
Ġcihaz larÄ±
Ġproblem leri
ĠAv ukat
yacaÄŁ Ä±m
Ġal manÄ±z
Ġil de
Ġbul up
ĠHar it
Ġk Ä±n
aÅŁ ehir
las s
Ġtamam landÄ±
ĠdÃ¼zenlem eler
ĠÄ° hale
ĠGÃ¶ lÃ¼
F i
ash ington
ĠR ed
ul duÄŁu
ĠiÅŁÃ§ iler
ĠN or
Ġtah liye
Ġkur ÅŁun
b iye
ĠC or
ula bilir
ĠÃ¶mr Ã¼
Ġark asÄ±ndan
Ġmuh taÃ§
Ġoksi jen
ĠD ijital
ĠiÅŁ le
Ã¼nÃ¼z e
ĠÃ§ et
Ġ7 2
f e
Ġkon tenj
Ġanlat maya
Ġhast alarda
ĠyÃ¼rÃ¼t Ã¼l
ĠsÃ¼rec ine
ĠkÄ±s kan
ĠU EFA
Ġverm eyi
Ġyemek leri
ĠbÃ¶lg esine
esi h
ĠÃ§ek er
ĠÃ§arp Ä±cÄ±
ĠHat ip
iy otik
Ġport fÃ¶y
l ing
ĠEk ran
id d
ĠKahraman maraÅŁ
Ù Ĳ
Ã¢ k
Ġd est
Ġper akende
Ġyol larÄ±nÄ±
Ġtalep leri
ĠE st
ev Ã®
Ġyakalan dÄ±
ar aba
ĠBirleÅŁ miÅŁ
Ġsun du
ĠÃ¶ldÃ¼r Ã¼l
Ġy iye
ĠAv rup
ĠseÃ§im lerde
ĠÃ§or ba
Ġb Ä±r
I V
Ġmuhab ir
if er
ĠBen ce
A z
Ġum arÄ±m
t um
ik li
ĠS uper
ĠE lem
ĠÃľs kÃ¼dar
Ġf os
ĠbeÄŁ endi
ĠkaldÄ±r Ä±lmasÄ±
ĠÃĩ ocuÄŁ
M HP
Ã§ iliÄŁi
Ġtes adÃ¼f
ĠayÄ±r t
lam Ä±yor
ĠÃĸz kan
M ut
Ġel ma
ĠAn abilim
ĠEfend imiz
dÄ±ÄŁ Ä±mÄ±
Ġoper atÃ¶r
ĠÃ¶de meler
An adolu
Ġhik met
Ġan ayasa
Ġtutuk landÄ±
ĠÅŁart larda
ĠÂ ĳ
ayol larÄ±
l imi
Ġkadar Ä±yla
Ġhesab Ä±ndan
Ġp amuk
ip er
Ġal lah
ta ur
ĠM i
ĠL td
Ġhes aba
Ġolmayacak tÄ±r
ar ÅŁ
Ġmuh at
!! !
Ġr ah
Ġyaz maya
ĠKarab Ã¼k
Ġter ap
Ġistem iÅŁ
ĠÃ¢ lem
Ġal dÄ±ktan
ili ÄŁe
ĠÃ§ey re
ĠdeÄŁiÅŁ ir
s ad
at ik
Ä±mÄ±z la
ĠÃĩak Ä±r
Ġsay Ä±sÄ±z
Ġet menin
Ġmer haba
ĠMev cut
ic o
ĠpeÅŁ in
Ġver ilerin
F akat
Ġkonum unda
ĠbÃ¶lg esindeki
Ã¼ÄŁ Ã¼nde
Ġtaleb inde
m ine
Ġtah ta
Ä± dÄ±r
6 2
ad en
Ġh Ã¼r
Oy un
ĠbaÅŁla dÄ±ÄŁÄ±nÄ±
Ġters ine
ÄŁiniz in
Ġ[ ...]
Ġnef is
G alatasaray
ur lar
ĠDavut oÄŁlu
ĠiÅŁÃ§ ilerin
Ġbulun duklarÄ±
Ġkor um
ĠEv de
ĠSan ay
Ġkazan mÄ±ÅŁ
Ġkap ital
Ġsalon unda
Ġpart isi
Er doÄŁan
at Ã§Ä±
B M
ĠYar gÄ±tay
ĠtoplantÄ± ya
at ma
ley ebilirsiniz
ĠtÃ¼rk Ã¼
ab o
Ġdil edi
ĠnÃ¼f usu
Ġdey iÅŁ
ah tarÄ±
Ġyapan lar
Ġbak anlÄ±k
U n
Ġ6 9
Ġot urt
ĠiÅŁlem lerin
Ġgereksin im
u dum
Ġoran Ä±nÄ±n
ĠDÃ¼z ce
Ġkr onik
Ġkes me
Ġverm ekteyiz
B it
Ġkurtar ma
Ġyer lerden
ĠÃ§alÄ±ÅŁ arak
ĠseÃ§im lerinde
Ġs ef
ĠVal iliÄŁi
ĠeÄŁitim in
i den
Ġlit re
ĠcoÅŁ k
D Ä±ÅŁ
Ġak ciÄŁer
amÄ±z dan
m Ã¼
j uv
ĠAj ans
t eb
ĠmaÄŁ aza
Ġi OS
ĠAk saray
ĠPlatform u
Ġd inin
Ġyaz Ä±cÄ±
Ġter ey
ĠaÅŁ an
Ġy Ã¼ce
tay Ä±m
Ġem peryal
ĠBil dir
ĠEn dek
Ġmor al
Ä±y aka
Ġprop aganda
Ġkesin t
Ġdeplasman da
Ã° Ã½
V er
ĠateÅŁ li
c tion
ĠyÃ¶netic isi
ĠbaÅŁladÄ± lar
Ġk is
ol ik
Ġmak ale
ĠkullanÄ±l mÄ±ÅŁtÄ±r
ĠD u
us h
Ġolan aÄŁÄ±
Ġbit kiler
Ġfer ah
ĠÄ°s kender
Ġaktar an
Ġhizmet lere
ĠC EO
ĠEn gin
ĠÃ§ anta
Ġbak tÄ±m
Ã¼c Ã¼k
ĠkaydÄ± yla
ĠOtom obil
ĠfarkÄ±nd alÄ±k
Ġoyuncu larÄ±
ĠgÃ¼n lerinde
o ta
ĠEs naf
ĠU mut
may alÄ±m
ĠPat ent
ĠhastalÄ±k lar
la dÄ±k
k Ã¶
Ð° Ð
l inin
Ġmalzem esi
ĠyazÄ± larÄ±
Ġer tesi
Ġkat man
ĠfÄ±r Ã§
Ġla v
ĠBit coin
ĠeÄŁitim ini
Ġkar e
Ġi ta
Ġkar aciÄŁer
ro up
ĠgÃ¶rÃ¼ntÃ¼ leri
ĠMÃ¼slÃ¼m anlar
Ġprogram da
Ġdir eksiyon
Ġek im
Ġbelirt iliyor
Ġkab ar
Ġolur sanÄ±z
ab b
Ġtes limat
Ġkon san
ĠSonr asÄ±nda
Ġkit le
ĠÃ§ Ä±plak
Ġhar Ã§
em ediÄŁi
Ġbelirt ileri
ĠKap sam
Ġroman tik
Ġtarih ini
Ġol u
ĠZeyn ep
Ġakadem isyen
Ġkonum da
ĠsÄ±r ala
ĠG em
ĠÃĩ or
Ġsor usu
ĠKor k
ĠyapÄ±yor lar
ĠgÃ¶l g
ĠM ini
Ġgerekti ÄŁine
ĠÄ°ht iy
ĠtuÅŁ una
Ġmak ul
ĠB AK
ĠHak kÄ±
ĠL ir
Ä±nÄ±z la
Ġyat ay
×Ĺ ×Ĺ
Ġindir imli
Ġkend iniz
Ġr ep
or gan
ĠÄ°b n
Ġlist esinde
ĠR a
Ġbirbir ini
ĠgÃ¶nder diÄŁi
kin g
Ġl ak
Ġtel af
Er kek
la d
Ġyararlan mak
ĠE L
Ġsunul maktadÄ±r
ĠDen et
ay eti
uz un
ĠBel ir
ĠkÃ¶y Ã¼nde
ĠBrezil ya
Ġas falt
ĠÃĩ oÄŁu
ĠkÄ±l Ä±n
w ay
Ġf iÅŁ
ĠKal p
Ġkatli am
ĠA P
Ġkay g
ĠÃ§Ä±kar dÄ±ÄŁÄ±
s Ä±na
ĠgÃ¶ster g
Ġbu Ã§uk
ĠyÃ¶netim inin
ĠK aÄŁÄ±t
Ġsav cÄ±
ĠaÃ§ Ä±lacak
Ġistis mar
C D
ĠT uÄŁ
us undan
B as
Ġhak ikat
ĠÃ§alÄ±ÅŁmalar da
ĠM ete
ĠMobil ya
d ine
Ġbulun makta
M ev
Ã§ inin
it li
ĠAn ti
ĠÃ§erÃ§ev ede
Ġkol on
Ġtarih in
ĠY TL
Ġkatk Ä±sÄ±
ini p
ĠÅŁans lÄ±
ÅŁ ir
ĠHas ta
Ġder im
Ġkarar Ä±n
ĠdÃ¼ÅŁÃ¼n mek
Ġmekan ik
ĠT eh
ĠR Ä±za
c ay
Ġp embe
Ġolma m
ĠÅŀ irketi
Ġor jinal
ĠgÃ¼n Ã¼ne
Ã ±
ĠU marÄ±m
ĠanlaÅŁ Ä±lÄ±r
ol sun
Ġdosy alarÄ±
ĠbÃ¶lÃ¼m leri
z im
C ev
Ġolab ilmektedir
ĠmÃ¼zak er
Ä±lÄ±yor um
ĠÃ¶ngÃ¶r Ã¼len
ĠyÄ±l dÄ±zÄ±
os a
ilm ekte
Ġer tel
w n
ĠyaÅŁ Ä±ndan
ĠH o
S L
Ġmod Ã¼l
Ġoluyor uz
s ada
iniz deki
ĠsoÄŁ ut
ĠsÄ±r alarÄ±nda
ĠÃ§alÄ±ÅŁ maktadÄ±r
alÄ± dÄ±r
F ilm
ER K
ĠkullanÄ±cÄ± lara
ĠÃ¼m met
Ġsaat ler
Ġsistem de
siy um
Ġkal a
Ġmas aya
aÄŁ an
Ġnik ah
Ġat Ä±n
Ġkolay lÄ±k
Ġoku maya
ĠÃľrÃ¼n ler
Ġail eler
ĠG ider
ĠAvust ralya
O t
Ġavantaj lÄ±
m on
Ġu cu
ĠB log
Ġbenz et
Ġhus usunda
ĠAle x
ĠÃ§Ä±k tÄ±ÄŁÄ±nÄ±
ĠSine ma
Ġsah asÄ±nda
Ġkat ma
âĢ¦ .
alÄ±ÄŁ Ä±n
ĠayrÄ±c alÄ±k
it ed
lan Ä±p
Ġister iz
ĠtÃ¼rk iye
Ġsev imli
Ġm Ä±sÄ±r
Ġpro grama
em iÅŁtir
Ā Ā
ĠvatandaÅŁ Ä±
Ġengel lemek
Ġas kÄ±
ĠsÄ±r f
ĠÃĸz can
B Ä°T
ĠoluÅŁtur ma
Ġul us
Dev amÄ±
ama dÄ±m
ĠbaÅŁar Ä±sÄ±
Ġt uhaf
ĠÃ¶rnek ler
Ä±l madan
Ġner de
ĠF ay
n es
Ġar sa
s Ä±nÄ±f
ĠY GS
Ġkurtul uÅŁ
Ñ ı
ĠC oÅŁ
Ġbak Ä±r
ĠdoÄŁrul tu
Ġbirisi dir
Ġyar a
Ġzorunlu dur
Ġf l
Ġ9 00
ĠgÃ¶rdÃ¼ÄŁ Ã¼mÃ¼z
ĠB eden
ĠO ne
ĠsÄ± Ã§
Ġpro sed
ĠbÃ¶lg eler
ĠBel Ã§ika
ĠZ iya
ĠbÃ¶lÃ¼m Ã¼nden
Ġsam im
t y
D EN
Ġm p
Ġed iniz
ĠI r
ĠsÃ¼r eyle
m un
Ġc uma
Ġgiy in
ĠK AY
Ġyorum u
ĠÃ¶n Ã¼ndeki
ed d
lan maya
Ġkab losuz
Ġsak lÄ±
Ġbu laÅŁ
Ġimal atÄ±
m s
Ġnitelik te
Pro gram
ĠdeÄŁerlendir mek
ÅŁ ar
o lay
Ġkal Ä±ntÄ±
ĠK astamonu
ĠO K
Ġko alisyon
ĠpiÅŁ man
ĠgÃ¶k yÃ¼z
ĠM ekt
Ġihtiyac Ä±mÄ±z
ĠbÃ¶lg elerinde
Ġkurum u
Ġsev iye
ĠyÃ¼zyÄ±l Ä±n
ĠbÄ±rak an
ĠDÃ¼nya da
Ã¼l k
kar ahisar
Ġv aat
Ġkend iliÄŁinden
t emiz
ĠniÅŁ an
ĠNur i
Ä°ST ANBUL
ĠÃĸn der
ĠMa x
c Ä±mÄ±z
ĠyatÄ±rÄ±m lar
Ġh elikopter
Ġ199 8
ĠW at
ĠD A
Ġm g
aÃ§ Ä±k
ĠÃ§ocuk luk
ĠG ezi
ĠdÃ¼ny asÄ±na
ĠÃ¼st elik
ĠaÃ§ Ä±sÄ±
Ġtaraf Ä±na
ĠgeÃ§ir ildi
c er
elerin deki
AÅŁ aÄŁÄ±
ĠÃ Ŀ
Ġtur istik
ĠC har
ĠÄ°Ã§ inde
dÃ¼z Ã¼
AT I
ĠKÃ¼t ahya
g iniz
ĠÃ¢ yet
S al
c ileri
ĠB Ã¶
Ġyemek ler
ĠSanat lar
Ġat om
ĠÃ§Ä±k maz
, ,
lendi ÄŁini
Ġdon an
O J
Â ²
ĠAs keri
ĠÃ§ekir dek
Ġar am
ĠÅŁub e
ĠY Ã¼cel
ĠEy Ã¼p
at ih
av ir
Ġkarar Ä±nÄ±n
Ġbula bilir
ĠP ak
ĠgerÃ§ek Ã§i
ev e
Ġderec eye
Ġpo li
Ġhizmet lerin
Ġak si
Ġbirik im
fi ce
ĠyaÅŁ Ä±
Ġ6 3
ĠkaÄŁÄ± dÄ±
Ġf Ã¼z
Ġpantol on
Ġver diler
Ã Ĥ
Ġneden leri
Ġimk Ã¢nÄ±
ĠmÃ¼hendis lik
Ġdakik alÄ±k
Ġn ur
ir men
ĠyÃ¼rÃ¼t en
e w
ĠsaÄŁ layabilirsiniz
Ġheyec anlÄ±
ĠZ eki
er in
el d
Ġkom ÅŁ
Ġkork ut
Ġ Ã¼
Ġmerak lÄ±
alama ya
Ġar adan
inc isi
Y al
anÄ±z da
Ġf ren
op i
Ġmem uru
il k
Ġm iz
ĠL og
ic s
Ġvur du
ĠsavaÅŁ Ä±n
ĠkoÅŁul larda
Ġerk eÄŁin
Ġanla ya
ma in
ĠV eri
ĠSey ahat
Ġ ï
ĠVer gisi
ĠErz incan
ĠKon ak
ĠU Ã§ak
Ġ7 8
Ã§ ay
Ġokul un
ler se
Ġat Ä±yor
ĠPar la
ĠbaÅŁla masÄ±
ĠDemir el
ĠÅŁ ur
ĠI ÅŁ
ĠA kif
Ġay ni
ĠT ap
ĠÅŁ Ã¼phe
F ETÃĸ
Ġkonu daki
Ġprogram Ä±nÄ±n
Ġkan dÄ±r
at Ä±cÄ±
Ġtr ib
F ran
asÄ± dÄ±r
Ġilk okul
ĠB lu
Ġdevam Ä±nÄ±
Ġzor dur
ĠÃ¶ÄŁret meni
ĠsayÄ± larÄ±
Ġtut arak
ĠBir kaÃ§
ĠTop lu
Ġa cel
Ġform Ã¼l
Ġat ama
Ġkadro su
Ġfayd alarÄ±
ĠsÄ±r alan
Ġneden lerle
ĠkaÅŁ Ä±k
Ġfay dasÄ±
Ġmes ele
Ġtes isi
Ġotel leri
tÃ¼l Ã¼
O l
Ġbulun acak
ĠA mir
Ġyap Ä±sÄ±nÄ±
Ä±y sa
lÄ±k larÄ±nÄ±
hend isi
eli ÄŁin
Ġtak ibi
Ġg uzel
lÃ¼k leri
ĠÅŁim dilik
Ġdav anÄ±n
ĠmÃ¼ÅŁteriler imizin
ĠEr g
ĠbaÅŁ kent
Ġver sin
ĠkÃ¼f Ã¼r
ub ay
ĠtanÄ±m ak
ĠÅŁampiyon luk
ĠteÅŁ his
Ġtelefon la
Ġses leri
ĠModel leri
M K
ĠoluÅŁtur ulmasÄ±
ĠÄ°lk Ã¶ÄŁretim
abil itasyon
ĠaÃ§ Ä±lmÄ±ÅŁ
iÄŁ de
Ä° k
Ġfet h
ĠÃ¶ dÃ¼n
ĠalÄ±n dÄ±ÄŁÄ±nda
ĠB oya
ĠGÃ¶ Ã§
Ġkalk Ä±n
ĠN ok
Ġkal or
AL I
as p
Ã¼p hane
ĠGÃ¶r e
Ġkon umu
Ġkon usunu
p ik
Ġolma dÄ±ÄŁÄ±na
ĠM Ã¼s
Ġa fet
ĠAk ÅŁ
ĠÅŀampiyon lar
K iÅŁ
il a
Ġolur uz
ĠsÄ±cak lÄ±ÄŁÄ±
ĠÄ°l han
K itap
f te
ĠE z
ĠyaÅŁ ayacak
ĠgÃ¶rdÃ¼ÄŁ Ã¼m
ĠDoÄŁ a
ĠSÃ¶z leri
ĠgÃ¶rÃ¼le b
M ak
ĠMak ine
Ġbilm em
tib iyotik
Ġs unacak
ĠBil in
b az
ĠsaÃ§ ma
ĠuÄŁr una
ĠSer tif
Ä°n gilizce
Ġkoy an
bo x
ĠÃ§arp Ä±ÅŁ
Ġkurt arÄ±
h h
Ġat ma
ĠPro fesyonel
ĠsonuÃ§ ta
ĠÃ¼lk elere
Ġbozuk luÄŁu
ĠG id
Ġpro mosyon
ĠgÃ¼lÃ¼m s
ĠH rist
Ġs ipar
ĠÃ§Ä±k Ä±ÅŁÄ±
Ġfizik i
Ġit faiye
ĠeÄŁit men
iy eler
Ġdikkat ini
al leri
iz ma
Ġlir alÄ±k
Ġinternet ten
Ġkar ab
Ġkoy arak
Ġani masyon
AR T
ĠoÄŁ l
Ġmadde sine
Ġalg Ä±lan
ĠA masya
ĠMac ar
k est
Ġprogram Ä±nÄ±
ĠAl b
ĠT ed
ĠBur saspor
ĠB lack
Ġdeste ÄŁini
ĠyÃ¶netim inde
ĠhatÄ±rla tan
ĠgÃ¶rÃ¼ÅŁ Ã¼
Ġzih niyet
Ġfrek ans
C E
Ġm um
Ġin gilizce
Osman lÄ±
' ,
ĠkonuÅŁ mak
ĠDeÄŁiÅŁik lik
Ġkural lar
Ġse ans
ĠendÃ¼str iyel
Ġih rac
Ġel it
ĠÅŁehir ler
ib a
Ã¼s k
ĠDevlet leri
ĠTÃ¼rk lerin
ĠmÃ¼h im
ĠL az
Ġyaz Ä±p
iler imiz
Ġdestek lem
Ġsen dro
Ġr ev
iir t
Ñ ĭ
Ġtakv im
Ù Ī
Ġb ron
Ġbilm iyor
Ġbek ler
w ood
Ġkap lÄ±
Ä±nÄ±z daki
Ã»l ullah
ĠaÃ§Ä±k tÄ±r
l ot
ĠH ele
y em
ĠH Ã¼k
ĠÄ°dar e
ĠaÅŁaÄŁÄ± ya
Ġuy u
ĠÃ§alÄ±ÅŁ masÄ±nÄ±
---- ----
Ġvideo larÄ±
ĠgÃ¶rÃ¼nt Ã¼sÃ¼
Ġort aÄŁÄ±
M B
Ä± lamaz
Ġbul duÄŁu
Ġk re
Ã¢ d
Ġbilg isay
Ġtah mini
ĠbakÄ±m lÄ±
Ġver ebilirsiniz
ez ya
Ġd ub
Ġsay Ä±sÄ±nda
alÄ± p
la st
Ġmerak la
Ġo v
Ġar Ä±ndÄ±r
leÅŁtir ilmiÅŁ
ĠoluÅŁtur maktadÄ±r
c aya
l ilere
ĠÃ¼lk elerinde
t edir
Ã¼r i
D ER
m art
Â ·
Ġan dan
ĠPiyas asÄ±
Ġtaraf lÄ±
ĠÅŀ ar
Ġfiyat larÄ±nÄ±
tÃ¼ d
ĠgÃ¶ster miÅŁ
r asÄ±
Ġreak siyon
ĠÅŁ aÅŁkÄ±n
ĠÃ§alÄ±ÅŁ mayÄ±
Ã¼l tÃ¼
Ġde h
ĠÃ§Ä±k abilir
ĠaÃ§ arak
Ġrahat la
ĠTedav i
ĠA cÄ±
ĠÅŁey lerin
Ġsigort asÄ±
r uz
ĠÃ§ocuk larda
Ġla ik
g ov
ĠK elim
an sa
Ġhat alÄ±
Ġv aj
taur ant
Ġ6 7
Ġmuh asebe
ĠyayÄ±n ladÄ±
ĠÅŁark Ä±cÄ±
l eden
Ġist in
ĠS y
ĠdÃ¼k k
ĠKÃ¼rd istan
ĠgÃ¶z lerini
200 7
ĠyapÄ±l Ä±rken
L AH
ĠMar mar
ĠT om
Ġsokak ta
ĠMÃ¼slÃ¼man larÄ±n
ĠDÃ¶n emi
Ġokul larda
K az
Ä±l malÄ±
ĠEÅŁ ya
ĠDemok rasi
ha el
Ġb ine
ĠÄ°ÅŁ Ã§i
l il
W eb
Ġprogram Ä±n
ĠtÃ¼r b
ĠÄ±sÄ±t ma
Ġtak tir
Ġsay gÄ±n
Ġdestek li
ĠÃ§eÅŁ idi
ĠNer ede
ĠsÃ¶y lenen
Ġtac iz
ĠsÃ¶ylÃ¼yor um
Ġmerh amet
Ġh or
Ġ Ä±z
K onya
Ġekonom isi
Ä±ÅŁÄ±k lÄ±
ĠÄ°st ih
ĠSonuÃ§ larÄ±
ĠGenÃ§ ler
ĠHaz ine
Ġn orm
ĠBil gisi
ĠYÄ±l lÄ±k
ĠAr k
ĠÃ¶nlem ler
ĠHik met
U B
ÄŁin deki
Ġmakin asÄ±
Ġh ost
Ġf an
ĠÃ§ek ip
Ġdurum dur
Ãľ st
ĠÅŀim ÅŁek
ĠmÃ¼cadel ede
m inin
Ġm Ã¢n
ĠNih at
on im
Ġkab uk
Ġi dam
ĠOrgan ize
ĠÃ¶nem ine
A pp
ĠEk rem
ĠZ irv
ÅŁt en
ĠteÅŁ eb
ĠiÅŁt ah
ĠGenel kurmay
Ġhalk Ä±na
ĠÄ±ÅŁÄ±ÄŁ Ä±nda
ur at
Ġobj ektif
ĠS GK
Ġdosy asÄ±
F otoÄŁraf
ĠÃ¶ÄŁren dim
ĠÃĸ ÄŁ
ĠyÃ¶n Ã¼
Ġkullan Ä±lmÄ±ÅŁ
re ÄŁ
ĠdÃ¼ÅŁ mÃ¼ÅŁ
Ġod alar
ĠAÅŁaÄŁÄ± daki
Ä±la ÅŁtÄ±r
Ġbak Ä±yor
Ġis kel
ĠÄ°z le
u j
g usu
ĠB izi
ĠA dasÄ±
Ġev leri
om en
Ġbelirt iyor
as e
Ġsahip lerine
asay fa
Ġgerekti ÄŁinde
id eki
BÄ°T AK
Ġyetk isi
Ä±r h
ĠÃ¶zen le
ĠkaldÄ±r mak
Ġvaz if
k k
Ġduyg usu
Ġayr Ä±lÄ±r
Ġsunu lacak
Ġsezon un
Ġtem p
ĠReh ber
Ġsor gula
ledi ÄŁini
Ġbit en
Ġklas Ã¶r
Ġgiy s
ĠÄ°Ã§ eri
ĠCevap larÄ±
10 1
LÃľ M
mel iyiz
Äŀ I
Ġnit eliÄŁi
ĠGÃ¶n der
Ġmis in
ĠÃ¼lk esi
ĠT en
Ġsahip lerinin
8 9
Ġ Ã¼t
Ġp lay
ĠT EM
Ġdeng eli
c iliÄŁi
ĠF ah
l aki
ĠU cuz
Ġyapmak ta
Ġkonusu dur
E Ãĩ
ĠsÃ¼r er
ĠÃ§Ä±k arken
ro ÅŁ
el ler
ĠYap Ä±m
Ġgittik Ã§e
g ara
ĠP e
ĠDur umu
koÅŁ a
ĠM ekke
Ġsoru larÄ±nÄ±
ĠKen an
Ġn un
Ġvak t
ĠgeÃ§ ebilirsiniz
Ġsitemiz den
Ġtekn iÄŁi
ĠE lif
ĠsÃ¶yl edim
C Ä°
Ġkay ak
ĠA ley
Ġbulun muÅŁtur
ĠÃ¼cret li
g s
ĠBen de
er ez
ad er
ĠBin ali
Ġproj ede
EL ER
ĠyapÄ± lar
Ġden ge
ĠolduÄŁumuz u
Ġyap Ä±da
ek ler
ĠÄ°n Ã¶nÃ¼
M a
Ġsistem ler
ĠÃĩeÅŁit li
Ġbulun muÅŁ
Ġbanka cÄ±lÄ±k
ĠgÃ¶rev ine
ĠbeÄŁ eni
Ġeksik lik
ĠÃ¼ret tiÄŁi
Ġsah asÄ±
Ġrisk ini
ĠseÃ§ kin
ĠAkadem isi
ekt eki
malar Ä±nda
Ġhav alandÄ±r
ĠM Ã¼ÅŁ
ĠparÃ§ alan
ĠEnd Ã¼str
ĠS ana
ĠKul Ã¼p
ĠR estor
ĠOyun cu
h en
Ġk anlÄ±
ĠÃ§ev iri
ĠkuÅŁ ak
ĠÃ§Ã¶zÃ¼m leri
iÅŁ an
ĠbaÅŁarÄ± ya
Ġkoy duÄŁu
, ...
ĠMen deres
Ã¼n ist
Ġdeste ÄŁiyle
Ġko Ã§
Ġsonu ca
ĠdeÄŁerlendir meleri
Ġmotiv asyon
Ġkazan dÄ±ÄŁÄ±
Ġoynan acak
ĠkuruluÅŁ lar
ĠÄ°z mit
Ġkalit ede
Ġlez z
Ġert elen
ĠTek rar
k urt
y ah
Ġsunul uyor
ĠkatÄ±lÄ±m Ä±
al aÅŁ
Ãĩ in
ĠdeÄŁiÅŁ iyor
ĠAy ak
ĠaÄŁ acÄ±
ĠL in
ĠV it
Ġma Ã§a
Ġilg il
ĠbÄ±rak ma
Ġdam g
Y O
yaz Ä±lÄ±
Ġgarant ili
ĠkarÄ±ÅŁ Ä±mÄ±
Ġ:) )
a masÄ±
ĠG re
Ġortak lÄ±k
Ġhar can
OK Ä°
Ġik il
ĠdÃ¼z eyi
Ġsen den
ĠalÄ±ÅŁ k
Ġar ma
ĠgeÃ§tik Ã§e
ĠF as
Ġ1 10
ĠAma tÃ¶r
Ġmesl ektaÅŁ
p i
Ġyer lerinde
ĠS T
Ġkal mÄ±ÅŁtÄ±r
Ġd eyim
art ma
c Ä±m
ĠSÃ¶z cÃ¼sÃ¼
ĠÃ§at Ä±ÅŁma
OB Ä°
Ġolma mÄ±z
ĠsÄ±kÄ±n t
acak lar
ĠDE Äŀ
Ġhayvan larÄ±n
Ù Ĭ
ĠAr navut
Ġdevrim ci
Ġba Ã¾
Ġok urken
ĠgeÃ§miÅŁ i
abilir im
8 6
f eksiyon
ĠW hats
al p
Ġm Ä±sÄ±nÄ±z
yacak tÄ±r
Ġs olu
Ġtasar lanan
ĠÃ¼ret mek
Ġbelir tir
Ġh e
I A
p ir
Ġp ist
ĠU sta
ĠÄ°mparator luÄŁu
Ġen j
Ġyar Ä±sÄ±nda
Hal k
tÄ±k Ã§a
ĠSer ver
Ġs eti
ov asyon
es k
ĠBÄ°L G
S abah
ĠarttÄ±r mak
ĠS atÄ±lÄ±k
Ġkims eyi
Ġgel ebilecek
Ġkal dÄ±k
Ġalb Ã¼mÃ¼
ĠP aket
Ä±y er
ent o
ĠÅŁeh re
k uÅŁ
ĠSoÄŁ uk
ĠHukuk u
v anÄ±
M Ã¼
eÃ§ h
Ġkat Ä±larak
y anÄ±n
Ġmesaj larÄ±
Ġsevin dir
Ġuygulama yÄ±
Ġref ah
Ġfar z
Ġal em
Ġgel medi
Ġsahn eye
ĠgÃ¶rÃ¼ntÃ¼l Ã¼
Ġas Ä±r
Ġn imet
ĠBaÅŁak ÅŁehir
Ġbir ileri
ĠiÅŁtir ak
Ġyurt taÅŁ
Ġz ev
Åŀ irket
Ġtrans feri
ĠKur al
Ġpat lama
200 6
Ġ11 2
il asyon
ĠÄ°Y Ä°
M od
ĠEdebiyat Ä±
ĠOrta okulu
ĠsÄ±kÄ±ntÄ± lar
ĠAy han
Ġyan Ä±nÄ±zda
Ġedilm esine
laÅŁ maya
Ġ199 7
Ġruh u
ĠcoÄŁraf i
ĠMÃ¼ f
ledik ten
op ar
Ġr ay
Ġw ith
Ġal Ã§ak
Ġtar ayÄ±cÄ±
ĠkÄ±yas la
ĠK lasik
ĠÃ¶ner ileri
ĠyazÄ±lÄ±m Ä±
Ġoperasyon da
ĠiÅŁ lerin
Ġderin lik
ĠK PSS
R e
ĠY arÄ±
eÅŁ im
ĠM Ã¼k
ĠÃľÃ§ Ã¼ncÃ¼
Ġdayan arak
ĠfÄ±r Ä±nda
ĠYardÄ±m cÄ±
h af
Ġp iyan
Ġgez in
Ðµ r
ĠÄ°nsan larÄ±n
al Ä±sÄ±nÄ±z
ti Ã§i
Ġoyn uyor
Ġark asÄ±na
ÅŁ en
Ġcep he
Ġm alÄ±
ĠgÃ¼ven liÄŁini
Ġhizmet ine
ĠÃ¼y elerine
A G
ĠP Ä±nar
ĠMakin esi
ili ÄŁini
ĠÅŀ erif
Ġtak Ä±lan
ĠboÅŁ a
Ġdiy elim
y s
Ġteknoloj inin
ĠDanÄ±ÅŁ manlÄ±k
Ġkon usuna
ĠgÃ¶rÃ¼ÅŁ leri
Ġbulun arak
Ġs pr
ĠsuÃ§ undan
unu p
ĠL ib
Ġcaz ip
Ã¼ÅŁ Ã¼
ĠaÄŁÄ±r lÄ±ÄŁÄ±
Ġkur gu
ĠIs parta
ĠD ede
ĠseÃ§im ler
ece ÄŁine
Ġgel mesini
ĠbaÄŁ Ä±ÅŁÄ±klÄ±k
Ġsiz lerde
G Ã¼ven
Ġb ilerek
ĠYan gÄ±n
Ġbil iÅŁim
Ġken arÄ±nda
ey la
ĠhazÄ±rlan mÄ±ÅŁtÄ±r
ĠÃĩank aya
Ã» m
] .
Ġ6 2
ans al
ĠE le
O k
Ġsaat lerde
ĠS ipariÅŁ
Ġkend im
ĠDev rim
ĠyoÄŁun luk
fer ansÄ±
Ġem zir
Ġsorun lara
Ġver eceÄŁi
ĠTemsil cisi
Ġhesab Ä±na
H av
Ġetm ekten
ĠÄ±s lak
uÅŁt an
Ġg lobal
ĠbiÅŁ ey
B alÄ±k
Ġpat ent
Ġn eye
E G
erk an
Ġaktar dÄ±
ĠbÄ±rak Ä±r
Ġedilm ez
ĠolacaÄŁ Ä±na
ed in
mad de
Ġr ul
ĠÄ° ster
Ġat ak
Ġver ecektir
ĠS eni
Ġgarant isi
Ġel le
Ġr et
ĠsonuÃ§ larÄ±na
ĠN Ã¼f
Ġboy n
ĠW e
ĠyayÄ±n larÄ±
ĠMark et
ĠBaÅŁ arÄ±
ĠyÄ±l Ä±nÄ±
ĠÃ§ar esiz
Or ta
Ġzeytin yaÄŁÄ±
Åŀ eh
Ġistih barat
p ost
Ġfark et
ĠBur cu
ĠseÃ§ ilmiÅŁ
ĠO tur
Ġhamil elik
Ġziyaret i
b arÄ±
K as
ĠN eyse
a u
Ġy ama
ĠH y
ma tÄ±
ĠMuh tar
Ġkurtar mak
Ġiht il
Ä°s rail
Ġal acaÄŁÄ±nÄ±z
n n
ĠI M
Ġn evi
ĠilÃ§ ede
ĠEr soy
ĠI l
ĠHizmet ler
Ġfinans man
A Ãĩ
ĠÅŁÃ¼k Ã¼r
Ġsev erek
Ġbah sede
f on
ĠÃĸzel likleri
ĠBur adan
Ġat mÄ±ÅŁ
Ġduy ul
T O
Ġistem eyen
Ġg oogle
ya caÄŁÄ±nÄ±
Ġuzman lÄ±k
Ġita at
Ġolma mak
Ġkes tir
ĠgÃ¶r mesi
ĠS of
z eme
il ebilecek
ĠbÄ±rak arak
veren gi
ĠÃ¶ner iler
ĠbaÅŁlat tÄ±ÄŁÄ±
S C
ĠH oÅŁ
Ġyurt dÄ±ÅŁÄ±
d elen
Ġp ank
ĠsÄ±nÄ±f landÄ±r
ĠTeÅŁkil atÄ±
Ġs o
Ġkitab Ä±nda
Ġbran ÅŁ
adÄ±ÄŁ Ä±mÄ±z
T es
s ah
Ġay larda
ĠbaÅŁkanlÄ±ÄŁ Ä±nda
ĠyapÄ±l ma
ĠK ans
KÄ± brÄ±s
iyet le
Ġengel ler
Ġhat un
ĠtakÄ±m larÄ±
ĠhÃ¼km Ã¼
Ġtat b
ĠÄ° c
ĠÃĩel ebi
Ġbek lemek
ĠSaÄŁ lÄ±klÄ±
ĠyalÄ± tÄ±m
r ent
ĠHep si
Ġb adem
Ġot uz
ï ¼
AB ER
Ġez ber
ĠW orld
o ol
n iz
ĠP ost
Ġ lar
Ġyenil eme
Ġbul muÅŁ
Ġs anÄ±
ĠMimar lÄ±k
Ġn eyi
ĠyapÄ±l masÄ±na
ĠBoy ut
Ġp h
ĠÃ§evr eye
Bey az
Ġistik amet
Ġfilm inin
Ä±l masÄ±nda
ĠDÃ¼ny asÄ±
Ġyap mam
Ġbil diÄŁimiz
ĠKÄ±r Ä±k
ĠTek in
ov e
Ġc ir
K oca
Ġtut ulmasÄ±
Ã§Ä± larÄ±
ĠGÃ¼ney doÄŁu
Ġetm edi
dir ler
ĠAk Ä±llÄ±
Ġmu af
ĠA rac
ĠÅŀ am
Ġad Ä±mÄ±
ĠC el
Ġsok aÄŁa
Ġsor ar
Ġab one
ĠÃ¶de v
ĠK Ä±rÄ±m
Bil g
li c
Ġtad il
ĠU Y
ĠOlim piyat
Ġhareket le
ĠÅŁart Ä±yla
ĠÅŀ art
w in
ks Ã¼r
Ġhedef leyen
Ġiddi asÄ±yla
Ġyap amaz
Ġkir li
Ġziyaret Ã§i
Ġedece ÄŁim
Ġhak ik
ĠÃ¶ÄŁrenc ilerinin
Ġal Ã¼minyum
ist en
Ġbu t
Ġonay lÄ±
ĠM Ã¼t
ĠYeni den
bur nu
Ä± lama
Ġs ih
Ġkat Ä±nda
Ġgalib a
Ġz ahmet
Ġlist esine
ĠkonuÅŁ uyor
ĠÄ° lah
ĠÃľlk e
j a
ĠdiÄŁer leri
ĠanÄ±m sat
ist al
es iniz
ĠKab ul
Ġgez dir
Ġkum anda
v iv
T I
ĠKar go
ĠbÄ±rak mÄ±yor
ĠbÃ¼r o
ĠSor un
b n
ĠW ashington
ikat Ã¼r
Ġsim g
g Ä±cÄ±
K r
v ir
ĠaÃ§ Ä±yor
Ġter min
ez a
AK P
Ġih anet
Ġc ari
ĠY ur
Ġmark anÄ±n
Ä±lÄ±r sa
gel e
Ġbeklen tiler
Ġy edir
t Ä±mÄ±
ĠpiÅŁir in
k ah
Ġzul Ã¼m
ĠdoÄŁrultu da
ĠÃ¶zgÃ¼r lÃ¼ÄŁÃ¼
Ġiz ler
Ġbirik tir
Ġekran da
Ġs irk
ĠsoÄŁ utma
Ġar Ä±yor
ĠP op
Ġedeb ilmek
Ġkapsam Ä±ndaki
im er
ĠkoÅŁul lar
Ġbir Ã§
Ġ6 6
ĠÃ¶nc Ã¼l
ĠmÃ¼ barek
n ed
ĠfarklÄ± dÄ±r
ĠÃ§ek iÅŁ
Ġharit asÄ±
ley se
b istan
Ġolumsuz luk
Ġyan Ä±ndaki
Â ®
Ġdedektif lik
os una
Ġmadd elerin
y alarÄ±
Ġplan larÄ±
Ġilgilendir en
Ġmillet i
ĠKay n
emiz deki
Ġf aÅŁ
Ġyap Ä±sÄ±na
Ġsorumlu dur
lan mak
ĠKÃ¶ ÅŁ
Ġinsan lÄ±ÄŁÄ±n
Ġ7 7
c Ä±n
Ġkoruy an
ĠuÄŁr at
ĠSin op
Ġmev s
Ġyan Ä±ndan
Ġkal bi
ĠRe al
Ãľ M
Y urt
Ġordu su
ĠÃĩavuÅŁ oÄŁlu
ĠgÃ¶ster miÅŁtir
G Ã¶
si on
Ġmak ar
Ġan k
Ġada p
Ġplan la
Ġ199 5
Ġek sen
il dikten
Ġtar ama
el la
Ġuygula masÄ±nÄ±
ĠYÃ¼z yÄ±l
ĠB EL
K Ä°
inc eye
eti ce
ap ur
mran iye
Ġkon ulan
laÅŁtÄ± ÄŁÄ±
ĠÄ± lÄ±k
Ġuzman lar
ÄŁimiz de
ĠÄ°st atistik
Ġbilin iyor
s Ä±nda
ĠgeÃ§ tiÄŁini
Ġkaynak lar
ĠTak sim
Ġversiyon u
Ġte Ã¢lÃ¢
ĠgÃ¶rÃ¼l mesi
Ġpro f
Ġp adiÅŁah
ĠgÃ¶z yaÅŁ
Ġbel de
ĠgÃ¶ steri
ĠkÄ±r k
Ġ6 1
ĠtÃ¼r den
Ġhey eti
Ġiler iye
ĠgÃ¼Ã§ lÃ¼k
ley ebilir
ĠSah ip
ĠaÅŁk Ä±
Ù Ĵ
Ġan ahtarÄ±
ĠÄ±ÅŁ Ä±l
Ġyaz Ä±nÄ±n
Ä Ĳ
Ġoldu gu
ĠbaÅŁkan larÄ±
Ġdestek ler
ĠâĢ Ķ
len mek
Ġbenz ersiz
ĠdeÄŁerlendir ildi
ĠK Ã¼l
g Ã¶ren
ĠU m
Ġortam larda
al Ä±n
Ġkal e
ĠkayÄ±t larÄ±
Ġt elif
ĠiliÅŁk ilerin
ĠY oÄŁun
g ren
B ul
ĠD Ã¶v
Ġkal maya
Ġkal dÄ±ÄŁÄ±nÄ±
Ġoyuncu larÄ±n
Ġed itÃ¶r
Ġuy k
ĠtasarÄ±m larÄ±
ar lÄ±ÄŁÄ±
Ġar adÄ±ÄŁÄ±nÄ±z
Ġel imizden
ĠUl us
ĠyurtdÄ±ÅŁ Ä±nda
Ġsol uk
ĠTar if
Ġtas arÄ±
Ġkal eci
Ġhep sinin
ĠsÃ¼r esinin
Ġalan larÄ±n
Ġf ena
ĠKend isi
ĠNum ar
ĠAÄŁ a
Ġzar if
ĠkÃ¢ ÄŁÄ±
Ã¶r ler
c Ã¼l
Ġtemel inde
n esi
Ġuzak lÄ±k
Ġadam lar
Ġdiz inin
ĠsaldÄ±r gan
ĠAra ma
ĠH oc
ĠyakÄ±n larÄ±
Ġotom otiv
ĠgÃ¶rÃ¼ÅŁ mek
Ġefsan e
Ã® m
kin lik
ĠKon ferans
Ġolun ur
ĠPet rol
ĠkarÅŁÄ± tÄ±
ĠbaÅŁlan gÄ±
ĠboÅŁan ma
ĠPar Ã§a
Ġmol ek
n o
Ġh Ã¼zÃ¼n
Ġnokt alar
ob ile
Ġedil ip
ĠÃ§evr esindeki
Ä±sÄ±r a
Ġm iyim
oc u
ĠÃ§Ã¶z mek
eÄŁ en
Ġproj eye
Ġyap Ä±t
ĠMal tepe
Ġekley erek
ĠT icari
Ġbam baÅŁka
t ing
ĠÄ°h san
Ġdiy ecek
ran Ã§
Ġuygula manÄ±n
Ġadr esini
Ġkullan dÄ±ÄŁÄ±mÄ±z
ĠK imi
ĠS o
tern ational
ĠyaÅŁ ant
Ġayr Ä±lmÄ±ÅŁ
Ġkr ip
Ġil ki
Ġbilg isini
ĠaÃ§Ä±k layan
Ġar anan
Ðµ Ð
Ġkur b
ĠMah keme
ĠAr aba
Ġistem iyor
Ġl Ã¢
c id
ĠTok at
Ġtut uyor
Ġbur cu
B an
Ġel iyle
Ġtak Ä±
Ġmakin eleri
b y
Sev gili
Ġo pt
it an
ĠtÃ¶ren le
Ġsen sÃ¶r
ĠS te
ĠTeb liÄŁ
ĠOn lara
Ġk ud
Ġodas Ä±nda
ĠS ky
ĠA Åŀ
Ġfaaliyet ler
Ġterc Ã¼me
ĠFilm leri
Ġekip ler
c c
av ar
ĠsektÃ¶r Ã¼ne
ĠO D
Ġsor uyu
Ġdilek Ã§
Ġces ur
edik al
ĠYol larÄ±
Ġoyn adÄ±
Ġal arm
ĠÅŁ un
ĠdÃ¶n Ã¼yor
Ġte ma
t v
k ab
akk ab
ĠM P
ĠEr kan
abilece ÄŁimiz
Ġazalt mak
Ġprosed Ã¼r
ĠT AR
3 00
Ġyeten ekli
ĠAbd ul
Ġson bahar
ĠAl tÄ±
ĠPa ul
eÅŁ e
l ileri
ĠLab orat
B una
ĠhÄ±r sÄ±zlÄ±k
ĠbaÅŁvuru larÄ±
ĠyÃ¼z lÃ¼
Ġarkada s
ĠÃ§alÄ±ÅŁ tÄ±k
Ġsu b
ĠsuÃ§ u
Ġendek si
tÃ¼d yo
Ġmuh t
Ġf u
Ġhizmet in
S onuÃ§
ĠÃ§Ä±karÄ± p
ĠkadÄ±n larda
Ġkab in
Ġbir eyin
Ġbilm ez
ĠmaÃ§ Ä±nÄ±
aman Ä±z
Ġokul lar
Ġ3 50
Ġnem lendir
Ġu laÅŁtÄ±ÄŁ
l m
Y S
Ġs icil
reÄŁ li
Ġt raf
lÄ±k larÄ±n
ĠÃ¼retic isi
ĠMalzem eleri
ĠÃ¶zel liÄŁine
ĠKÃ¶pr Ã¼sÃ¼
ĠKur u
abilecek leri
ĠEv leri
= "
ĠÃ§Ä±kar Ä±n
Ġtak Ä±ma
ĠÃ¼lk elerden
Ġyap abileceÄŁiniz
ĠW ord
ĠyÃ¶n Ã¼ndeki
ĠK eÃ§
Ġkon uÅŁtuk
ES T
s asÄ±
Ġyan Ä±sÄ±ra
Ġkup on
ĠgÃ¼n kÃ¼
ĠÃ§Ã¶zÃ¼m e
n el
Ġsay Ä±sÄ±na
ĠC elal
ĠÃ¶zellik lerine
ĠD NA
B un
ĠdeÄŁiÅŁiklik leri
ir ve
Ġkullan mayÄ±
Ä±k lar
Ġkal ori
Ġverm eyen
Ġ199 6
ĠFik ir
s ki
Ġvaz iyet
Ġpar anÄ±n
ac an
ĠSev gil
Ġbiy olojik
ĠSÃ¶zleÅŁ mesi
Ġsu bay
Ġsandal y
Ġmesaj lar
ĠkonuÅŁ masÄ±nÄ±
B unu
h aber
ĠvatandaÅŁ Ä±n
Ġs iv
ĠgÃ¶zÃ¼k Ã¼yor
tan e
ĠyÄ±l lara
abilm eniz
lik dÃ¼zÃ¼
Ġgec eleri
ĠK os
ĠOn larÄ±
Ġsev iyor
lay alÄ±m
ĠSonuÃ§ ta
ĠsaÄŁ layabilir
Ġkullan abileceÄŁiniz
ĠBak Ä±mÄ±
Ġyaralan an
Ġon ayÄ±
K onu
f eder
ĠmÃ¼sa it
em emiÅŁ
ĠAv cÄ±
Ġ q
ĠFaz la
Ġham l
ĠiliÅŁk iye
ĠgÃ¼zel liÄŁi
T em
Ä° ran
Ġp encere
Ġdolay lÄ±
Ġb Ã¼l
ĠÃ¶n Ã¼nÃ¼
eks ika
ĠdÃ¼ÅŁtÃ¼ ÄŁÃ¼
ĠdÃ¶k Ã¼m
ĠVad isi
Ä°n giltere
ĠT Ã¶r
Ġ199 4
ol uk
r ap
ĠaÃ§ lÄ±k
Ġyaz arak
azz am
ko Ã§
ĠH ani
Ġkural larÄ±na
Ġz anlÄ±
2 000
Ġbir imleri
d f
Ġgal ip
Ġsev giler
K om
Ġmuhaf az
Ġhat asÄ±
ĠÃ§alÄ±ÅŁ Ä±n
n em
Ġrad ikal
st em
Ġyakal ay
ĠC N
ĠÃ§evr esi
Ġkurul umu
ĠSal dÄ±r
ĠY el
ĠD iyet
ĠÄ°lk okulu
Ġgru ba
Ġfazla dÄ±r
Ġas tr
ĠS ili
ĠC er
Ġleh ine
ĠseÃ§ mek
ĠK Ã¢
ĠgÃ¶revl ileri
Ġu p
ĠPer forman
own load
Ġkal madan
Ġseyir c
Ġlist elen
Ġiz ah
Ġkapsam Ä±na
ĠW i
ĠÃ§ek ildi
tar af
ilik on
ĠtÃ¶ren ine
ih az
Ġincel eyerek
ĠF inal
Ġal Ä±yorum
ĠMar s
n ot
w ard
ĠW ar
ĠÃ¼ret ilmiÅŁ
ĠEr ken
ĠdÃ¶nem lerinde
ĠS eri
ĠÅŀ if
Ġer gen
Ġsoru larÄ±n
Ġs ans
Ġyar Ä±ÅŁÄ±
ĠÅŁif re
ĠB Ä±rak
ĠBas kÄ±
Ð¸ Ð
ĠmÃ¼z e
ĠKal iteli
ĠÃ¶dÃ¼l lendir
Ġilah i
ama dÄ±ÄŁÄ±
ĠsaÄŁ lÄ±ÄŁ
B ab
Ã§ ilere
Ġzaman dan
dak ilerden
Ġel veriÅŁ
Ġsoru ya
Ġs Ä±y
ĠÃĸde me
ĠÃ¶nem s
Ġzar arÄ±
Ġkaz asÄ±
Ġyet in
Ġsan atÄ±
Ġder di
ĠMed ine
Ġpir inÃ§
Ġk olu
Ġzaman ki
Ġfiyat lÄ±
ĠTek stil
ĠAlman ca
ĠyÃ¼z e
Ġhak sÄ±zlÄ±k
Ġbulunma dÄ±ÄŁÄ±
8 1
Ġdur ur
Ġdayan Ä±ÅŁma
ĠÃ¶ÄŁ Ã¼n
Ġev rim
ĠyapÄ± larÄ±
Ġil inde
ĠH int
Ġem ri
S Ä±nÄ±f
ĠdeÄŁin en
Ġb Ã¼k
Ġodas Ä±na
ĠK u
Ġinsan lardan
Ġkur ulacak
ĠAle vi
Ġkem er
Ġbayan Ä±m
Ġolmay abilir
avv uf
en li
ilm eyen
Ġgiy en
ĠS MS
Ã¶l ye
M ehmet
m ekt
Ġl ojistik
B al
Ġkoz metik
ĠG EN
ĠK od
ĠDav id
200 5
Ġpar fÃ¼m
Ġharit a
ÃĸÄŁr enc
T AL
Ä°N E
AN S
ĠC al
Son ra
ĠsaÄŁ lÄ±ÄŁÄ±nÄ±
ĠMÃ¼dÃ¼r Ã¼mÃ¼z
ĠBah Ã§e
Ġdiy abet
Y eÅŁil
dev let
Ġt etk
s uru
ĠSiz ler
ĠDev r
maz sa
Ġm uv
ĠgÃ¼ven le
ĠV ir
il an
p en
ĠEng lish
Ġp al
ĠkarÅŁÄ± t
Ġticaret i
ot ek
ĠAfgan istan
B ana
Ġsav unan
ĠkaÃ§ an
ĠÃ¶n eri
Ġtat ili
Ġyaz dÄ±m
Ġbur Ã§
Ġifad eleri
ĠEb Ã»
De ÄŁer
Mer habalar
ĠÃ¼retim inde
ĠaldÄ± lar
ĠÃ§ek ilmiÅŁ
Ġkarar laÅŁtÄ±r
Ġj andarma
Ġat Ä±p
Ġkend imize
Ġgelir i
ĠÃ§iz im
ĠÃ¢ lim
K endi
Ġmakam Ä±nda
leri dir
ĠT SK
ĠyÄ±l baÅŁÄ±
Ġ iri
Ġolab ildi
ĠÅŁ ov
ĠB ingÃ¶l
ĠbÃ¼r Ã¼n
Ġser amik
Ġameliyat Ä±
ĠgÃ¼c Ã¼ne
Ġbur c
Ġdevr ed
Ġail eleri
Ġmer mer
Ġbal on
Ġbaz lÄ±
D Ã¼ÅŁ
Ġciv ar
ĠVat an
ĠyÃ¼ks ektir
Ġalan lara
Ġister se
Ġs ter
Ġden eyin
his sel
ĠbaÅŁk alarÄ±nÄ±n
ama men
ĠSÃ¶z leÅŁme
Û Į
Ġkal kan
ĠaÃ§ abilir
Ġmilletvekil leri
Ġtaraf Ä±n
Ġver mem
Ġoku du
ĠT OP
Ġgetir ip
Ġust asÄ±
Ġkullan Ä±rken
adÄ±k larÄ±
ĠpoÅŁ et
ÄŁ Ã¼s
Ä±m lar
t Ã¼k
j ant
ĠMey dan
Y ol
ĠÃ§ ukur
z acÄ±
Ġak an
ĠÄ° Z
Ġsah aya
il yon
Ġif tir
Ġres sam
ĠMik ro
Ġkahv alt
la tan
ĠSem poz
Ġrahat Ã§a
ĠBey oÄŁlu
ĠÄ°d di
ez z
Ġimkan larÄ±
9 6
Ġark e
laÅŁ manÄ±n
ĠT on
ĠÅŁu dur
C h
ĠOper asyon
Ġek lemek
ĠÃ¶ÄŁ Ã¼t
c istan
Ġes in
Ġpart iler
ĠmÃ¼t te
Ġharca ma
ĠSer t
ĠsÃ¼r Ã¼len
ĠH or
G Ã¼l
ĠA M
ĠAr if
Ġkoy uyor
s eler
ĠEr en
ĠadÄ±m larÄ±
Ġhav aya
** **
Ġm l
lar in
Ġgrub unda
Ġo mur
ĠR isk
ĠiÃ§er mektedir
Ù ĩ
as la
ĠÃ§alÄ±ÅŁ tÄ±ÄŁÄ±nÄ±
Ġettik ten
op e
ĠStad Ä±
ĠTek lif
meler e
Ġmahkem eye
S in
Ä±r sa
Ġteor ik
ĠÃ¶de mek
D F
Ġak Ä±ÅŁÄ±
Ġikin cisi
Ġsayf alar
r ut
c t
ed din
ĠtarÄ±m sal
Ġaz Ä±n
Ä±r Ä±z
Ġev ler
ark lÄ±
ĠtÃ¶ren inde
Ġtut ulan
ĠÄ°ÅŁ birliÄŁi
ĠrÃ¼z g
ĠbaÄŁ lama
leÅŁ mesi
D av
Ġhar man
ĠMahal le
ĠA C
Ġyer le
Ġkonum una
Ġsoru lara
Ã§ aÄŁ
Ġat lat
t le
Ġhizmet lerinin
Er z
m alÄ±k
ĠH is
Ġlira dan
ĠgÃ¼l dÃ¼r
ĠI V
Ġgerekiyor du
Ġisteyen lerin
ak ip
Ä±z Ä±n
Ġolab ilmek
Ġd ul
ĠÃĸnc eki
Ãĸr neÄŁin
ĠR ektÃ¶rÃ¼
ĠZ ey
Ġin ter
Ġproj esinin
Ä±lma mÄ±ÅŁ
Ġakl Ä±na
ĠÅŁ amp
Ġal mÄ±ÅŁtÄ±
ĠM erk
Ġkims eler
ĠH P
Ġtek ne
ĠA A
Ġt h
Ġsig ar
ĠÃ§am ur
ĠkÄ±z Ä±l
ĠyÄ±ldÄ±z lÄ±
Ġmerkez e
Ġak s
ĠÃ¶ÄŁrenc ilerine
Ġsen edir
Ġbelir leyen
ĠiÄŁ ne
ĠP utin
ĠÃĩ al
Ġc umhurbaÅŁkanÄ±
ĠAlÄ± m
ĠbÃ¶lÃ¼m Ã¼nÃ¼n
ĠÃĸÄŁr et
Ġn da
ĠH el
og a
G azet
tiv e
Ġalmak ta
Ġdiye b
Ġtam iri
il in
s s
ĠKim ya
l l
Ä± v
Ġg ri
ĠgÃ¶rÃ¼l mÃ¼ÅŁtÃ¼r
ĠsektÃ¶r e
ĠÄ°Ãĩ Ä°N
t Ä±na
Ġstratej i
4 00
ĠCen net
ĠAlbay rak
Ġkalk Ä±nma
ĠyÃ¼ksek liÄŁi
ĠSiz lere
civ ert
Ġpotansiy eli
ĠAkadem ik
ĠsÄ±r alarda
Ġmet od
m eme
Ġbay r
Ġv ek
ĠiÅŁ leyen
Ġsev di
ĠÃ§Ä±kar Ä±lmasÄ±
Ġ19 60
Ġkor id
ĠgeÃ§ meden
Ġiyi dir
ren ses
Ġolacak tÄ±
ĠTak ip
j ik
ĠIn ternet
AN D
edik lerini
ĠgÃ¶ster meye
ÃĦ Å¸
ĠaÃ§ Ä±n
ĠDon ald
lan masÄ±nÄ±
Y azar
Ġdevam Ä±nda
Ġaz dÄ±r
Ġsin dir
Ġverdi ÄŁiniz
Ġzih in
Ġsor dum
cel ona
Ġnumar alarÄ±
Ġs ola
m y
ĠÃ ĥ
ĠBur han
ĠaraÅŁtÄ±r maya
yap Ä±
Ġdo landÄ±rÄ±cÄ±
Ġunut ma
Ġmut suz
Yak laÅŁÄ±k
Ġindir mek
Ġpro v
A Ã§
ĠÅŁiddet le
Ġmadal ya
U Åŀ
c asÄ±
Ġsu lama
ĠYÃ¼ksek Ã¶ÄŁretim
ĠTar ifi
ce des
ad Ä±ÅŁÄ±
il et
ĠBÃĸ LÃľM
ub at
ĠF estival
k iye
ĠoluÅŁ u
ĠA dÄ±m
ĠTesis leri
Ġedilm ek
ti j
ĠAy akkabÄ±
mal Ä±yÄ±m
Ã¼l te
M ustafa
Ġhava alan
ĠC ap
Ġadr esinde
ĠB B
Ġay aÄŁÄ±
umhurbaÅŁk anlÄ±ÄŁÄ±
ĠgÃ¶ster mesi
ĠÃ¶y l
Ġkullan abilir
ĠÃ¶nlem leri
w are
Ġyap manÄ±n
Ġfilm inde
Ġkut usu
ĠsÄ±nÄ±f ta
ĠgeÃ§ erken
hid rat
ĠErkek ler
Ġkend isiyle
Ġbak Ä±p
Ġhev es
Ã ¤
Ġotel de
ĠgÃ¶r ecek
li gi
Ġada ma
Ġad Ä±nÄ±n
Ġhad i
ĠT ic
Ġbenz iyor
Ġek ranÄ±
ĠGar anti
ï ½
Ġy on
le x
ic ilerin
Ġengel lem
Ġkend ilerinin
ĠAt aÅŁehir
Ġyap acaÄŁÄ±m
ĠPla stik
Ġders iniz
Kam u
Ġst art
Ġdok Ã¼m
ĠA g
Ġhedef leri
ĠDemok rat
ĠbaÅŁvuru da
leÅŁtir mek
ĠdÃ¼ÅŁ mesi
Ġyap acaÄŁÄ±nÄ±
ĠKÃ¼t Ã¼phan
dÄ±ÄŁ Ä±mda
ĠSorum lu
ĠPol onya
Ġoldug unu
... "
Ġnot u
T ube
Ġfir masÄ±nÄ±n
edd Ã¼t
ĠK HK
ĠÄ° leri
it im
ĠBaÅŁkan lÄ±k
ĠgÃ¼r Ã¼lt
ĠiÅŁken ce
Ġist endi
ĠYaz Ä±lÄ±
ĠSh ow
Ġann eler
EL Ä°K
ĠpÃ¼r Ã¼z
ĠiÅŁlev sel
Ġduygu larÄ±
Ġbirlikt elik
Bel ediye
ĠK ep
m o
Ġistiyor sunuz
Ġnih ai
Ġekib imiz
> <
Ġola ya
ĠAy v
ĠdÃ¶nem inin
ĠKarÅŁ Ä±yaka
Z aman
Ġkurum un
LAR IN
ar ch
Ġkoy ar
eder ken
ĠgÃ¶nder ilir
ĠKÄ±brÄ±s lÄ±
Ġbulun muyor
ĠÃ§ ayÄ±
ĠBah is
ĠsÃ¼r Ã¼n
ĠkuruluÅŁ larÄ±n
ĠÄ°ÅŁ ler
ĠG o
Ġ7 9
ĠsÄ±kÄ±n tÄ±sÄ±
ĠhazÄ±rlan masÄ±
ĠsÃ¶yl ediler
B ilim
Ġkitab Ä±nÄ±
sÄ±n lar
iy en
ĠdÃ¼ÅŁÃ¼n dÃ¼k
Ġyazar Ä±n
k itap
Ġbel lek
duÄŁ una
Ġhac mi
Ġokuy up
ĠP AR
Ġav uÃ§
Ġyapar lar
ĠFinans al
Ġolma dÄ±ÄŁÄ±ndan
ĠgeliÅŁtir ilmiÅŁ
ĠMes ut
ĠYÃ¼r Ã¼y
ĠseÃ§ erek
iy se
Ġfaaliyet lerine
ĠK OBÄ°
Ġmuc iz
ĠkuruluÅŁ larÄ±nÄ±n
ĠvÃ¼c udu
ĠE M
mak am
ĠÄ° y
os unda
ĠOk tay
ĠSez on
ĠK O
ĠU laÅŁtÄ±rma
H an
ĠdÃ¼nya ca
mer haba
S AN
uy an
ilm eden
Y ayÄ±n
Ġsorum lusu
ĠÃĸ SYM
ĠAd res
Ġar tacak
Ġay dan
Ġtaktir de
ĠgÃ¶rÃ¼n Ã¼mÃ¼
R E
Ġdedi ÄŁim
Ġh iz
Ġim ha
Ä° F
Ġdo landÄ±r
ĠP uan
ĠyaÅŁan Ä±yor
iyet e
ĠAk ademi
Ġhay ali
ĠGaz ze
ĠsaÄŁ a
Ġ199 2
ĠÃ§ap raz
Ġtem eli
Ä±n ak
Ġpolitik alarÄ±
r ad
ĠsÃ¼r Ã¼mÃ¼
I Y
Ġuygula mak
b un
ĠP laj
D Ã¶n
ĠolduÄŁ unuzu
Ġkur arak
ĠSam i
ĠDev amÄ±nÄ±
Ġadres e
Ġs eh
ĠÅŀ iÅŁli
Ġlist esini
ĠbÃ¼yÃ¼k lÃ¼ÄŁÃ¼nde
Ġan tibiyotik
ĠÅŀ ark
Ġgr ev
ĠÃ§aÄŁr Ä±sÄ±
at o
ĠÃ§al Ä±n
ĠKara ca
Ġar ayÄ±n
Ġal ay
ak t
ĠÃ§ar e
Ä±lma masÄ±
Ä±n Ã§
ĠdÃ¶n mek
Ar aÅŁtÄ±r
Ġal Ä±nÄ±p
ot u
Ġko operatif
Ã¼m Ã¼n
Ġsenin le
ro t
Ġsal g
Ġver ilebilir
ĠÅŁ ak
Ġs okt
d alÄ±
ĠS ec
K UR
ĠU ÅŁak
ĠBÃ¼t Ã§e
Ġbur da
ĠgÃ¼ven ce
ĠgÃ¶rev den
ester ol
Ġ199 3
Y at
ĠgÃ¼n Ã¼nÃ¼
ĠdÃ¼ÅŁ manÄ±
Ġist e
ĠkonuÅŁ malar
ĠmaÃ§ larÄ±
Ġyeten eÄŁi
el iler
ĠkapÄ± larÄ±nÄ±
Ġ 000
ĠdÃ¼zen lenmesi
ĠÃĸdÃ¼l leri
Ġel indeki
ĠaÃ§Ä±kla malarÄ±
s Ã¼r
Ġ7 6
ĠPr emi
ðŁ ĺ
ro jen
ap Ä±
ĠSiyas et
ĠBilg ileri
Ġfaaliyet e
Ġk Ã¶l
ĠÃĩ il
ĠAs Ä±l
ĠD emek
ĠdeÄŁerlendir en
ĠFir mamÄ±z
ĠeleÅŁtir i
ĠgÃ¶z de
ĠÃ§evr imiÃ§i
ĠKÃ¶r fez
ĠKom p
Ġhat alar
Ġdar al
Ġac ent
ĠY eri
Ġalg orit
ĠG ebze
Ġmemnun iyetini
ĠbaÄŁ layan
Ġfrag manÄ±
ĠsÃ¼r eleri
Ġan talya
Ġavantaj Ä±
ĠA ut
Ġanla dÄ±m
ĠvatandaÅŁ lara
Ã¼ h
ĠL id
Ġak sam
lan masÄ±na
ĠdeyiÅŁ le
or ge
ĠPort ekiz
Ġd or
ĠgÃ¶ster ecek
Ġlig de
ĠherÅŁ eyi
Ġt Ã¼tÃ¼n
Ġc ad
ĠUz ay
Ġyetkil iler
ĠMerkez leri
ĠâĢ º
Ġkol larÄ±
Ġk ana
ĠMÃ¼dÃ¼rlÃ¼ÄŁ Ã¼ne
ĠEr can
ĠsÃ¶yley ebilirim
ĠKamp an
ĠE tik
ĠÃ§iz en
Ġoyunc unun
Ġlen s
Ġcevap lar
iy ye
ĠsÃ¼r gÃ¼n
ĠkarÅŁÄ±laÅŁ ma
S h
Ġsistem lerinin
Ãľlk emizde
ĠBaÄŁ dat
f ab
ev et
ĠiÅŁ len
Ġdiler seniz
Ġtan Ä±mÄ±
Ġk asÄ±
ig h
Ġtan Ä±ÅŁma
Pro f
ĠBaÅŁbak anlÄ±k
Ġek si
Tek n
Ñ Į
ĠAr ka
ĠyatÄ±rÄ±m larÄ±
ĠÃ¶den mesi
ĠalÄ±n abilir
Ġday at
B undan
tal ama
ĠkÄ±sÄ±t lÄ±
ĠH it
ĠkullanÄ±c Ä±nÄ±n
200 4
o us
ĠTrak ya
Ġgem isi
Ġgelir ken
Ġtan Ä±y
Ġca iz
ĠÃĸ N
caÄŁ Ä±nÄ±z
Ġhan i
H am
Ä°Y ET
l esin
ĠdaÄŁ Ä±lÄ±m
Ã¼ fer
ĠvÃ¼c uda
M Ã¼z
ĠYÃ¶netmeli ÄŁin
Ġn iÃ§in
y azÄ±
Ġani den
ĠÅŁ irin
Ġad Ä±ndan
Ġorganiz asyonu
Ġstan d
ĠÃĩaÄŁ rÄ±
ĠR is
Ġgid in
K ir
Ġbilg inin
Ġhukuk a
ĠtÄ±k an
al amak
ĠartÄ±ÅŁ la
Ġkural lara
c alan
Ġbur juv
Ġsezon da
Ġsit elerinde
ĠyÃ¶ntem lerle
Ġd r
ĠsÄ±k Ä±cÄ±
ĠBakÄ±r kÃ¶y
ĠD eri
d r
Ġkar lÄ±
Ġdevlet e
Ġyap Ä±sal
ĠBaÄŁ Ä±msÄ±z
ĠS AY
ĠZ ek
ĠDayan Ä±ÅŁma
Ġyapmak tan
ĠE dit
Ġdosy alar
B at
Â ħ
Ġyap malarÄ±
ak lÄ±k
Ġhav uzu
Ġyap mamÄ±z
og rafik
h az
Ġkonu lara
ĠiÃ§ ini
Ġed erseniz
c insel
Ġal masÄ±nÄ±
Ġmal um
Ġvar ol
ĠN amaz
or oloji
gun luk
Ġbirbir leriyle
ĠÄ±s Ä±r
S ah
Ġte masÄ±
Ġparamet r
Ġolan a
ĠHal buki
Ġverm ekte
Ġmo tif
af et
Ġkullan acak
ĠVÃ¼c ut
Ġmin net
l op
ĠBey koz
ret tin
ak Ã¢r
ĠkullanÄ±m Ä±nÄ±
8 4
ĠT UR
lÃ¼ÄŁ Ã¼n
Ġkolay dÄ±r
ĠDer in
ĠMet ro
Ġolay da
Ġistiyor lar
Ã¼k sel
ĠbÄ±rak tÄ±ÄŁÄ±
ĠP orno
Ġver eceÄŁiz
ĠgÃ¼r eÅŁ
Ġyer lerini
ĠOb ama
Ã¼b nan
ĠGay rimenkul
Ä°Åŀ TÄ°R
Ġs eg
ĠP akistan
ĠR en
Ġyaz Ä±mÄ±z
ĠAy n
Ġtut ma
for d
Ġsiz ce
ĠYaÄŁ mur
ĠfÄ±rsat larÄ±
ĠÃ§ev resel
s Ä±nÄ±n
y y
Ġk in
Ġkamu oyu
Ġisten meyen
ĠyÃ¼k lem
ĠLis e
Ġgit ar
ĠBan yo
b ih
ber al
ĠuÄŁ ra
ĠSat Ä±n
Ġhaz in
Ø ª
ĠV odafone
¸ ı
ada sÄ±
Ġliste de
ĠYet kili
ilm em
Ġsor mak
M Ã¼ÅŁt
ilendir me
P er
ĠY ozgat
ĠS efer
K AN
ĠEy lem
Ġgec enin
ary ak
ĠiÃ§erik li
ĠSiyas i
ĠFik ret
ĠKÃ¼r esel
ĠYat ak
ĠtÃ¼m Ã¼
M as
em ber
ĠsaÄŁ lamaya
Ġsen ary
Ġkor ur
ĠG iyim
Ġbelirlen miÅŁtir
Ä±ntÄ± lÄ±
Ġuygulan abilir
ĠsavaÅŁ a
p eri
Ġharc am
ĠÅŁarkÄ± larÄ±
ĠMil lÃ®
Ġverdi ÄŁim
Ġtak si
ĠbaÄŁÄ±m sÄ±zlÄ±k
Ġtap u
ĠÃ¶ bÃ¼r
ĠkonuÅŁ ulan
ĠAr asÄ±
Ġmark alar
Ġuzun luÄŁu
ĠD iler
ĠyaÅŁ Ä±nÄ±
Ġmon te
Ġproj eyi
anlÄ±ÄŁ Ä±n
ĠÅŁ em
ĠBil ecik
k es
Ġb aya
Ġspor tif
Ġmini bÃ¼s
Ġmu azzam
ĠÃĸz bek
Ġpuan la
ĠGel iÅŁim
ĠsaÄŁlan maktadÄ±r
ĠAl per
Ġkav ur
8 3
Ġoyun unda
ĠsÄ±r alama
Ġente gr
Ġan lamaya
Ġiz i
ĠgÃ¶rÃ¼ÅŁ lerini
ĠTer im
g on
Ġhav aliman
ĠY i
ĠLir asÄ±
Ġtercih i
ĠeÄŁitim leri
Ġek lendi
has sa
Ġalan Ä±nÄ±n
Ġproj elerin
Ġoran Ä±nÄ±
Ġedilir ken
ĠDil ek
Ġgelir se
Ġver ilecektir
ĠOto matik
Ġhav asÄ±
Ġislam i
ĠarkadaÅŁ larÄ±m
lan Ä±n
Amer ika
ĠEÄŁ len
Ġyap maz
ĠdÃ¼ÅŁÃ¼nc esi
ĠaÃ§ Ä±lÄ±ÅŁÄ±
ĠEr c
miÅŁ lerdir
lama dan
Ġh uy
Ġul uslar
Ġun suru
Ġaz a
ĠKar arÄ±
ĠbÃ¶ lÃ¼
Ġrak ibi
ĠkiÅŁiler de
ĠdaÄŁ Ä±n
Ġtut tu
Ġmodel ini
ĠBul uÅŁ
ĠbaÅŁk anlÄ±ÄŁÄ±
ĠsÃ¼r ek
ĠGÃ¼Ã§ lÃ¼
Ġtesis leri
ĠHÃ¼kÃ¼m eti
ĠsÄ±r aya
ĠÅŁaÅŁÄ±r t
T an
Ġkul Ã¼bÃ¼
iÅŁ kin
ĠN a
M ed
Ġbelg elerin
ĠÃ¶rgÃ¼t leri
Ġs oÄŁu
Ġ19 70
iz me
ĠbaÅŁ larÄ±nda
ĠaÃ§ mÄ±ÅŁ
ĠS ap
ĠKem er
Ġg o
GerÃ§ ek
ĠÃ¶nc esine
yon u
ÅŁ an
ĠA F
ĠÅŁey lerden
Ġsun maya
ĠsÃ¼r esini
ĠkarÅŁÄ±laÅŁt Ä±ÄŁ
ust ur
ĠyaÅŁ larda
ĠkuÅŁ kusuz
ĠÅŁark Ä±sÄ±
ĠM asa
ĠkullanÄ±m Ä±nÄ±n
U P
s Ã¼nÃ¼z
] ,
ĠaralÄ±k larla
var yum
Ġcihaz Ä±n
Ġh om
ĠKam er
Ã§ am
Ġk alarak
ĠÃĸn er
Ġkaybet tiÄŁi
Ġh amam
ĠtanÄ±n mÄ±ÅŁ
Bir Ã§ok
ĠteÅŁeb bÃ¼s
ĠBir likte
ĠBos na
ĠSan ki
Ä±k lÄ±k
b urt
el iyat
ĠiÅŁlet mec
Al tÄ±n
Ġrenk te
ĠKo operatif
ĠyÃ¼rÃ¼ttÃ¼ ÄŁÃ¼
ĠF ener
ĠvatandaÅŁ larÄ±
ĠH aÅŁ
Ġsen esinde
ĠbÃ¼yÃ¼k lÃ¼ÄŁÃ¼
Ã¼n t
Ġe ÄŁr
ĠÃ§alÄ±ÅŁ mÄ±ÅŁ
ĠÃĸn Ã¼mÃ¼zdeki
Ġkullan manÄ±z
Ah met
Ġolur um
ĠG EL
os unun
Ġunut ul
asyon lar
n y
Ġat Ä±ldÄ±
T aÅŁ
ĠÃ§Ä±k tÄ±k
Ġp eki
Ġtak tik
Ġip uÃ§
ĠgÃ¼n delik
ĠeÄŁitim ler
iz ler
B D
Ġob ez
Ġaleyh ine
Ġoyn ar
av gat
Ġsen de
Ġkay a
ĠyakÄ±n larÄ±nda
Ġbelir ler
Ġkr it
l s
Ġhas ret
Ġpil av
Ġz Ä±rh
ĠFransÄ±z ca
ĠR Ã¼z
ĠÃ¼lk edeki
ĠgenÃ§ lere
Ġzevk li
K urum
ĠHakk ari
Ã¼l in
ĠTur nuv
Ġzorun luluÄŁu
ĠÃĩalÄ±ÅŁ an
nam esi
Ġs adÄ±k
Ġuy ruklu
Ġrisk li
Ġtak lit
Ġpar maÄŁ
Ġail elerin
Ġfelsef e
it leri
Ġs ultan
ĠtanÄ±t Ä±mÄ±
aliz min
est ezi
ĠBugÃ¼n e
ĠkeÅŁ ke
ilm esiyle
Ġter im
S aÃ§
Ġgit meye
Ġazal ma
8 7
Ġkar Ä±
em eyiz
ĠtartÄ±ÅŁ malar
Ġsertif ika
m ekteyiz
ĠiÃ§ ki
Ġr eg
ot t
Ġyarat tÄ±
ĠsÃ¶z lÃ¼k
ĠkÄ±v am
ĠaÃ§ acak
ĠgÃ¶z lÃ¼k
pek tif
Ġkur utma
ĠGelen eksel
op a
Ġparla men
Ġyak Ä±ÅŁÄ±klÄ±
Ġpar alar
v ri
Ġ ur
am m
lÃ¼ÄŁ Ã¼nÃ¼n
Ġnot er
Ġcin s
Ġal maz
ĠdavranÄ±ÅŁ larÄ±
ĠMic hael
Ġinan an
ĠeÅŁy alarÄ±
ĠO lu
emiz den
ĠSon y
Ġk l
ĠÃĸz er
ĠJ ack
Ġdes tan
ĠbaÅŁlangÄ± c
ĠSev gi
ĠTEK N
ĠU s
ĠD ay
Ġk lip
ĠtaÅŁÄ± dÄ±ÄŁÄ±
ĠSur esi
len meye
Ġc ek
Ġgider leri
Ġgece de
ï ¸ı
Ġkur muÅŁ
Haber ler
Ġ umu
ĠN am
U Y
ĠSay gÄ±
ĠOl dukÃ§a
Ġtep kiler
ĠÃ¶ ksÃ¼r
Ġl in
ĠDÃ¼ÅŁ Ã¼n
ĠH enÃ¼z
Ġiktid ara
ĠyoÄŁun luÄŁu
ĠolacaÄŁ Ä±m
ĠhastalÄ±k larÄ±n
ĠG am
ĠL av
nin g
Ġhip er
Ġkamuoy una
Ġsek ret
ĠfÄ± st
ĠgÃ¼c Ã¼nÃ¼n
ĠgeliÅŁtir diÄŁi
Ġkayn at
ĠBur adaki
ĠacÄ± masÄ±z
ĠulaÅŁ abilir
Ġuzak lÄ±kta
Ġ ï¿½ï¿½
Ġkuy ruk
ĠAn lam
Kat egor
ĠihtiyaÃ§ larÄ±na
ĠCoÅŁ kun
ĠMillet vekil
Ġtarz da
Ä±n t
im deki
ĠKo du
G Ã¶k
ut e
S I
Ġhak larÄ±nÄ±n
ĠKole ji
ĠVol kan
ĠD izi
Ġmah rum
Ġt witter
Ġ Ã¼ÅŁ
Ġc is
ĠDeÄŁer lendir
Ġhaz ret
ĠsarÄ±m sak
N eden
Ġp Ã¼sk
EM Ä°R
ĠNev ÅŁehir
M alatya
ĠArda han
Ġoluyor du
Ġkarar Ä±yla
Ġp ansiyon
Ġf oto
ĠhoÅŁ uma
Ġy ou
Ġhesab Ä±nÄ±
Ġheyecan la
ĠFran k
iy la
Ġgetir dik
Ġuzman larÄ±
ĠTip i
Ġhav lu
Ġg azÄ±
ĠU SD
T ÃľRK
ap on
ĠAllah Ã¼
Ġm usun
al Ä±yÄ±z
Ġr ent
ĠyÄ±k Ä±m
ĠV ur
ĠyetiÅŁ en
d Ã¶
Ġgel meden
Ġetkinlik te
rop ol
. ''
Ġgir dim
Ġkelim eleri
Ä±l dÄ±ktan
Ġetk ilerini
ĠdeÄŁer lerini
m Ä±yoruz
Ù ı
Ġdur du
Ġkap anÄ±ÅŁ
ĠM az
Ġev inin
ĠB isiklet
Ġdin lemek
ĠkullanÄ±l mak
Ġgal er
ĠCem il
ĠvatandaÅŁ larÄ±mÄ±zÄ±n
ĠduruÅŁ u
ĠÃ§ek iliÅŁ
Ġi br
diler de
ĠDur sun
ĠHay al
ĠMuh asebe
Ġhediy eler
ĠE V
Ġfant ez
Ġgiz lilik
m ark
ĠÃ§at lak
g ay
ĠHay dar
oz isyon
bey li
or du
Ġkut up
ti dar
ĠSev gili
Ġdurum unun
M ersin
ĠDemok ratik
Ġaley hi
ĠiÅŁÃ§ inin
Ġkav r
ĠAÄŁ aÃ§
ĠÃ ®
ĠyÃ¼k Ã¼
Ġter eddÃ¼t
Ġitibar i
9 2
M et
ĠE p
ĠTeh lik
we et
ĠÅŁaÅŁÄ±r tÄ±cÄ±
ĠI stanbul
Y et
Ġgid ilir
r iye
Ġnez dinde
ĠhoÅŁ gÃ¶r
ĠR Ã¼yada
ĠÃ§ocuk larÄ±nÄ±
d Ã¶rt
eg a
ĠList esi
ĠÃ§alÄ±ÅŁ acaÄŁÄ±z
ist im
Ġ3 60
ĠÃ§ek imi
à ¤
Ġolay lara
larÄ±nÄ±z dan
Ġhaber e
ĠalÄ±nacak tÄ±r
ĠyÄ±p ran
Ġbulun abilir
ĠAkÅŁ ener
ĠEr oÄŁlu
R A
Ø ¯
Ã§ eli
Ġser ver
Ġkal mÄ±yor
ĠkuÅŁ at
Ġetm ektir
ĠBel li
Ġdur mak
ĠdÃ¶n mesi
Ġgrub unun
Ġd iÅŁi
Ġoda da
ĠÅŁart larÄ±na
B ank
Ġpaz arÄ±
A c
Ġaz iz
Ġhesap lama
Ġver miÅŁti
ĠTes ti
ĠMaÄŁ az
k Ä±rÄ±m
ĠdÃ¼ÅŁ kÃ¼n
Ġmezh ep
Ġtasar lanmÄ±ÅŁtÄ±r
Ã½n Ã½n
Ġbun larla
Ä±c Ä±nÄ±n
ĠEm ine
ĠEr iÅŁim
Ġhedef liyor
g em
Y an
ĠKat ar
ĠyÄ±l lardan
Ġgecik me
ĠM EB
ArkadaÅŁ lar
ĠgÃ¼r Ã¼ltÃ¼
ĠF ord
ĠTerc ih
ĠKol larÄ±
an am
C A
st at
s n
ĠseÃ§enek ler
Ġtop luluÄŁ
Ġt orb
Ġ ine
Ġ13 0
Ġincel emek
ĠoluÅŁtur du
ev r
Ġ \
ic inin
il ar
Ġtoz u
ĠÃ¶ teki
ĠSon unda
Ġyap acaÄŁ
Ġpek iÅŁtir
Ġz eki
ĠÃ§ocuk larÄ±na
Ġdik iÅŁ
Diy arbakÄ±r
Ĥ ¬
ĠE D
ĠV ah
ĠBir i
Ġsev erler
Ã Ń
as tÄ±r
ĠÃ¶r n
Ġelem ent
ĠC insel
Ġorta okul
ĠyapÄ±lab ilecek
ĠgÃ¶m lek
ĠarkadaÅŁ larÄ±mÄ±z
Ġbirbir lerini
Ðµ n
ĠHerk esin
Ġp orn
ĠS om
ĠYayÄ±n evi
ĠkoÅŁ u
Ġmut luluÄŁu
Ġhareket ler
ĠMer al
Ġters i
Ġsit esini
ĠY edek
Ġtasarruf u
Ġp ot
Ġsevgil isi
Ġtehlik eye
allah u
Ġfi dan
ist lerin
ĠgÃ¼zel di
YukarÄ± da
P eygamber
Ġkap aÄŁÄ±
Ġay Ä±p
Ġdalg alan
Ġtut up
Ġyap abilmek
Ä±k Ã§Ä±
ĠH adi
Ġotel ler
D in
Ġve f
Ġverm edi
ĠS ib
s iyesi
ĠÅŀ Ä±rnak
Ġgiy dir
ĠiÅŁ lerde
Ġnis p
ĠBÃ¶lg esinde
Ġtah rik
Ġdiyor du
ĠA tÄ±k
Ġ {
ĠB O
ĠBÃ¼r o
Ġbay raÄŁÄ±
dÄ±r Ä±cÄ±
ĠY em
ĠkarÅŁ Ä±nÄ±zda
abil iyoruz
ĠmÃ¼n aseb
ĠG roup
Ġz af
ĠÃ¼z Ã¼ntÃ¼
Ġgider ilmesi
ĠgÃ¶nder mek
t atÃ¶r
ĠsÄ±kÄ±ntÄ± lÄ±
Ġinan Ä±yoruz
Ġbit im
ĠTan r
eti ÄŁi
ĠO HAL
ĠolduÄŁ unca
Ġgetir meye
ĠbÃ¶lg eyi
Ġkrip to
ĠmÃ¼cadel enin
ĠpaylaÅŁtÄ± ÄŁÄ±
ĠbaÅŁar an
ï½ ±
ĠdÄ±ÅŁarÄ± ya
Ġin iÅŁ
Ġel lerine
Ġnak il
ĠBilim sel
Ġsat mak
Ġisim lerin
Ġek lenen
Ġy edik
Ġiy isini
ĠT HY
ĠÅŁirket lerinin
Ġkat led
ĠAy lÄ±k
o lasyon
ĠT Ä±bbi
v iÅŁ
Ġf ol
ĠAs lÄ±
ik ar
Ġzorunda yÄ±z
ĠGel ecek
Ġann esinin
Ġbulun duÄŁumuz
Ġheyec anÄ±
Ġn ehir
ĠÅŁart tÄ±r
Ġhukuk u
Ġpolis in
Ġiktid arÄ±
ĠSendik asÄ±
ĠO ran
ĠC eb
ĠC oÄŁraf
Ġfikir leri
ĠS AN
ĠPen dik
ledi ÄŁimiz
ar larÄ±
ĠBoÄŁaz iÃ§i
Ġot or
b le
Ġcid d
Ġyorgun luk
ĠLef koÅŁa
Ġkon gre
ĠGenel de
av at
Ġkullan dÄ±m
B or
Ġkonu larÄ±n
Ġsorun unu
Ġelem anlarÄ±
ul us
Ġyer lerine
Ġincel endi
ĠtakÄ±m Ä±nÄ±n
k am
ĠSayf ada
ĠetkileÅŁ im
Ġc eket
Ġalan Ä±nÄ±
Ã¼nÃ¼z de
Ġ7 3
ĠiÅŁlem lerinde
T B
aryak Ä±t
ĠsaÄŁ layÄ±cÄ±
Ġirtib ata
ĠMad en
F E
Ġtut maya
ĠmÃ¼zak ere
h oÅŁ
S oru
l uyorum
Ġsev erim
ĠÅŁik Ã¢yet
ĠGerek li
Ġyar Ä±da
ERK EZ
w a
en ni
Ġkamer alÄ±
ĠL it
ĠbaÅŁlat Ä±ldÄ±
Ġyay Ä±lan
ĠCey lan
Ġ16 0
ĠGÃ¶rÃ¼n tÃ¼
e a
roÅŁ Ã¼r
ĠY ayla
Ġ7 4
ĠsÃ¶zleÅŁ meli
Ġs per
ĠyansÄ± tan
& #
an Ä±za
ĠkiÅŁiler den
ĠJ ames
ĠÃ§alÄ±ÅŁan larÄ±nÄ±n
ĠbeÅŁ inci
Mil let
eb elik
Ġdal Ä±nda
ĠoluÅŁ masÄ±
ĠgÃ¶r eceÄŁiz
ele ÅŁtir
ĠiÅŁ ver
ĠHazÄ±r lÄ±k
Ġkaybet miÅŁ
Ġaf f
avan taj
ĠaralÄ±ÄŁ Ä±nda
ben im
inde dir
ĠÅŁey dir
ĠkÃ¶y de
Ġtest leri
ĠTiyatro su
Ã¢ f
ĠgerÃ§ekleÅŁ mesi
ĠDeÄŁ iÅŁim
ĠMar ÅŁÄ±
Ð° r
d iz
b is
ĠÃ§ek meye
Ġkalk Ä±p
Ġk Ã¼s
ĠP rens
Ġkapasit eli
I s
ĠbaÅŁlan gÄ±cÄ±
ĠkarÅŁÄ±lÄ±ÄŁ Ä±nÄ±
Ġsey red
ĠsÃ¼r dÃ¼ÄŁÃ¼
illi am
Ġtut tur
ĠulaÅŁ mÄ±ÅŁ
Ġmodel lerini
Ġtamam lanan
tÄ±ÄŁ Ä±nÄ±zda
ĠZirv esi
ĠA lacak
Ġkim ler
Ġkoru maya
ĠOrgan izasyon
ĠMer t
Ġt rak
ĠÃ§Ä±kar Ä±yor
N ET
Ġekonom isine
ĠG ÃĸR
Ġtut ulur
ĠÃ§alÄ±ÅŁ Ä±yorlar
Ġsat Ä±m
ĠborÃ§ lu
Ġb ini
op ol
ab le
Ġalan daki
ĠyÃ¶n Ã¼yle
ilm emiÅŁ
Ġperiy odik
Ġtekrar dan
Ġyaz Ä±lÄ±r
ĠS izi
Ãľn lÃ¼
Ġol unan
Ġolas Ä±lÄ±ÄŁÄ±
ĠÃ§ in
Ġtop layan
Ġfirmalar a
ab ildiÄŁi
Ġsun uldu
ĠdÃ¼ÅŁÃ¼nc elerini
Ä±nc aya
Ġistis na
ĠHizmet i
Ġtal ih
ĠÃ¼rÃ¼n lere
Ġt Ã¼c
Ġc ahil
Ġdo larÄ±
S ize
GÃ¼n ey
ĠP S
ĠyaÅŁÄ±nda yÄ±m
Ġkullan dÄ±ÄŁÄ±nÄ±z
Ġeylem i
ĠyayÄ±n ladÄ±ÄŁÄ±
ĠS ER
s ol
Ġk emi
eler deki
ĠD V
k az
ĠEnd Ã¼stri
S Ä±r
Ġel lerinde
ĠtÃ¼n el
ard o
ĠÃ¼y elerin
ĠYap Ä±mÄ±
c em
ĠÅŁey lere
Ġay aÄŁ
AS IN
ĠpaylaÅŁ Ä±mÄ±
Ġbenz eyen
ĠtasarÄ±m lar
Ġkan unun
ek in
ĠseÃ§ eneÄŁini
Ġor adaki
ĠÃĩ iÄŁ
ĠOn ay
ik asyon
ĠS ON
ĠgeÃ§ im
g Ä±z
ad il
ĠM eksika
Ġv il
anlÄ±ÄŁ a
Ġkoordin asyon
Ġbol ca
r arÄ±
Ġvur an
Ġmotor lu
Ġkarar Ä±na
Ġsun uyorum
Ġtedbir ler
ĠSel ahattin
Ġed ine
Ġkonu ma
tr af
q q
oksi dan
ĠiP ad
Ġmiktar Ä±nÄ±
Ġeklen miÅŁtir
ĠE reÄŁli
ĠM Ã¼r
ay ip
Ġgir meye
ĠÃ¶ÄŁretmen lerin
ĠdÃ¼zen lenmiÅŁ
ef f
Ġtelefon un
Ġfot ok
ĠbahÃ§ esinde
Ġkud ret
ĠyaÅŁ Ä±yorum
ĠKom bi
Ġbask Ä±sÄ±
Ġtah r
d om
ĠT ec
ĠgÃ¼z eli
Ġsefer inde
s y
ide o
tÃ¼ el
Ġrek ab
K Ã¼r
ĠAl tay
ĠfarklÄ± lÄ±klar
ok sit
Ġdil de
Ġpart ilerin
C en
Ġc ay
Ġteh di
ĠyaklaÅŁ Ä±mÄ±
Ġgetir miÅŁtir
Ġ aman
ĠgerÃ§ek lik
ĠSoy lu
Ġhayvan cÄ±lÄ±k
ĠmÃ¼t ev
Y unan
ĠartÄ±r Ä±lmasÄ±
ĠÃ§Ä± tÄ±r
Ġport akal
ĠÅŁarkÄ± lar
ĠÄ°t hal
edir gin
ĠV ic
ĠgÃ¼neÅŁ in
Ġbin alar
Ġdil iyoruz
ĠkonuÅŁ masÄ±
ĠP or
Ġdin lenme
T urk
ĠbÃ¶lg eleri
enek on
Ġbitir di
ĠS TK
ĠL ider
ĠdÃ¼ÅŁÃ¼n dÃ¼r
u al
ĠK AL
Ġduygu lar
ĠKim lik
maya caÄŁÄ±
Gazi antep
lam Ä±yorum
ĠtanÄ±m lanan
ĠpaylaÅŁ an
Ġmillet imizin
c en
Ġkal Ã§
Ġann enin
Ġtem s
ĠG lobal
Ġgel diniz
f in
Ġbek lediÄŁi
ĠiÅŁlem inin
ĠDeniz cilik
Ġam bar
ar aya
Ġkap Ä±yÄ±
Ġorta ma
ant el
ĠmÃ¼l akat
Ġma m
iÅŁ ehir
Ġcez asÄ±na
S iyas
Ġoyun unu
ĠyÃ¶netic iler
meler inin
ada ÄŁ
oz an
Ġniyet li
Ġver ilere
Ġ24 0
Ġproblem ler
ĠGeÃ§ ici
n ce
Ġsoy ut
ĠB ektaÅŁ
on da
Ġey lÃ¼l
ĠEtkin lik
ĠkÄ±s alt
M AZ
Kon uÅŁ
ĠS erkan
len mesini
l iyesi
di gi
oz u
ĠtÃ¼m Ã¶r
Ġazal tÄ±r
Ġin kar
R Ã¼yada
ĠKaynak larÄ±
ĠM elek
Ġred de
Ġb Ä±k
Bak an
Ġkart larÄ±
ĠgeliÅŁim ini
D ik
Ġbas arak
laÅŁ Ä±r
ĠgÃ¶ster ebilir
ĠKon feransÄ±
oun d
lem esine
Ġgelen ler
Ġgib iydi
ĠÃ¼y eliÄŁi
ĠiliÅŁk ilerini
Ġnokta dan
anÄ± t
ĠAd li
Ġkork usu
ĠÅŁun lardÄ±r
ĠamaÃ§ layan
ih an
ĠdÃ¶n Ã¼ÅŁtÃ¼
ĠYas asÄ±
ĠayrÄ± lÄ±k
ĠDanÄ±ÅŁ man
Ġtamam lanmasÄ±
ĠfaktÃ¶r ler
C an
Ġedeb iliyor
iy ana
= =
Ġekip lerinin
ĠÅŁef kat
ĠHÄ±rist iyan
Ġdo wn
9 3
c ilere
Ġyol larla
LI ÄŀI
ĠN iÄŁde
ĠyÃ¶netim ine
ek lik
at er
Ġman ken
ĠMak ed
Ġkanal larÄ±
Ġduy dum
ĠulaÅŁ masÄ±
ĠÃ¼niversit esi
ĠÃ¶zel leÅŁtir
Ġyas aÄŁÄ±
Ġiler leme
Ã¼s Ã¼nden
Ġusul Ã¼
Ġ14 0
ĠaÄŁz Ä±na
ĠkÃ¶ÅŁ esinde
Ġaz gÄ±n
K Ã¼ltÃ¼r
rah man
Ġdikkat le
Ġbul maya
ĠÅŁ ut
ĠEndek si
Ġhal lerde
ayÄ±n dÄ±r
ĠuÄŁr ayan
Ġan Ä±t
ĠyÃ¶net meli
ĠkullanÄ±cÄ± larÄ±na
Ġyaz dÄ±k
ĠFiyat Ä±
Ġin stagram
Ã® r
ĠhÄ±zlÄ± ca
Ġot ele
ĠsÃ¼p Ã¼r
Ä°LÄ° ÄŀÄ°
ĠÃ§alÄ±ÅŁ anÄ±
ĠAda yÄ±
ĠF lor
Ġd Ã¼s
Koca eli
ĠoluÅŁ acak
P R
Ġdekor atif
d alar
Ġhast asÄ±
Ã¼le b
ï½± ï½±
om o
ĠsaldÄ±rÄ± ya
abÄ± ta
ĠOn dan
ĠK Ã¼b
idd eti
ĠOtom otiv
ĠÅŁirket inin
Y ok
Ġtelefon larÄ±
Ġmesle ÄŁi
tÄ±ÄŁ Ä±na
Ġkapas ite
9 7
ĠKal esi
Ġsev dim
Ġetm elisiniz
ĠB araj
Ġalan larÄ±na
Ġdav ada
ĠsÃ¼reÃ§ leri
ĠDeniz i
Ġbiliyor sunuz
ĠAb dur
ĠbÃ¶lg elere
ĠS i
azÄ± t
uv al
ĠdeÄŁer inin
Ġkoy muÅŁ
ĠGÃ¶r sel
Ġbir inden
ĠÃĸZ EL
Ġid daa
AS A
ĠAn Ä±t
Ġan ma
iyet in
Ġtalep lerini
ĠÃ§Ä±kar Ä±ldÄ±
Ġd alÄ±
Ġfonksiyon u
Ġsek ilde
ĠAn ahtar
b oy
abilm eleri
Ä± tÄ±
ĠvÃ¼cut ta
Ġiz lerken
Ġtad Ä±na
Ã ª
Ġy etim
eb ildi
n at
kÃ¼ ler
ĠTaraf Ä±ndan
K A
eh an
Ġor g
Ä±y Ä±l
Ġmahall esi
Ġpan ik
An asayfa
Ġal malarÄ±
Ġhus uslar
ĠsabÄ±r sÄ±z
Ġar amÄ±zda
Ġkula ÄŁ
ĠMarmar is
Ġbek ley
ĠKim se
ĠSoru larÄ±
Ġkullan dÄ±klarÄ±
ĠanlaÅŁ masÄ±
Ġ unu
Ġd uman
Ġayar larÄ±
uÅŁ ak
p on
k adir
R ad
ĠN ar
ĠÃ§ekir de
OB B
Ġsahib ine
Ġdo lab
Ġkaynak lardan
Ġvideo lar
klar eli
lili ÄŁin
Top lum
ĠBakanlÄ±ÄŁ Ä±nÄ±n
Ġt aÃ§
Ġyakal amak
Ġat anan
ĠP YD
Ġdurumda dÄ±r
Ġsaf h
ĠÃ§Ä±kar Ä±r
ĠAk ar
ĠDeÄŁ iÅŁ
Ġhak larÄ±na
Ġhayat larÄ±nÄ±
Ġiltih ap
" :
Ġgetir me
Ġmerkez de
g Ã¢h
Ġbilg ilerine
Ġziyaret Ã§iler
Ġizlen miÅŁtir
ĠK ing
Ġaktiv ite
Ġor da
ĠtÄ±kanÄ±k lÄ±ÄŁÄ±
Ġtaraf sÄ±z
Ġsar Ä±ÅŁÄ±n
Ġokuy un
Ġindir me
Ġ9 8
ĠaydÄ±n lÄ±k
r ep
Ġolabildi ÄŁince
af Ã¶r
ĠkaÃ§ aÄŁÄ±
raf t
ĠsaÄŁ lÄ±ÄŁÄ±na
Ġmetrekar elik
ĠÃ¼retim ini
g Ã¼zel
Ġsefer ber
D il
ĠmÃ¼ÅŁter ilerin
Ġizliyor sunuz
Ġhissed iyorum
Ġkal siyum
ĠÃĩ im
Ġgide b
Ġincelen mesi
la masÄ±na
ĠAh ÅŁap
ĠyapÄ± larÄ±n
V an
ob a
en Ã§
Ġbon usu
ĠC e
ĠÄ°ÅŁ in
ĠBur dur
Ġmark alarÄ±n
Ã¢ de
ĠO SB
GÃ¼n eÅŁ
Ġsonuc una
Ġtas dik
b Ã¶l
ĠD ah
ĠTÃľ BÄ°TAK
Ġul tr
ĠL am
ĠG Ãľ
ĠN us
v eti
ĠsÃ¼rÃ¼c Ã¼sÃ¼
ĠgÃ¶rÃ¼ntÃ¼l eme
Ġkonsan tr
Ä±m la
ĠAm eliyat
ad ok
miÅŁ ler
Ġyor ul
Ġanlam Ä±nÄ±
Ġres imli
ĠayÄ±r an
ĠUy gulan
ĠRoman ya
N asÄ±l
ĠyÃ¼z Ã¼k
ĠS iirt
Ġesn ada
ĠV ef
Ġhayvan larÄ±
ĠMÃ¼dÃ¼r lÃ¼k
ĠÅŁif a
ĠS iv
ĠZ am
Ã¢ let
Ġform unu
Ġalan larÄ±nÄ±n
Ġakl Ä±nÄ±za
Ġder se
Ġfiyat larÄ±nÄ±n
pr Ã¼
ĠsÄ±ÄŁ Ä±nma
ĠRob ert
ĠcÃ¼z dan
Ġin kÃ¢r
ĠÃ¼st lendiÄŁi
ĠgÃ¼ndem de
mas Ã½
ĠN is
ĠgerÃ§ek leri
ĠbÃ¶lg esinin
ĠÐ ¾
ĠÃ§il ingir
Ġnas il
Ġdiy enler
Ġbul duk
l ock
Ġduygu larÄ±nÄ±
viv or
Ġr utin
tÄ± lacak
Ġat maya
ĠFeder asyon
EN Ä°
ĠseÃ§im e
at h
å¤ ©
9 4
Ġverm iyor
ĠÃ§ek il
Ġuygulamalar Ä±n
Ġeden lerin
Ġetm esine
ĠsonuÃ§ lara
Ġseyir ci
Ġbank alarÄ±n
Ġist iÅŁ
crip t
iz de
ĠkonuÅŁ maya
Ġmanz ara
Ġ7 1
ĠS Ã¼m
Ġyap masÄ±nÄ±
ĠGÃ¼r cistan
Ġgereken ler
Ġesk ort
ĠhÃ¢l inde
ĠF rag
ĠbaÅŁvuru lar
ĠF it
p ol
em iyoruz
el iyim
Ġc Ä±k
ĠAbdÃ¼l ham
Ġed ersiniz
ĠDep o
ec ilerin
ĠsaÄŁla mÄ±ÅŁ
r ab
Ġisteyen lere
ĠH id
ĠY emen
ÅŁt a
ĠgerÃ§ ekte
ĠE S
Ã§ ocuk
Yak Ä±n
Ġuygulama da
saÄŁ lÄ±ÄŁÄ±
ĠÅŁ erif
Ġtan Ä±yan
ĠFeth iye
bah is
ĠiÅŁlem ci
ĠOl du
Ä±l masÄ±yla
uk atÄ±
ĠS et
ib il
ĠY outube
Ġlan et
ĠC lub
Fran sa
la mÄ±ÅŁtÄ±r
Ġoku duÄŁum
Ġp ers
Ġyar al
Ġ9 6
SÄ° AD
ĠÅŁekil lerde
Ġrehber lik
Ġhav ale
Ġterc Ã¼m
mektedir ler
ĠL ink
ĠsaÄŁ anak
Ġas lÄ±
kap Ä±
ĠdeÄŁer inde
ĠkÄ±z larÄ±
ĠkiÅŁiler le
Ġh usu
Ġlev h
ĠÃ§ar ÅŁ
ĠTes pit
ĠBaÅŁkanlÄ±ÄŁ Ä±na
Ġas il
ĠAr ÅŁiv
ez on
b ilim
ĠYÃ¼z de
Cev ap
ĠB ina
ĠMal zeme
Ġbayan larÄ±n
Ġ8 2
Ġgit mesi
Ġver ilerek
Ġan ten
n az
ĠT una
Ġyap Ä±lacaÄŁÄ±nÄ±
ĠÃĩ Ä±nar
ĠgÃ¶r ebilmek
Ġuzak ta
anÄ±z Ä±n
ad is
ĠAk tif
ĠgÃ¶r kem
ĠÅŀen ol
Ġo lamaya
re dat
sin ler
ĠKesin likle
omet rik
Ġgeliyor du
ĠbaÅŁk asÄ±
lÃ¢ k
ĠyayÄ±m landÄ±
Ġderec esi
ĠkÄ±sm Ä±ndan
Ġhav anÄ±n
ĠMak yaj
ĠÃ¶de mesi
ĠiÅŁlet melerin
es an
Ġkut lu
Ġkay dÄ±r
Ġ199 1
ĠgÃ¼ven c
Ġgerek ebilir
ed isi
Ä±m Ä±nÄ±
ĠEn ver
ĠgÃ¶rÃ¼n Ã¼ÅŁ
Ġdetay lara
ĠB ut
ĠB ig
ĠseÃ§ me
ĠÃ¶ÄŁr enin
Ġfaaliyet lerinin
ĠAÅŁaÄŁÄ± da
ĠU st
Ġmalzem elerin
ĠbaÅŁ layÄ±n
ĠSan Ä±rÄ±m
ĠaralÄ±k sÄ±z
Ġsor gulan
Ġkom edi
ĠÃ¶ÄŁren dik
p ati
ch er
ĠYÃ¼r Ã¼t
a ge
t Ã½r
ĠÃ§Ä±k aracak
ĠÃ§or ap
y etler
Ġbit er
Ġt edirgin
200 3
Ġetmek le
ib r
ĠetmiÅŁ lerdir
Y en
Ġbir e
ĠK ale
ĠT ir
Ä°l Ã§
an sta
H akk
ede cek
ĠdÄ±ÅŁ a
Ġsebep ten
t Ã¼m
Ġmuhat ap
Ġbirinc isi
H at
ĠgeÃ§miÅŁ e
Ġs uyla
ĠG i
od y
Ã» n
Ġgezeg en
ĠbileÅŁ en
OR U
Ġyar Ä±sÄ±nÄ±
cÄ± lara
Ġtoplam Ä±
Ġalg Ä±la
Ġm art
uv arÄ±
Ġ lah
ĠEs ad
ĠT ef
Ġdakik alar
rol ik
Ġal etleri
Ġ8 8
ĠM ana
Ġtan r
ul i
ĠM uz
Ġkap tÄ±r
ĠdÃ¼ÅŁÃ¼n me
Ä±y o
ĠyerleÅŁtir me
Ġantren Ã¶r
at aÅŁ
T e
ĠKÃ¶ pek
Ġyaz Ä±mda
Ġh ibe
Ñģ ÑĤ
c inin
ĠÃ¶z eti
Ġ19 50
an ne
Ġtur lar
Ġb unda
D S
g et
ĠgÃ¶nder me
G er
Ġdol gu
Ġara ca
ey elim
ĠØ§ ÙĦ
H ava
Ġaz ami
Ġf ut
Ġmerkez inin
m eyle
ĠL Ã¼bnan
ĠmÃ¼j de
ot al
Ãĸn ce
ĠkÄ±ÅŁ Ä±n
ĠbÄ±rak Ä±ldÄ±
ĠkazandÄ±r an
Ġgol Ã¼
ĠS emin
Ġf are
Fa cebook
Ġtem muz
eyece ÄŁim
ĠMon taj
Ġbec eri
Ġsanat sal
ĠÃ¶n lenmesi
Åŀ ehir
Ġbeklent ileri
Ì ĩ
ĠD iv
emez siniz
Ġate ÅŁte
Ġyans Ä±m
Ġd eki
amaz sÄ±nÄ±z
Ġsin dirim
ĠYukarÄ± da
Ġm iydi
ĠgerÃ§ekleÅŁ ir
ĠPeygamber imiz
Ð° n
ĠAmaÃ§ lÄ±
ĠKaz akistan
Ġ> >
Ġsilin dir
ĠgÃ¶rev lerini
Ġanlam sÄ±z
A m
ĠBaÅŁ ta
Ġziyaret e
ĠOyun lar
ĠYou Tube
ĠÃ¶r tÃ¼
ĠgerÃ§ekleÅŁtir ebilirsiniz
Ġkabil iyet
ĠseÃ§im inde
ĠÃ¶ÄŁrenc iye
Ġiktidar Ä±n
Ġfikir ler
ĠBÃ¶lg esel
at al
ĠoÄŁ ul
ĠTe Ã¢lÃ¢
ĠÃ§ik olat
d Ã¼ÅŁ
larÄ± ma
Ġortala masÄ±
F il
Ġ17 0
Ã¶ mer
Ġinternet e
ĠÃ¶ner isi
ĠEndÃ¼str iyel
ĠÄ° K
ĠBir imi
ĠBur aya
eyece ÄŁi
eg as
ĠSah il
Ġyaz Ä±sÄ±nda
ĠP TT
ĠyoÄŁ ur
Ġma v
ĠiÃ§er iyor
Ġsorun larÄ±na
ĠkarÅŁÄ±la yacak
Ġum ur
el ekt
Ġseviy esini
Ġbirbir iyle
Ġhay ret
ir siniz
Ġdosy asÄ±nÄ±
ladÄ± lar
ĠSar Ä±yer
in ek
Ġkon us
Ġsev diÄŁiniz
Ġtah akk
An ne
as u
Ġbak Ä±ma
os h
ĠK AP
ĠL eyla
ĠaÃ§ Ä±lÄ±yor
ĠR ic
lenir ken
ĠgÃ¼Ã§ ler
Ġg azi
S akarya
Ġhedef ler
Ġkilo gram
ĠhazÄ±rlan Ä±r
ĠeÅŁit lik
Ġmensup larÄ±
? ,
ma dÄ±k
ĠuÃ§ aÄŁÄ±
Ġgelin lik
ĠgÃ¶rmez den
ĠkÄ±lÄ± f
K ab
ĠmÃ¼tte fik
Ġoda ya
Ġlider lik
ĠY anlÄ±ÅŁ
ĠeÅŁ im
ĠgeÃ§ miÅŁtir
Ġcil din
Ġhoc alar
len ip
ĠÃľ mraniye
Ġisim lerinden
ĠyerleÅŁ ik
Ä±z da
ĠTr av
ĠfÄ±kr asÄ±nÄ±n
ĠaÃ§Ä±kla masÄ±nÄ±
ĠL G
ĠyÃ¶r esel
Ġs ulan
Bilg isayar
ĠtaÅŁ eron
pt om
ĠKÄ±y asla
Ġverilm esini
Sel am
Ġreng ini
BÃ¶l g
r usu
Ã§Ä± larÄ±n
Ġt onu
Ġin di
ĠR ahat
Ġboya ma
ĠiÅŁÃ§ ilik
Ġmakal emizde
ĠY ÃĸK
Ġmac era
Ġhakk Ä±nÄ±n
Ġelem anÄ±
ĠsaldÄ±r Ä±da
Ġz a
Ġr ahim
ĠkarÅŁ Ä±sÄ±ndaki
E x
Ġgrup ta
Ġkapsam Ä±
A pple
II I
amaya caÄŁÄ±
am Ä±yoruz
ĠN ehri
Ġolabilir ler
Ġyol unun
ĠiÃ§ mek
ĠHaf t
liÄŁ imiz
Ter Ã¶r
ĠS tu
H Ã¼kÃ¼m
n eti
Ġc ildi
Ġdin lendir
ĠFel sef
Ġilgilen en
c y
Ġko st
Ġtab el
Ġaktar mak
Ġv illa
ĠgeÃ§ tikten
Ġm iyiz
ĠÃĸ calan
ĠM U
ul um
ark adaÅŁ
W indows
ĠA pp
ĠM eÅŁ
ĠmÃ¼cadel eyi
Ġkur maya
ĠForm u
Ġsay Ä±sal
b esi
Ġay akkab
dÄ±ÄŁ Ä±nÄ±zÄ±
Ġdestek lemek
ĠG Ã¼
Ġuygu lamalÄ±
Ġ15 00
ed ilen
ĠÅŀÃ¼k rÃ¼
Ġder gisi
Ġdin leme
T ER
ĠBaÅŁ langÄ±Ã§
leriniz le
Ġtes ettÃ¼r
ĠÃ¶lÃ¼m Ã¼ne
ĠdÃ¶n g
s or
ĠelveriÅŁ li
Ġbah Ã§esi
Ġen g
ht ml
ĠMe alleri
ĠÄ°z zet
Ġkategor ide
ĠkÄ±s Ä±r
ĠDetay lÄ±
ĠdeÄŁerlendir mesi
ĠkÄ±r Ä±l
Ġdiz isinin
Ġbel gelen
ĠEvren sel
D en
Ġkontrol lÃ¼
ad o
Ġkarbon hidrat
ĠBar celona
ĠÃ¶dÃ¼l Ã¼nÃ¼
Ġduy mak
a ce
Ġdondur ma
eyz aj
Ġsit eyi
ĠÃ§erÃ§ev e
ĠyÃ¶net tiÄŁi
ĠMev lana
ic rosoft
n al
Ġc umartesi
Ġbelirt ilmiÅŁtir
ĠdÃ¶nÃ¼ÅŁ Ã¼
Ġolab ilece
ĠAl Ä±nan
Ġirtib at
ĠIn ternational
ĠÄ°z lediÄŁiniz
Ġgel diler
Ġmem lek
Ġak ar
iy es
ĠEngel liler
Ġvar mÄ±
ĠkullanÄ±l maya
ĠHava alanÄ±
ĠyaklaÅŁ an
ĠÄ°n c
Ġifad eler
AL AR
Ġvah ÅŁi
Ġ20 23
uru cu
ĠbuluÅŁ ma
Ãĩ anakkale
Ġgelece ÄŁin
Ġincelem elerde
Ġfed akar
Ġkat alog
Ġel imden
at on
k ele
T ah
D ar
Ã¢ z
h il
Ġot orit
ĠsÃ¼r Ã¼l
Ġarma ÄŁan
Ġ8 6
Ġsab un
lama yan
is te
alar i
ĠP az
K Ã¶y
Ar t
Ġsahn ede
Ġsandal ye
ĠÄ°ST ANBUL
Ġist ekli
ĠdoÄŁ anÄ±n
ĠK Ä±lav
da d
Ġsu lar
ĠdÃ¼ÅŁÃ¼nÃ¼yor sanÄ±z
Ġok uyor
cÄ± ÄŁ
ĠeÅŁ inin
ĠseÃ§ ip
ĠsÃ¶y le
ĠM S
siy er
Ġoyn ayacak
ĠTop luluÄŁu
Ġel lerinden
Ġduy uyor
K uzey
Ġintik al
ĠRad y
Ġkes imi
ĠgeliÅŁtir en
ĠsatÄ±ÅŁ larÄ±
ĠbÃ¶yl esine
ste in
b eÅŁ
Ġdil le
ĠTÃ¼ket ici
Ġgider mek
ĠT art
p res
Ġden emek
Ġkazan arak
ĠNÃ¼f us
ĠsÃ¼r at
ĠV ER
Ġan droid
Ġetm emiz
aÄŁ aÃ§
Ġseviy esinin
Ġkent te
ĠKilis esi
dÃ¼ ler
Ġtop lamak
ĠsÄ±r alar
ĠDeÄŁ il
ĠCem iyeti
ĠÃĸÄŁretmen liÄŁi
Ġay gÄ±t
Ġm ul
Ġd Ä±r
ĠM uÅŁ
Ġkan ama
ĠKor un
ĠmÃ¼sa ade
Ġab dest
U V
Ġde z
ĠD ivan
Ġsab aha
Ġkah verengi
ĠV el
ind ek
lem i
Ġhat larÄ±
Ġkolay lÄ±ÄŁÄ±
ĠÅŀ iddet
ĠÄ° li
ĠBir im
ĠyÃ¼kÃ¼m lÃ¼l
l ekli
Ġr us
ĠgiriÅŁim ci
Ġzorun luluk
ĠD ip
ĠsÃ¶ylen iyor
ĠpeÅŁ inden
Ġotomobil in
Ġar ar
ĠKend isine
Ġihrac atÄ±
Ġs iber
ĠmÃ¼z isyen
ĠH ur
ĠAfyon karahisar
ĠAÃ§Ä±k lamasÄ±
Ġkal Ä±b
DeÄŁ iÅŁik
ĠoluÅŁ muÅŁ
Ġsu st
Ġoyn amaya
gu e
g imiz
Ġart tÄ±ÄŁÄ±
ĠG rafik
ĠBaÅŁar Ä±lÄ±
ĠF onu
Ġt Ã¼z
ĠaltÄ±nda dÄ±r
Ġd om
ĠBaÅŁsav cÄ±lÄ±ÄŁÄ±
r ansÄ±z
Ġders in
z ade
ĠbaÅŁ layabilirsiniz
ĠAt illa
ĠR os
Ġyap t
ĠanlaÅŁ maya
ĠÃ¶den en
ĠÃ§Ä±kar maya
Ġnazar an
y r
Ġbu tik
I rak
ma ma
Ġtelefon lar
ĠYÃĸN ET
ĠYi ÄŁit
Ġver eceÄŁim
Ġn eyin
ĠErmen istan
E dinilen
ĠÃ¶nem e
] [
ĠgÃ¶rev ler
Ġger eÃ§
Ġgerek Ã§e
Ġbak tÄ±
ĠS w
ĠY PG
Ġder e
ĠD Ã¶k
ĠÃ¼Ã§ te
Ġokul larÄ±n
Ġyol suzluk
Ġstandart larÄ±
Ġhak lar
Ġn ev
Ġimzalan an
Ġr ok
Ġekib inin
O ÄŁ
Ġk uyu
Ġsu ik
isy enler
ĠÃ¼lk esinde
Ġbas Ä±na
ĠÅŁim diki
on al
las Ä±n
mÄ±z Ä±lÄ±
Ġf izy
Ġgid iyoruz
eler ce
ĠAm balaj
v arÄ±
ĠS ik
Ġtab l
ĠEski den
Ġpay laÅŁtÄ±ÄŁ
ĠsonuÃ§ larÄ±nÄ±n
Ġruh unu
Ġmet ot
lem eler
Ġyay Ä±nÄ±
Ġedin mek
ĠÃ§oÄŁun luk
ĠyaÅŁadÄ±k larÄ±nÄ±
ĠT M
Ġkur am
ĠL u
Ġs Ã¼tÃ¼n
Ġhat alarÄ±
ĠaÃ§Ä±k Ã§asÄ±
Ġko ÅŁt
Ġas ist
ĠkÄ± dem
ĠÃ¼st esinden
asÄ± ya
Ġanlat Ä±lan
E f
Ã½n dan
ers em
ĠÃ¶ÄŁretmen leri
ĠOlu ÅŁtur
Ġbur sa
ĠÃĩ eÅŁme
Ġs kan
ĠtanÄ± dÄ±k
Ġay na
Ġbilin ci
at ya
Ġsad akat
Ġtutar lÄ±
est el
Ġkut lama
Ġpres tij
Ġc anÄ±
ĠSov yet
ĠbeÄŁ endim
Ġbahset mek
ĠyÃ¶ntem le
Ġpar asÄ±nÄ±
Ġs n
ĠTuz la
Ġarka dan
ĠAl Ä±n
ĠHarit asÄ±
ĠM AK
ma maktadÄ±r
Ġkurul duÄŁu
ĠhazÄ±r lama
Ġhikay eleri
ĠO zan
ĠÅŁiir i
im arka
ĠDE AÅŀ
Ġtedbir leri
S ey
ĠBe dava
Ġs tÃ¼dyo
ĠyapÄ±m Ä±nda
yacak sÄ±nÄ±z
Ġsanat Ã§Ä±sÄ±
å ½
Ġid rak
lek si
Ġses le
g Ã¼cÃ¼
ĠDub laj
od yum
ĠO N
c is
Ġpar aya
Ġkaf e
Ġgir meden
Ġide olojik
Ġbil diÄŁim
Ġev lerine
Ġkazan acak
ĠEr dal
ac Ä±nÄ±n
Ġmet ni
ĠarkadaÅŁ Ä±mÄ±z
Ġhedef e
um dan
ĠtaÅŁÄ±n masÄ±
Ġok yan
maz on
ĠL ojistik
ĠÅŀ Ã¶yle
ĠÄ° kin
ĠÃ¶n Ã¼nden
de x
ĠbiÃ§im inde
ĠÃĩukur ova
Ġerkek lere
Ġ20 20
ĠP ower
ĠYaÅŁ lÄ±
ĠeÄŁitim ine
Ġy ed
Ġolma mÄ±ÅŁ
Ġyap mÄ±yor
ĠnÃ¼f usun
. ÂĶ
Ä±cÄ± lar
Ġah laki
Ġdiz el
ĠÐ ¿
ĠyapÄ±m cÄ±
ĠÅŁampiyon u
kir alik
ĠbÃ¶yl esi
Ġtur k
Ġkampany alarÄ±
ĠÃ§Ä±k masÄ±na
err y
Ġdikkat leri
ĠÃ¼lk elerinin
Ġistif ade
ĠÃ¶rgÃ¼tÃ¼n Ã¼n
Ġden gel
ĠbÄ±rak Ä±lan
ilm eleri
Ġpol isi
ĠOf isi
Ġbah an
Ġplan lÄ±
Ġz Ä±t
ĠTrans fer
Ġkullan Ä±ldÄ±
Ġv inÃ§
Ġun cu
Ġp e
ĠG Ã¼z
Ġdok Ã¼man
d Ã½r
Ġr est
il ince
h op
Ġk rom
Ġmo du
ĠAr jant
Ġsev gisi
IM I
Ġtehlik esi
ĠKurum larÄ±
ĠEg emen
ĠB artÄ±n
sc he
ĠdÃ¼zelt me
Ġkap Ä±sÄ±nÄ±
Ġbulacak sÄ±nÄ±z
Ġcihaz larÄ±n
ĠiÅŁle vi
Ġerkek lerde
Ã¼l ya
ĠB eh
ĠAk su
ĠaÃ§Ä±k lÄ±k
Ġkol esterol
Ġk Ä±lÄ±Ã§
ĠÃĸ Äŀ
ĠBaÄŁ lÄ±
Ġokul larÄ±
ĠbÃ¶lÃ¼m ler
ĠGÃ¼n leri
Ġmut ab
ĠDÃ¶nÃ¼ÅŁ Ã¼m
ĠAvrup alÄ±
Ġhav ayolu
Ġsan tim
Ġcevap larÄ±
G erek
Ġotur du
D I
Ġi Ã¾
ab inde
Ġt Ã¢
ĠyÃ¼rÃ¼r lÃ¼k
Ġzaman larÄ±n
GeÃ§ miÅŁ
Ġamac Ä±na
ĠC adde
Ġap ar
ĠsÄ±nÄ±r landÄ±r
ĠkarÅŁ Ä±lÄ±yor
Ġer dir
ĠCih an
Ġuygula dÄ±ÄŁÄ±
C om
ĠM ERKEZ
ĠÃ¼lk elerine
ĠOd alarÄ±
Ġsipar iÅŁi
meyece ÄŁini
Ġend eks
ĠfÄ±r tÄ±n
ĠiÅŁley iÅŁ
Ġtamam Ä±nÄ±n
ok u
ĠG R
ĠFilm in
mam Ä±
man lar
ĠHÃ¼k m
ĠkÄ±yafet leri
Ã§ ik
ĠDevlet in
Ġf eda
Ġtak s
Ġtemel ini
:) )
ĠS abancÄ±
Top lantÄ±
h el
ĠÃ§ap lÄ±
Ġkazan Ä±yor
Ġyarat Ä±yor
la dÄ±ÄŁÄ±nÄ±z
Ġp ud
ĠdÃ¼ÅŁÃ¼n Ã¼len
A ile
os it
Ġgir miÅŁtir
ĠTeÅŁkil at
Ġrej imi
ĠCerrah i
ĠY erli
B S
may arak
Ġbilir siniz
ĠdonanÄ±m lÄ±
ĠTeknoloj isi
ĠS ub
may Ä±z
ĠGÃ¶ ÄŁÃ¼s
Ġkadros una
emeyece ÄŁi
ore x
ĠDanÄ±ÅŁ tay
ĠgeÃ§ir miÅŁ
ĠbÃ¶lÃ¼m den
ĠMev lÃ¼t
Ġal abilmek
G C
ĠP i
ĠalÄ±n Ä±yor
ĠseÃ§im de
Ġtey it
ĠAnd re
ĠKÃ¶ tÃ¼
ĠÃ§ alan
ĠYar Ä±n
ĠSar Ä±k
ĠKÄ±r ÅŁehir
oÄŁ ullarÄ±
ĠÃ¶zellik lerinden
AL IK
Ġtelefon da
ĠgÃ¶ster isi
ĠDÃ¼ÅŁ Ã¼k
ĠHay atÄ±
Ġistin aden
Ġzengin lik
Ġmay Ä±s
Ã¼y dÃ¼
ĠÃľy eleri
ĠAkÄ±n cÄ±
ĠalÄ±n tÄ±
Ġihtimal le
ĠÃ¶ d
Ġort al
ĠiÅŁ lere
ĠgeÃ§ ersiz
Ġtekn i
ĠAk hisar
Ġmuam el
Ġgec elik
ĠDaÄŁÄ± tÄ±m
Ġyas tÄ±k
Ġpay daÅŁ
asyon larÄ±
ĠSt ore
ut a
ilm esinden
Ġkap tan
ĠS ing
ĠÃ§Ä±k masÄ±nÄ±
ĠÄ°ÅŁlem leri
Ġgrub una
Ġgetir ilir
as an
Ġdem iÅŁtir
ly wood
ĠAc aba
Ġkeyif le
ĠÃ¼retim e
Ġeklen t
Ġbat Ä±r
Ġbilg ilerinin
Ã¼ d
ĠAn laÅŁ
ĠyatÄ±r Ä±mÄ±
Ġel lerini
r iz
Ġj ener
Ġbit tikten
Ġfes h
h um
Ġsayg Ä±lÄ±
Ġev lerinde
Ġyapar Ä±m
ĠO v
9 1
Ġol alÄ±m
ĠkÃ¼ltÃ¼r Ã¼nÃ¼
ĠÃ¼Ã§ lÃ¼
Ġal dÄ±klarÄ±nÄ±
Ġar Ä±yorsanÄ±z
Ġneden se
ĠDer ne
æ ľ
Ġiz lemeye
Ġmillet e
ĠÃ§Ä±k mÄ±ÅŁtÄ±
Ä±mÄ±z daki
ĠgeliÅŁ mekte
du at
Ġhaber imizde
ÃĸÄŁr etmen
ĠadÄ±m larla
har d
ena ult
ar dÄ±
Ġ asÄ±
Ġdev asa
iy eleri
Ġnormal de
ĠgerÃ§ eÄŁe
Ġetap ta
ĠsaÄŁla masÄ±
ĠKullan Ä±mÄ±
Pro j
ĠÃĩ ub
ĠÅŀ ener
Ġelekt ro
ĠAn aliz
Ġfas ul
ĠgÃ¼Ã§ lerinin
ĠG ibi
Ã½ s
B eni
Ġyay Ä±na
ĠÃ¼st len
t ah
Ġses len
Ġdil ini
Ġsebeb iyet
Ġdokun uÅŁ
Ġbeklent isi
tal yaspor
Ġk ub
ĠkoÅŁul larÄ±na
Ġpolis e
Ġdam ga
ag s
Ġtem enni
ĠsÄ±nÄ±r larÄ±nÄ±
Ġek lenir
Ġbur ayÄ±
Ġproj esinde
Ġindir ebilirsiniz
ĠT amamen
Ġbulun duÄŁunuz
ĠCen ter
ĠBahÃ§eli evler
Ġser isinin
ĠAk soy
Ġgiz emli
dÄ± ma
ĠEmek li
Ġsor uyor
Ġkr ediler
ĠSa adet
ĠÃĩ ap
AM A
Ġay arÄ±
ĠHam di
Ġdoy ur
ep siyon
ä º
Ġyaz Ä±m
fet tiÅŁ
Ġc el
elik li
ĠhÃ¼cr eleri
ĠmÃ¼cadel eye
ĠDir ektÃ¶r
ĠW al
ĠÅŁ ab
ĠalÄ±n dÄ±ÄŁÄ±nÄ±
lat mak
ĠgÃ¶z etim
Ġsit emize
w s
ĠY asa
ĠZ engin
ĠyaÅŁadÄ±ÄŁ Ä±nÄ±
S ig
Ġyaz Ä±yorum
Ġgiz le
ĠyapÄ±l mak
G EB
un i
Ġoluyor um
Ġpart isinin
ĠGÃ¼n dÃ¼z
ĠKad ar
Al t
ĠB eyin
Ġetm eli
ĠdÃ¼nya dan
Ġaz ar
Ã¢ v
ĠbÃ¶yl elikle
ĠMeh med
ĠyakÄ±n Ä±nda
s enin
ĠiÅŁlem in
Ġay Ä±ndan
ĠbÃ¼yÃ¼m esi
K ent
ĠI N
ĠNor veÃ§
Ġh ol
Ä° m
Ġverim lilik
Ġbil diÄŁiniz
ĠC afe
Ġam er
ĠF re
D Ä°
t ap
ĠdÃ¼zen lemek
ĠMer yem
ley i
ĠOs car
Ġpas if
L e
Sar ay
ak il
ĠyatÄ±r ma
Ġsor ul
Ġetk iliyor
en en
ĠA Ãĩ
ĠPlan lama
S EL
ĠmÃ¼h Ã¼r
Ġy Ã¼c
Ġfirmalar Ä±nÄ±n
Ġyet eri
Ġev inizde
ĠBiz de
ĠsaÄŁlamak tÄ±r
as lan
iz le
Ġsit elerinin
Ġistek leri
Ġkat Ä±na
ĠAy Ä±
ĠiyileÅŁ me
iter atÃ¼r
ĠiÃ§eri de
Ġad min
ĠkapÄ± larÄ±
r Ä±n
K ara
Ġhizmet lerinden
Ġhafif let
ĠterÃ¶r le
Ġuzun luÄŁunda
ĠBen zer
Ġbil emiyorum
Ġfi ili
elen miÅŁ
Ã¼yor du
Ġpolitik alar
ĠAb bas
ĠKoordin atÃ¶rÃ¼
ĠUlu daÄŁ
H ocam
ans Ä±n
ĠgeliÅŁim ine
ra de
ĠyÃ¶netim indeki
ek ir
Ġdez avantaj
oz of
Ġfiyat lara
ĠgÃ¶rev inden
ĠdoÄŁ muÅŁ
Ġiptal i
Ġkar ayolu
ĠyÃ¼r Ã¼me
Ġbil di
ma c
Ġdenet imi
ĠÃĩank Ä±rÄ±
D oÄŁu
liÄŁ indeki
Ġ8 4
Ġfil tre
y Ã¼r
Ġoyunc uluk
Ġil acÄ±
ĠKal k
ĠTÄ±k anÄ±k
lu lar
L ig
un k
Ġgit tiÄŁini
ĠiÅŁ lerinde
o te
Ġd ist
D AN
iÃ§ e
ĠG ur
ĠBit lis
ĠkÄ±s Ä±mda
ĠdeÄŁerlendir di
Ġes mer
ak e
Ġkir let
Ġbas ka
ĠsÃ¶ylen ebilir
Ġiddi asÄ±
ĠoluÅŁtur ulmuÅŁ
Ġbelir leyici
ĠÄ°c ra
TÃ¼rk Ã§e
Ġroman Ä±
Ġekipman larÄ±
ĠedilmiÅŁ ti
ĠsaldÄ±r Ä±sÄ±
u de
Ġ12 5
ĠfÄ±rsat lar
Ġkorid or
ĠhazÄ±r layan
ĠSonr aki
ĠL an
ĠT OKÄ°
Ġfaaliyet i
ĠgÃ¼zel likleri
ĠilaÃ§ larÄ±
Ġkon v
Ġn ey
Ġh Ã¼rriyet
ÄŁ dÄ±r
p lant
Ġk iz
Ġtr ilyon
ĠMerkez inde
ĠBir eysel
Ġsu larÄ±
IF A
ĠZ ih
Ãľ cret
ebil iyoruz
ĠsÄ±r asÄ±
Ġs ac
Ġcil de
ram v
Ġesk isi
Ġpen altÄ±
H D
t Ã¼n
ĠÃ§at Ä±sÄ±
ĠgÃ¶rdÃ¼ÄŁ Ã¼nÃ¼
ĠM Ä°T
ĠÅŀ iÅŁ
ar dan
Ġtedav iye
is por
ĠGÃ¶z tepe
Ġduy uyoruz
Ġpuan larÄ±
Ġmedy anÄ±n
Ġkuzey inde
ĠBur asÄ±
ĠKÃ¼ltÃ¼r Ã¼
Ġor al
oloj inin
ebiliyor sunuz
in s
n Ã¢
Ġbesin ler
ĠÅŁÃ¼k ran
ĠÃ§Ä±k acaktÄ±r
b Ã¼l
Ġhaf Ä±za
ĠBor sa
ĠÃĸz lem
ĠgÃ¶rÃ¼n Ã¼me
Ġfav or
O V
ĠDÃ¼zen leme
Ġhesap larÄ±
in dir
Ġ7 20
ĠYap Ä±lacak
N er
ĠG etir
Ġbilg isine
ob e
Ġbu laÅŁÄ±k
duÄŁ undan
ĠMacar istan
Ġmolek Ã¼l
ĠÃĸÄŁretmen leri
iz za
ĠL Ã¼t
Ġver ebilecek
ĠdaÄŁ Ä±lÄ±mÄ±
ĠhÃ¼kÃ¼met inin
Ġp lat
Ġdedik odu
ĠHal ep
M em
Ä±yor dum
Ġef ekt
ĠM edi
ĠÃ¶ le
Ġolanak larÄ±
ĠW illiam
ĠgÃ¶r Ã¼ÅŁtÃ¼
ĠkÃ¼ltÃ¼r Ã¼nÃ¼n
ĠKaÃ§ ak
Ġyarat Ä±r
Ġfilm ini
Ġ9 4
Ġpazar Ä±nda
D U
Ġz er
ĠI sÄ±
T AN
Ġbag aj
ĠAn ma
ĠkÃ¶t Ã¼ye
Ġverir ler
Ġc er
ĠÄ°z in
Ġtah amm
ĠyÃ¼ksek Ã¶ÄŁretim
ĠaÃ§Ä± ÄŁÄ±
ĠbaÅŁlay Ä±nca
ĠÅŁ iddeti
Ġsun arak
Ġmak sad
ĠyetiÅŁtir mek
ĠHaber leÅŁme
ĠgÄ±d alar
ĠbÃ¼yÃ¼k tÃ¼r
Ã¢ ye
Bil in
ĠÃ§arp tÄ±r
ĠgÃ¶rÃ¼ÅŁ meleri
Ġbenz in
Ġ8 7
Ġfin ale
Ġ Ã¼rk
Ġperformans Ä±nÄ±
op ik
ĠAn tren
eÄŁ inden
Ġkomut an
ĠbaÅŁ lanan
D ur
laÅŁ a
Ġilgili dir
Ãľ Y
Ġkur uma
ic ili
ay abilirsiniz
Ġkap Ä±da
i es
Ġmik rop
af fer
ay iÅŁ
ĠNaz Ä±m
ĠÃ¶z erk
if or
ĠK uv
amaz lar
Ġsendik a
\ '
Ġtrafi ÄŁe
Ä±k larÄ±
ĠyÃ¶n e
ĠdoÄŁru dur
ĠtecrÃ¼b esi
P KK
ĠkÃ¼t l
Ġtoprak larda
dik Ã§e
ĠoluÅŁ abilecek
Ġziyaret te
ĠÄ°nsan Ä±n
ĠSÃ¼n net
Ġyay Ä±nda
ĠtaÅŁÄ±ma cÄ±lÄ±ÄŁÄ±
ĠdÃ¶v Ã¼ÅŁ
Fir mamÄ±z
yÄ±l dÄ±z
Ġyan da
Ġat let
is as
ĠS osy
re am
Ã¢ tÄ±
Ġon da
eb ap
Ġpiyas asÄ±
Ġettir en
ilm emesi
Ġders eniz
Ġsanat Ã§Ä±nÄ±n
ĠDeÄŁ iÅŁtir
ĠMer cedes
Ġsal Ä±n
maya caÄŁÄ±nÄ±
Ġem ret
Haz Ä±r
Ġarama ya
ĠÄ±s lah
Ġder giler
Ġnokt alara
ĠAL LAH
ĠoluÅŁ umu
Ġses ler
leÅŁ ti
as tr
Ġo sman
Ġis min
ĠÃ¶ner irim
b eli
ĠsÄ±nav Ä±na
D Ä°R
M obil
Ġli gin
ĠIn ter
ĠFu at
Ġedilm eli
ĠDekor asyon
ĠKaynak lar
Ġbelir lediÄŁi
D O
ĠkÄ±l mak
g inin
ĠyarÄ±ÅŁ masÄ±
ĠR efer
ecek lerini
ĠÃ§ en
Ġal abilecek
Ġolmaya caÄŁÄ±nÄ±
Ġm ola
ĠO kan
Ġbit miÅŁ
Ġkonu lardan
Ġal mayan
Ġor anÄ±n
Ġf al
Ġyap mÄ±ÅŁtÄ±
Es kiÅŁehir
ĠkÄ±v r
Ġsokak larda
Ġamac Ä±mÄ±z
Ġmontaj Ä±
Dem ir
ĠÃ§arp tÄ±
Ġiddi alarÄ±
M I
Ġb alÄ±ÄŁÄ±
g erÃ§
Ġsim gesi
g ec
oÄŁ ol
Ġart maktadÄ±r
P azar
n ur
Ġyer lerinden
Ġasker ler
ĠYar Ä±m
Ã ³
Ġ8 3
Ä°n ÅŁ
Ġotel in
ĠMÃ¼z iÄŁi
Ġbek leme
bi e
ĠalÄ±r lar
Ġuygula masÄ±na
ed an
Ġen ter
Ġduy uyorum
ĠulaÅŁ Ä±r
Ġol sam
Ġsonuc unu
Ġhafif Ã§e
Ġtrak tÃ¶r
ĠKÄ±s acasÄ±
ĠHat ice
li d
ĠaraÃ§ larÄ±nÄ±n
Pro je
k Ä±z
ĠB us
Ġediyor sunuz
B unlar
Ġyak alama
ĠKal em
et ini
ĠÅŁiir ler
Ã¾ tir
ĠÃ§ok lu
abilir sin
dÄ±r lar
ĠR od
Ġr Ã¼t
ĠiÃ§er diÄŁi
ĠhastalÄ±ÄŁ a
m uÅŁtum
Ġl Ã¼t
AÅŁ k
ĠY or
Dev amÄ±nÄ±
Ġbilgiler inizi
ĠKol tuk
Ġolmak tÄ±r
ĠKon uk
EN T
Ġbas ar
Ġplan lÄ±yor
Ġal acaktÄ±r
ĠS k
Ġsel lem
Ġhast aya
k eli
l Ã¶r
Ġdev ri
LAM A
dÄ±ÄŁÄ±mÄ±z da
Ġm ant
Ġkal mayacak
ĠÃ¼retim inin
F arklÄ±
ĠsaÄŁ lanmÄ±ÅŁ
Ġhikay esini
Ġn Ã¼s
n it
Ġkontenj an
ĠulaÅŁtÄ± ÄŁÄ±
Ġban d
ĠÃ§Ã¶zÃ¼nÃ¼r lÃ¼k
Ġ- -
ĠNo te
Ġkaz asÄ±nda
f un
ÅŁt an
Ġgelen e
ĠbÃ¼l ten
Ġen str
ĠbaÅŁvur an
ĠÃ§ar pan
Ġn emli
Ġh uz
ĠGazet eciler
ob el
de ÄŁ
ĠGeÃ§ iÅŁ
av ul
ĠyÃ¶net meni
la maktadÄ±r
Ġtamam lanmÄ±ÅŁ
ĠkullanÄ±cÄ± larÄ±nÄ±n
ĠOy n
Ã¼st e
ĠSonr asÄ±
Ġas k
Ġiler liyor
S a
itab anÄ±
Y aÄŁ
ĠUygula malarÄ±
Ġnaz ik
Ġtitiz likle
ĠKend ini
Ġhedef imiz
ĠMas ter
Ġ198 9
G Ã¼nde
? âĢĻ
Ã½ lÃ½
ul h
Ġkor san
G M
malar Ä±ndan
ic iliÄŁi
Ġkon tÃ¶r
Ġkazan mÄ±ÅŁtÄ±r
Ġtoprak larÄ±
ĠÃ§ab asÄ±
ĠHarek eti
ĠÃ¶zg Ã¼ven
Ġpro fesÃ¶r
Ġsaat e
ĠH uzur
ĠdavranÄ±ÅŁ lar
ĠR AM
for masyon
i dat
du y
ĠHam il
ĠBurs lu
ĠGen eral
ĠTak v
ĠAr asÄ±nda
y ok
Ġsefer de
mez ler
ĠbÃ¶lÃ¼m e
Ġten is
Ġsun ulmasÄ±
aÃ§ lÄ±
ĠdÃ¼zen siz
Ġdik ey
cÄ± oÄŁlu
Ġdil inde
Ġal alÄ±m
Siz in
ĠkarÅŁÄ± layan
Ã¶z Ã¼
ĠkullanÄ±cÄ± ya
ĠT oy
ĠhÄ±r s
ĠRabb im
ef endi
ĠHotel s
ĠhÃ¼c um
Ġsor usunu
ĠulaÅŁ Ä±labilir
Ġmezun iyet
tad ir
Ġtamam lamak
Ġh ediyesi
Ġbin asÄ±nda
ic ilik
ĠÃ§alÄ±ÅŁmalar Ä±mÄ±z
Ġ9 3
ĠW est
Ġziyaret Ã§
ĠÃ¶z Ã¼
ĠEn erj
ĠtakÄ±m lar
Ġal fab
KÄ±s a
ĠgeliÅŁtir erek
ĠyaygÄ±n laÅŁtÄ±r
ĠtaÅŁÄ±y Ä±cÄ±
ĠÃĩaÄŁ daÅŁ
Ġrapor da
ak s
ĠtÃ¼m Ã¼yle
V at
ildi ÄŁiniz
ce ÄŁiniz
ĠPort alÄ±
ĠalÄ±n masÄ±nÄ±
Ġpara graf
Ġkamer asÄ±
ĠÄ±s Ä±nma
ik ayet
ĠBor sasÄ±
Ġef endim
ĠÄ° Ã§i
iyor sun
tur e
Ġas lan
Ġsorun larÄ±nÄ±n
ĠÃ¶lÃ§ Ã¼t
ĠTeÅŁekkÃ¼r ler
Ġkapat ma
iy eye
ĠalÄ±n malÄ±dÄ±r
ĠkaldÄ±r ma
Ġsembol Ã¼
ĠSempoz yumu
t il
ti ons
S Ã¼per
Ġz alim
y ali
ĠÃ¶z deÅŁ
Ġprogram larÄ±na
Ġ9 7
AY A
Ġhaft alarda
l ut
Ġtah rip
Ġcenaz esi
Ġolmak ta
lÃ¼ ler
Ġ7 50
ĠgeÃ§ir ilmesi
Ġuzun luk
Ġyer inin
ĠgÃ¶r ebilir
Ġkaynak larÄ±nÄ±n
ĠgÃ¶rm edim
Ġyol lardan
Ġsakin leri
K or
OS GEB
ĠDep rem
n ca
ĠilÃ§ esindeki
B in
Ġtamam lamÄ±ÅŁ
Ġedeb ileceÄŁiniz
Ġsayf alarÄ±
ĠeriÅŁ imi
Ġhar ici
ĠgÃ¶z altÄ±
ĠProt okol
ĠE ki
ĠOk uma
Ġhay kÄ±r
ĠJ on
ĠÃ¼niversit eler
Ġeh l
ĠH Ã¼c
ĠbaÅŁ bakan
Ġyel ken
d Ã½
ev it
ĠÄ±srar la
DeÄŁer li
Ġkurs larÄ±
iy eri
Ġyiyecek ler
Ġyan Ä±mda
Ġzeytin yaÄŁ
Ġar ta
Ġo caÄŁ
Ġam p
ĠD OÄŀ
ĠmÃ¼lt eci
Ġsaat inde
esi gn
Ġb aÄŁÄ±
Ġgit me
Ä° d
Ġz irve
ĠOrdu su
Ġab art
Ġip ek
Ġbur n
laÅŁ Ä±yor
ic al
ĠSan al
Ġy eÅŁ
Ġolmas Ä±yla
ĠMek an
Ġat abilirsiniz
Ġk Ä±p
Ġd iger
lili ÄŁe
Ġd usun
alar daki
Ġbir iydi
ĠHav acÄ±lÄ±k
la tÄ±r
Ġkullan masÄ±
ĠanlaÅŁ Ä±l
ĠsÃ¶ylemiÅŁ ti
ĠBel irt
. :
in at
ĠBes lenme
ĠbaÅŁ larÄ±na
ĠOr talama
ĠAl kol
Ġh ort
ĠS us
Ġik isinin
1 000
Ġk Ä±na
ĠGran d
Ġm iy
Ä±r dÄ±
ĠyakÄ±n larÄ±na
N E
ĠgÃ¼Ã§ lerin
Ġilk Ã¶ÄŁretim
Ġdog ru
ĠT o
ĠÃ§alÄ±ÅŁ Ä±p
ĠÃ§iÃ§ eÄŁi
ĠÅŁekl ini
ĠkoÅŁul larÄ±nda
ĠTal ep
K ol
ing s
liÄŁ imizi
S p
l uyuz
.. ...
Ġilk esi
ĠdÃ¼ÅŁÃ¼n meye
Ġsonra da
Ġciv arÄ±
an ce
ab e
ĠK op
DÃ¼n yada
ĠaraÅŁtÄ±rma cÄ±
Ġtar ayÄ±
Ġoyn arken
Ġgerek mez
d eleri
A lan
Ġmadde de
tal i
ĠhastalÄ±k lara
ĠbaÅŁar Ä±yÄ±
Ġkum ar
ĠE UR
K S
ĠÃ¼lk emizi
es ses
Ġkim ya
ĠLib ya
ĠÅŀÃ¼ph esiz
OR UM
Ã¼z yon
Ġtar la
Ġkap sar
s eydi
Ġkur tu
madÄ± lar
ĠkardeÅŁ lik
ĠbaÅŁk alarÄ±na
ĠY AR
ĠsÃ¶zleÅŁ menin
Ġk uv
ĠgeÃ§ it
la ÄŁ
Ġev lerde
Ġdoldur an
ĠgeliÅŁtir meye
M ay
y id
Ġo m
200 2
C on
Ġ ~
at Ä±nÄ±
ĠAnal izi
Ġfir maya
h ol
ĠD ini
ĠÃ¶ner iriz
Ġnes ne
ĠAlt Ä±nda
Ġkont eyn
ma hal
ĠD EV
ĠeÄŁitim de
Ġf izi
L a
Ġhaft aya
ĠÃ§ub uk
Ġkaybet meden
Ġsam sun
lar lar
Ġz ed
ekt Ã¼el
Ġsayf asÄ±na
is iniz
Top lam
ĠB U
ĠV eysel
Ġat Ä±l
Ġin at
ĠEb ru
Ġlok al
ĠfÄ±rsat ta
ĠÄ°k ili
g usal
p le
Ġayak larÄ±
Ġok ÅŁ
ĠAr ke
Ġinsan lÄ±ÄŁa
oot h
ĠW il
ĠdeÄŁiÅŁtir ilmesi
Ãĩ aÄŁ
man a
ĠÃĩocuk larÄ±n
adÄ± lar
ĠYET Ä°ÅŀTÄ°R
ĠM Ã¼m
Ġy Ä±r
ta da
ag a
Ä±m Ä±na
ĠÃ§iz giler
ĠsoruÅŁtur masÄ±
ĠBun lara
Ã¼ÅŁ vet
uc uk
Ġfav ori
PD Y
ĠKaz Ä±m
Ġay lar
isi on
Ġ Äł
Ġkalk ar
Ġet menizi
Ġtaraf larÄ±n
ĠÃ¶mÃ¼r lÃ¼
tÄ±r ma
Ã¶ ÄŁ
ĠyayÄ±n lanacak
Ġacel e
v iz
K Ã¼rt
ĠÃ¶ÄŁrenciler imiz
ĠAt Ã¶ly
uÅŁtur ma
ĠhoÅŁ lan
Q L
ĠHak em
medi ÄŁim
Ġav ukatÄ±
Ġek leme
mamÄ±z a
ir di
Ġver diklerini
unu cu
ey l
Ġgec eler
ĠM alat
ĠHÃ¼km Ã¼nde
Ä±yor sun
T un
Ġp azartesi
Ãĸnc eki
ĠÃĸz al
ĠYÃ¶n etmen
ĠÃ§oÄŁ alt
ĠÅŁ aÅŁ
Ġsey irler
Ġyapacak larÄ±
Ã¶ m
Ġ8 9
Ġpers pektif
Ġkal mÄ±ÅŁtÄ±
Ã¶ p
ĠÃ§ Ã¶l
Ġj Ã¼ri
B er
ĠÄ°d lib
Ġkayb Ä±na
Ġekran larÄ±nda
ĠgeliÅŁ melerin
ĠpÄ±r Ä±l
Ġl akin
H AN
ĠgerÃ§ekleÅŁtir dik
Ġkal masÄ±nÄ±
Ġkapital ist
ĠO ut
lÄ± c
oc i
m iye
ĠTun Ã§
ĠK alan
ĠmÃ¼te akip
la dim
ĠT O
ĠarkadaÅŁ larÄ±nÄ±n
Ġes en
la dÄ±ÄŁÄ±nÄ±
Ġyer lerin
ĠK UL
ev leri
ĠÅŀ ti
ula ÅŁtÄ±r
Ġbelirt iler
igit Ã¼rk
Deniz li
uÅŁtuÄŁ unu
Ġfeder asyon
Ġter mal
ĠR em
ĠmÃ¼dÃ¼r lÃ¼k
Ġad liy
Ġ9 2
ĠG PS
Ġdik tatÃ¶r
Ġsorunun un
v o
ĠB ayÄ±ndÄ±r
ĠsÃ¼rdÃ¼r mektedir
Ġat a
Ġkurab iye
Ġtutan ak
Ġmil lÃ®
ram anÄ±
Ġekib in
ĠDuy gu
ĠtakÄ±m da
s ch
Ġoy u
lÄ± m
Ġizley in
Ġzann ed
Ġucuz a
Ġah ir
ĠR eg
ĠÃ¶ncÃ¼l Ã¼ÄŁÃ¼nde
ĠYet iÅŁtir
l Ä±na
ĠYar gÄ±
ĠiÃ§eri ÄŁini
Ġsunu c
as s
Ġgir erken
Kay seri
ĠOsman iye
ĠN em
Ġekonom isinin
Ġmahk Ã»m
Ġark aya
Ġdevlet ler
y azar
as ta
ĠtanÄ±t mak
ĠpÃ¼rÃ¼z sÃ¼z
ĠG iy
Ġtem yiz
ĠoluÅŁtur arak
ilm iyor
Ġilk eleri
Ġyarar Ä±na
ĠL atin
ĠgÃ¶ster ge
ĠyÃ¶netic iliÄŁi
Ġkoru masÄ±
ĠÃ¶l Ã¼me
t ab
Ġan larÄ±
ĠEÄŀÄ°T Ä°M
Ġtut ku
Ġa bar
ĠAlt un
g Ã¼ven
ĠYÄ±l Ä±nda
tas iye
ĠD ans
ĠB ec
ĠartÄ±r Ä±r
ekk Ã¼l
ĠYÄ±l Ä±n
Ġel inizde
Ġziyaret inde
Ġar at
ĠTÄ±p kÄ±
M ark
aÃ§ a
luÄŁ undan
d unun
Ġtel aÅŁ
Ġbeklen medik
larÄ±m dan
ĠGe orge
Ġk ili
ĠÅŁah ane
ĠgÃ¶rÃ¼nÃ¼m lÃ¼
Ġduv ara
hay Ä±r
alan dÄ±
Ġnak li
ĠR ot
ĠM F
Ġetkin liÄŁe
Ġkons ol
ĠÃ¶yk Ã¼sÃ¼
ĠÃ¼niversit eye
Ġkesi ci
ĠS ep
Ġma aÅŁÄ±
ev her
Ġbelirt ildiÄŁi
Ġmens ubu
Ġdilek Ã§e
ĠÄ°t tifak
ĠV is
Ġzor laÅŁtÄ±r
Ġil av
) -
Ġhac im
S aat
Ġboyut ta
ne gÃ¶l
ĠyÃ¼rÃ¼y en
F et
ï¿½ï¿½ ï¿½ï¿½
ĠgÃ¶rkem li
Ġtab iki
ĠbaÅŁk asÄ±na
ir lik
ĠÃĩalÄ±ÅŁ malarÄ±
ĠhazÄ±rla mÄ±ÅŁ
ĠU laÅŁ
Ġgetir mektedir
Ġsem ptom
ĠamaÃ§ lar
ĠDeÄŁer li
Ä± cak
ĠmÃ¼ÅŁter ileri
Ñģ Ðº
B r
Ġr uj
S es
Ġh Ã¼s
ĠAd il
Ġotur uyor
Ġol salar
ĠÅŁah siyet
ĠL os
Ġhav alimanÄ±
ĠilÃ§ elerinde
ĠdÃ¼ÅŁÃ¼n Ã¼p
Ġf e
ĠÃ§iÄŁ n
Ġkar ikatÃ¼r
Ġb Ã¼f
ĠAÅŁ Ä±rÄ±
Ġsal t
ĠÃ¼retic ileri
mey ecektir
ĠHÄ±r vat
Ġibar esi
mas Ä±ndaki
ĠC hat
Ġbelir ledi
ĠF ev
Ġot u
ĠHar un
ĠÃĸÄŁrenc ilerin
ĠV eya
Ġimz alÄ±
p uz
Ġt raj
ĠbaÅŁ Ä±ma
Ġhedef liyoruz
Ġyar atÄ±
ĠKahv altÄ±
Ġder inden
Ġkullan mÄ±ÅŁ
ĠB az
h ret
Ġcal is
ĠbÃ¼yÃ¼k lÃ¼k
ĠKitap larÄ±
ĠdeÄŁiÅŁ mektedir
ĠBay kal
ĠYap Ä±lmasÄ±na
ĠkÄ±z gÄ±n
ĠÅŁikayet Ã§i
Ġolan Ä±n
ĠSes li
Ġc et
bo lan
Ä±c Ä±k
ĠKes kin
ĠzayÄ±f lama
ĠSab it
ĠBat Ä±lÄ±
ĠB y
ĠC eh
ĠR ec
Ġgelir ler
ĠbuluÅŁ an
ĠH AK
ĠtanÄ±k lÄ±k
ĠkazandÄ±r mak
ĠyaÅŁan mÄ±ÅŁ
Ġbulun abilirsiniz
Ġtat ile
ĠDoktor a
ĠP omp
ĠseÃ§ ilir
Ġdevlet inin
ĠdÃ¼ÅŁÃ¼nc eleri
Ġsper m
Ġed it
Ġtah vil
Ġbin alarÄ±n
Ã¼ÅŁt Ã¼m
ĠgÃ¶r erek
Ġbron z
r r
ĠS ir
Ġhaber leÅŁme
Ġkaynak larÄ±n
ĠS ef
ĠÅŁer it
ĠyÃ¶net en
ĠKoordin asyon
Ġkur ye
Ġzinc iri
lar ini
Ġolay la
ĠPerforman s
ĠilaÃ§ larÄ±n
b Ã¼yÃ¼k
ĠD or
ĠBr it
Ġen tel
L ink
ĠulaÅŁ ma
ĠgÃ¼ndem ine
ĠyÄ±ÄŁ Ä±n
ĠHat Ä±r
ĠD inÃ§
P at
ĠKaz a
ch ester
Ġyeter lilik
ĠT ES
Ġ4 50
Ġindir imi
Ġser gisi
ĠaÄŁz Ä±
Ġyan aÅŁ
Ġbayram Ä±
elen en
Ġmiz ah
I ST
ĠbasÄ±n cÄ±
ĠWhats App
em on
ĠKar am
Ġmark alarÄ±
Ġbu lamaz
lan Ä±rken
S ivas
Ġop tik
ĠmutluluÄŁ unu
Ġbek lerken
Ġc isim
Ġelekt ron
k anlÄ±
GÃ¶n der
Ġt om
ĠÃ¼rÃ¼n lerde
Ġgetir ilmiÅŁtir
Ġ19 20
ĠÃ¼rÃ¼n e
ĠTaÅŁ Ä±n
s Ä±k
Ġy Ä±
ur i
am dan
ĠbaÅŁ saÄŁlÄ±ÄŁÄ±
ĠhÃ¼kÃ¼m ler
lin k
ĠÃ§ok Ã§a
Ġpozisyon da
ĠTÃ¼rk leri
dÃ¼k leri
Ġsavun du
ant Ä±sÄ±
Ġtav iz
ĠÃ¶l Ã¼r
Ġdiyor sanÄ±z
H ol
Ġm eb
ĠM aliyet
ĠeÄŁlenc eler
ĠbasÄ± lÄ±
ĠamaÃ§ larÄ±
Ġpsik iyat
orun lu
Ġver elim
Ġl ed
ĠHal a
Ġrakam lar
Ġteknoloj iyi
g it
ĠÃ§ocuk larÄ±mÄ±zÄ±n
Ġhaz iran
Ġib ad
ĠkiÅŁ iyle
ĠH ABER
ĠBaÄŁ lantÄ±
ĠB AY
ĠhazÄ±rla dÄ±ÄŁÄ±mÄ±z
Ġgrup larÄ±n
Ġp ed
Ġtrib Ã¼n
lendir mek
Ġn isan
Ġed ince
ĠNok ia
Ġdok usu
Åŀ anlÄ±urfa
Ġbecer ileri
Ġkil oda
Ġ; )
Ġtencer eye
IN DA
R amazan
Ã Ŀ
ĠgeÃ§ mektedir
Ġgir in
Ġbebek ler
Ġdev i
ĠÃľzer inde
lama y
T IR
Ġayr Ä±lma
ĠcoÄŁraf ya
ĠO Y
B ebek
et tepe
ĠD C
Ġkomp le
Ġbak teri
Â ¶
ĠAl Ä±nÄ±r
Ġincel eyen
ĠE fes
f ilm
Ġer im
ĠÃ§iz di
ĠdÃ¼ÅŁÃ¼ndÃ¼ÄŁ Ã¼m
Ġgetir ilmiÅŁ
ĠK AD
ĠsaÄŁla mÄ±ÅŁtÄ±r
on line
Ġ ler
ĠH ediye
ĠSÃ¼r Ã¼cÃ¼
ĠSer isi
Ġic at
ĠhazÄ±rlÄ±k larÄ±nÄ±
Ġk ac
ĠG izli
tek in
Ġyap acaÄŁÄ±mÄ±z
ĠT ru
Ġalan larÄ±nÄ±
Ä°C Ä°LÄ°ÄŀÄ°
asyon el
Ġbeb eÄŁi
Ġb Ã¶rek
P ress
AN KARA
ĠsÃ¶yley eyim
ĠTun celi
ĠhemÅŁ ir
Ġyapabilir iz
Ġtar ikat
ĠV iyana
Ġiade si
Ġsistem iyle
Ġanti oksidan
ĠN iÅŁ
ĠYak up
Ġsat Ä±lÄ±yor
ĠDis iplin
ĠPolitik alar
ĠÅŁans Ä±nÄ±
Ġkod larÄ±
Ġbildir en
ĠkonuÅŁma cÄ±
Ġgir dik
ĠHaf if
Ġrestor asyon
Amer ikan
Ġneden lerden
Ġat Ä±f
T eÅŁ
Ġiktis adi
ĠÅŁart larÄ±nÄ±
em edik
Ġyakalan an
Ġyet kin
Ġuygula masÄ±nÄ±n
Ġn de
Ġb eye
Ġham uru
ler ime
Ġsem poz
Ġist ey
Ġvurgu layarak
Ġk lim
ust ik
ĠmaÃ§ Ä±nÄ±n
Ġalak asÄ±
ĠiÅŁit me
Ġham le
ris ti
Ġhaber lerin
Ġkr istal
ĠM um
ĠgÃ¶ster in
Ġkr emi
Ġz Ä±p
Ġolma masÄ±na
Ġvit es
ĠKut lu
Ġ* *
ĠcÃ¼ml eler
Ġma tr
iÅŁ Ã¶rt
bir lik
Ġumu du
ĠiÃ§erik leri
Ã¼n cÃ¼sÃ¼
Ġel ime
ĠPay laÅŁ
Ġyolc uluÄŁu
Ã¶r neÄŁin
ĠbÃ¶lÃ¼m Ã¼n
K amp
Ġyap Ä±sÄ±nÄ±n
ĠBey likdÃ¼zÃ¼
Ġseg ment
ad ig
ĠC es
eyece ÄŁini
t l
ĠAN KARA
ĠEv lilik
ĠZ el
ĠÃ§iÃ§ek ler
ÅŁ ah
Ġbelirlen ecek
A dÄ±
ĠS taj
Ġar alÄ±ÄŁÄ±
ĠÃ¶ÄŁren meye
Ġekonom inin
Ġsertifik asÄ±
ĠkÃ¶ fte
Ġart tÄ±ÄŁÄ±nÄ±
M ac
anÄ± ma
ĠyÄ±ldÃ¶n Ã¼mÃ¼
ĠÄ°ktis adi
V C
Ġhab ersiz
ĠKam il
ĠM id
ĠdeÄŁer lerin
Ã¼ leri
Ġen stit
Ġbak Ä±yorum
Ġev cil
Ġverim liliÄŁi
Ġyaz arken
m ud
leyece ÄŁi
ĠtÃ¼f ek
Ġyapar sanÄ±z
Ġr amazan
ĠSigort asÄ±
uluÄŁ unu
larÄ±n ca
ab at
ilen in
ĠsavaÅŁ ta
ĠdaÄŁÄ±t Ä±mÄ±
j et
k um
Ġin anÄ±n
Ġtab los
Ġpik nik
Ġaf fet
Ä±yor sa
Ġoto masyon
ro me
Ġy Ä±rt
ĠGer Ã§i
erk ek
kon usu
S U
Ġb os
Ġar adÄ±ÄŁ
ĠSan cak
ĠkÄ±yafet ler
ĠStratej ik
ĠYak asÄ±
ĠTed arik
at tan
Ġel imizde
Ġyol lara
ĠiÅŁ lenen
Ġs Ä±nÄ±
Ġoran Ä±na
K ad
Ġes rar
Ġt uzu
Ġyap abiliyor
Ġbeden sel
ĠÃ§ erez
Ġd amak
ĠHar p
Ġbor s
p g
ĠÃ§Ä±k Ä±nca
ĠPar Ã§
â Ħ
ĠtÃ¼rÃ¼ dÃ¼r
ĠfotoÄŁraf larÄ±nÄ±
lis ans
Ġab la
ĠB ro
Ġbil eÅŁik
ĠBu da
p il
ĠBaÅŁkan vekili
ĠMÃ¼ÅŁt er
ĠNil Ã¼fer
t am
Ġisim lerini
ĠgiriÅŁ inde
Ġmas asÄ±
Ã½ na
Ġkar ayol
Ġyaz dÄ±ÄŁÄ±m
Ġtez ah
Ġel li
b log
Ġp v
Ġol mal
ĠiÃ§ sel
ĠÃ¶t ek
lerim le
Ġistis n
ĠmÃ¼m in
ĠbaÅŁlar ken
eg o
Ġsor ulan
ĠKur tar
Ġal abileceÄŁiniz
es ki
ĠÃ¶de meleri
Ġortak laÅŁa
M ec
iv i
Ã¶mer t
ĠP iÅŁ
Ġden edim
ĠÃ¶ner ilir
ĠyaÅŁamak tadÄ±r
B et
ĠGir ne
ĠOd alar
al in
m iz
Ġmek anda
Ġolmay Ä±p
ĠT ren
Ġkazan maya
ĠKullan Ä±lan
Ġetkilen en
Ġkat Ä±lmÄ±ÅŁ
Ġfutbolcu lar
ĠkÃ¶p eÄŁi
m Ä±s
ĠB ran
lili ÄŁinin
Ġ ....
ĠpeÅŁ ine
Ġyar dim
ĠYÃ¶n elik
Ġaf iÅŁ
eyt ing
Ġeh li
ĠÃ¶n Ã¼
acak larÄ±nÄ±
ĠUy sal
Ġbab anÄ±n
ĠTan er
ĠÅŁehir lerde
ĠgenÃ§ leri
leÅŁ ik
Ġsen et
ĠkÃ¢ÄŁÄ± t
ĠÃ¶t esi
ĠfÄ±kr asÄ±
ĠRÃ¼z gar
ĠÃ¶nc Ã¼lÃ¼k
ĠsaldÄ±rÄ± larÄ±
ĠyanÄ±t ladÄ±
ver iÅŁi
ĠsaÄŁlan acak
Ġfonksiyon el
Ġmaliyet leri
Ġb roÅŁÃ¼r
ĠC han
adok ya
ĠoluÅŁtur abilirsiniz
m ese
ĠU laÅŁÄ±m
Ġadres leri
Ġdiz in
ĠYas in
Ġgerektir diÄŁi
Ġkayn aÄŁÄ±ndan
Ġ3 000
lanma mÄ±ÅŁ
ĠÃ§alÄ±ÅŁ masÄ±na
Ġmekt ubu
Ġn Ã¶r
Ġsayf asÄ±ndan
ĠvasÄ± f
ĠAÅŁ Ä±k
ĠgÃ¶rÃ¼le cek
? ..
ĠBaÅŁ vur
Ġyan larÄ±nda
ĠiÃ§eri ÄŁinde
Ġinf az
Ġdiz isinde
Ġn ic
Ġard Ä±nda
ĠteÅŁ h
ĠSili vri
Ġar Ä±tma
Ġolab ilmesi
l Ã¼yor
ĠdoÄŁ aya
Ġcid diye
Ġman yetik
Ġdiz ide
ecek leri
Ġgelir leri
Tel efon
Ġev lerin
Ġemperyal ist
lan dÄ±ÄŁÄ±nda
Ġbed eni
ĠdeÄŁiÅŁtir ildi
Ġcin si
Ġkes ilen
ĠiÅŁ bu
Ġvizyon a
D D
ĠÃĩÄ±k ar
ĠZ er
Ġnumar asÄ±nÄ±
Ø ¨
B atÄ±
ĠBay burt
uc uz
ĠOkul larÄ±
doÄŁ du
Ġgel se
ĠbÃ¶lg eden
å½ ©
Ġunsur larÄ±
ul muÅŁtur
ĠGÃ¼nde m
z ar
Ġil lerde
ĠÄ° ler
ĠHal uk
Ġtip ik
Ġtab losu
st Ã¼r
os istem
Ġmerkez lerinde
memiÅŁ ti
Ġ ut
ĠAy rÄ±
ĠE ce
ĠÃ¼Ã§ gen
Ġkav ray
ĠBon us
Ġazal Ä±r
sa at
ĠÃ¶ldÃ¼r Ã¼len
Ġsunul muÅŁtur
ĠMaked onya
Ġd alÄ±ÅŁ
A raÃ§
Ġbilinc inde
Ġunsur lar
Ġil ac
Ġkaz ada
Ġsaat lerce
lÄ± larÄ±n
Ġkas Ä±m
Ġem isyon
y eÅŁil
Ġd omuz
ĠyÃ¼z leÅŁ
Ġs Ã¼l
ĠÃ¶ngÃ¶r Ã¼l
Ġbulab ileceÄŁiniz
ĠÄ° hal
Ġyitir di
ĠBanka cÄ±lÄ±k
AY IN
Ġsosyal ist
ĠOyun cak
ĠKar iyer
Ġkurum lara
O nun
an oz
ĠMeh di
Ġfrag man
Ġbir iyle
Ġistik bal
Ġpiyas asÄ±nda
ma mÄ±ÅŁtÄ±r
ĠÃ§ab al
ĠaraÅŁtÄ±r masÄ±
ĠiÅŁ lenmiÅŁ
Ġfirmalar dan
ĠÃ¼niversit ede
Ġbulundur an
ĠTop tan
ĠkullanÄ±lab ilecek
Ġist eÄŁe
ĠanlaÅŁ Ä±lan
Ġ qu
Ġtuz lu
Ġsit eniz
ĠTol ga
Ġkontrol Ã¼nÃ¼
ĠV eteriner
ĠbaÅŁar Ä±sÄ±nÄ±
T abi
Ġkil ise
ĠBil eti
É ¾
Ġan layan
Ġdav alÄ±
ĠiÅŁ lerine
Ã§ Ä±lÄ±ÄŁÄ±
eÄŁ imiz
adÄ±k tan
Herk es
ĠsonuÃ§ landÄ±r
ĠMer haba
Ġs ulu
Dem ok
Ġol malarÄ±nÄ±
Ä° h
ĠR om
Ġcan Ä±nÄ±
Ġ Ã¼f
y aya
ĠAraÅŁtÄ±r malarÄ±
Tek nik
r Ä±nÄ±
ub a
Ġyal Ä±n
Ġokuy arak
Ġyararlan arak
al ma
Ã¼ se
Ġan Ä±sÄ±na
Ġkullan dÄ±ÄŁÄ±m
ĠÃ¶yl esine
u lar
ĠM ul
Ġhareket in
ĠÃ¶ner ilen
ĠoÄŁ lunun
p et
Ġsal ata
Ġner den
l inde
ĠAk taÅŁ
Ġtetk ik
ĠfÄ±kr asÄ±nda
ĠÄ°htiy aÃ§
k iÅŁi
Ġiz lenen
Ä°N Ä°N
ĠUy du
ĠkÃ¶y Ã¼n
eyece ÄŁiz
ĠÃĩat al
ĠfÄ±k ra
ÅŁ er
al ist
dan oz
ĠK linik
ĠyaÅŁ adÄ±m
ĠVer ilen
ek onomik
ĠSar aÃ§
Ġpet ek
an dan
Ġiz olasyon
ekil de
ĠkÃ¼t Ã¼phane
ĠBas it
Ġar ap
Ġbedel ini
ĠdÃ¼z eye
ãģĤãģĤãģĤãģĤãģĤãģĤãģĤãģĤãģĤãģĤãģĤãģĤãģĤãģĤãģĤãģĤ ãģĤãģĤãģĤãģĤãģĤãģĤãģĤãģĤãģĤãģĤãģĤãģĤãģĤãģĤãģĤãģĤ
ĠKÃ¼rt ler
Ġal mÄ±yor
eh li
Ġmut luyum
Ġuygu layan
Ġat Ã¶lye
ĠToplum sal
ĠYETÄ°ÅŀTÄ°R Ä°CÄ°LÄ°ÄŀÄ°
Ġvur g
Ġdin dar
ĠFilm i
ĠÅŁiÅŁ e
Ġgecik tir
ĠaraÅŁtÄ±r mada
Ã¼ÄŁ e
ĠmÃ¼ÅŁter iye
ĠAk sesuar
ĠProgram larÄ±
ĠR am
emeyece ÄŁini
L ET
Ġkullan madan
Ġtaraf lar
Ġtop ladÄ±
Ġfaz l
ĠFabrik asÄ±
Ġcehenn em
ĠKap lan
Â ¬
ĠEr gÃ¼n
ĠÅŁ al
DoÄŁ ru
Ġuy umu
ĠhazÄ±rla dÄ±k
el eyen
Ġsan iyede
ĠBin asÄ±
Ġdekor asyonu
it o
ĠgerÃ§ekleÅŁtir ilmesi
x x
ĠÃĩ erkez
Ġmen aj
Ġbil etleri
Ġist asyonu
ĠeÄŁitim li
Ä°L ERÄ°
Bel ki
ĠiliÅŁk ilendir
f l
Ġko ÅŁtur
Ġdin leyen
ĠOl ur
AS YON
Ġn i
ĠSayf asÄ±
Ġetm elidir
ĠdÃ¶nem ini
ĠÅŀ ek
Ġst abil
Ġreh beri
Ġhast alarÄ±
Ġyazar lar
Ġr ez
c es
Ġedecek siniz
Ä°nsan lar
ĠRenk li
ec ekt
Ġhizmet lerine
Ġinsan larda
Ġal Ä±k
la masÄ±nÄ±
ĠyÃ¶ntem iyle
ĠinÅŁaat Ä±
Ġyans Ä±yan
Ġbelir ley
ĠbaÅŁla dÄ±ÄŁÄ±nda
ĠSt ok
Ġkay da
ĠmaÄŁ lub
Ä±l masÄ±ndan
ĠV illa
in ess
Ġkat Ä±lÄ±yor
Ġetkili dir
ĠW h
Ġzarf Ä±nda
Ä°ST EM
Ġy aya
ÄŁimiz in
Ġd ram
ĠBir den
ĠkÃ¶p Ã¼k
ĠR ol
Ġkomp lik
ti ÄŁinde
Ġkat arak
ĠkarÅŁÄ± lama
ĠkatÄ±lÄ±mcÄ± lara
ĠmÃ¼te ahh
ĠDV D
ĠgÃ¶rdÃ¼k leri
Ġmetr elik
Ġkap it
ĠTah ir
Ġdav acÄ±
Ġs alÄ±
Ġverildi ÄŁini
ay ir
Ġon ce
ĠbaÅŁlÄ±yor uz
ĠF lash
Ġmaz lum
ĠkÃ¶y e
Ä±f Ä±r
Bah Ã§e
ĠdÃ¶n mÃ¼ÅŁ
ĠÃ§alÄ±ÅŁmalar la
Ġgetir in
ĠAil esi
Ġma zer
Ġyaz Ä±ÅŁ
ES CO
ĠrÃ¼zg Ã¢r
ras ya
malar la
k inden
Ġsit esindeki
Ġprogram lama
Ġasker leri
Ġet men
luk lar
st ro
Ġgerekiyor sa
Ġmek anÄ±
ĠBul varÄ±
Ġnamaz Ä±nÄ±
ĠHarek atÄ±
ĠAt let
ĠKay ser
ĠP iyan
Ġdamg asÄ±nÄ±
ĠÃ§Ä±k tÄ±ÄŁÄ±nda
Ä±z lÄ±
ĠgÃ¶ÄŁ s
m Ã¼n
lem ektedir
Ġmak sat
ĠÃ¼ret ilmektedir
ĠYar alÄ±
F atih
in di
ĠtaÅŁ larÄ±
ti ci
Ġkend ilerinden
DoÄŁ al
Ġmuh aseb
st Ä±r
lÄ± can
IS I
ĠA fet
Ġilet iÅŁimi
ĠÃ¶f ke
Ġbab alar
Ġk li
ĠbÄ±rak Ä±yor
ĠdÃ¼zenlem esi
ĠAraÅŁtÄ±r malar
ĠD edi
ĠfotoÄŁraf Ä±nÄ±
ĠS IN
Ġkapat mak
Ġdo ya
ĠKamp anya
S at
ĠO S
ĠKah ve
Ġsuik ast
ik il
f lasyon
ĠT Ã¼n
Ġyak Ä±nÄ±n
ĠÃľst Ã¼n
laÅŁt Ä±m
ĠDanÄ±ÅŁ ma
k isel
laÅŁtÄ±r Ä±lmÄ±ÅŁ
C C
ĠD enk
Ġyiy en
ĠaskÄ± ya
Ġdu alar
Ġart masÄ±na
Ġeser in
Ġfer t
Ġesas lar
dÃ¼ÄŁ Ã¼m
Ġbozukluk larÄ±
Ġstad yum
Ġmakin alarÄ±
å ı
ru h
omet ri
Ġar e
ĠÅŁah si
ĠmaÄŁdur iyet
T arÄ±m
Ġde de
C U
is s
ĠÃ¼rÃ¼n lerden
Ġbil an
ama mÄ±
ĠSiz de
yon un
Ġkar Ä±sÄ±
ada mÄ±
ĠB T
ĠdeÄŁer lere
Ġtezah Ã¼r
H izmet
tÄ±ÄŁ Ä±n
Ġcin sinden
Ġtemiz len
Ġhava dan
ĠS Ã¶n
Ġavantaj larÄ±
am Ä±ÅŁtÄ±r
D IR
ĠKaÅŁ Ä±kÃ§Ä±
tan siyon
eh ra
ti han
Ġedil ebilecek
ĠkonuÅŁ ur
Ġu laÅŁtÄ±k
k esi
ĠD EN
Ġmasa Ã¼stÃ¼
Ġman tÄ±ÄŁÄ±
r ok
ĠNak liye
Ġcas us
ĠBas k
ĠR ep
ĠI Ã§in
ĠKÄ±r gÄ±z
ic le
Samsun g
ist er
ĠÃ¶l dÃ¼ÄŁÃ¼
Ġdosy ayÄ±
Ġeser lerin
Ġal acaÄŁ
Î ±
Ġden iyor
tr y
ĠHam za
Ġbirik imi
ĠÃ¼z gÃ¼n
ĠulaÅŁ Ä±n
Ãĩ ocuÄŁ
Ġberaber e
Ġmed res
Ãľ Åŀ
Ġan h
d Ã¼nÃ¼z
ĠU f
F in
el em
ĠÅŀer ef
ĠgeÃ§ir erek
ĠY es
ĠkÄ±y amet
ĠNumar alÄ±
Ġproj elere
ĠateÅŁ i
eÅŁ ehir
ĠÃĸzgÃ¼r lÃ¼k
Ġistikrar lÄ±
Ġg Ã¼le
Ġnumar asÄ±nÄ±n
1 50
ÅŁ k
Ġber taraf
Ġdep osu
ĠhÄ±z Ä±nÄ±
Ġmiktar Ä±nÄ±n
Ġc ocuk
tur k
Ġel imde
ĠKÄ±rÄ±k kale
lÄ±ÄŁ Ä±mÄ±z
Ġgetir mesi
c ev
ĠMas aj
ĠBÃ¼yÃ¼kel Ã§isi
Ġy outube
ĠC Ã¼n
ĠateÅŁ e
ĠÃ¶nc esinden
ĠGÃ¶k Ã§e
in asyon
ĠF ed
ĠKal Ä±n
ĠÃ¶ÄŁrenciler imizin
ĠgÃ¼v eni
Ġyap Ä±cÄ±
ĠsÃ¶z leriyle
Ġbu da
ama mÄ±ÅŁ
Ġmimar lÄ±k
ĠtartÄ±ÅŁ maya
ĠiÃ§ecek ler
erk Ã¼k
ĠmaÄŁ ar
f urt
per tiz
Ġoluyor lar
ĠgerÃ§ekleÅŁ miÅŁtir
erk es
Ġcan avar
Ġpazar da
Ġbes lenen
ĠiÄŁ n
Ġak tarÄ±
ĠmÃ¼hendis liÄŁi
ledik Ã§e
ĠSa id
Ġark asÄ±ndaki
ic an
Ġak Ä±cÄ±
Ġsit elerine
Ġap tal
ĠsÃ¼t un
F utbol
ĠR ock
ĠÄ°ÅŁ i
Ġproj esini
F A
Ä°l Ã§e
ĠmÃ¼ÅŁter ilerinin
Ġistiyor du
ĠAr ena
meler inde
Ġak aryakÄ±t
Ġyar dÄ±ma
ĠRes mÃ®
ĠdoÄŁ ran
ĠA car
O tel
Ġ lu
ĠS lov
ĠAÃ§ Ä±lÄ±ÅŁ
ledi ÄŁim
ĠMu ay
ĠC ad
Ãĸ Y
ĠB UR
ĠP L
ĠB re
ĠT ro
ĠgÃ¶ster ilmiÅŁtir
ĠSem ih
ik ip
Ġel bet
Ġism iyle
Z iyaret
ĠyaÅŁ larÄ±nda
Ġk aka
am med
ĠH ic
Or du
Ġman uel
Ġp arkÄ±
ĠTat ar
malar dan
ĠGÃ¼zel lik
ekt eyim
Ġbank asÄ±
ĠtaÅŁÄ± yacak
p lay
ĠA mazon
Ã¼m cek
Ġtarz Ä±nda
m iyoruz
Ġkazan masÄ±
Ġik iz
ĠdeÄŁiÅŁtir en
B P
ĠKap Ä±sÄ±
Ġolmas aydÄ±
ĠÃ¼r etir
Ġokul dan
ĠiÅŁÃ§ ileri
ig n
ĠyaÄŁ lar
ĠDiler seniz
Ġkullan Ä±lamaz
Ġoyun larÄ±nÄ±
Ä°C Ä°
Ġhiss eder
Ġbank anÄ±n
ĠsaldÄ±rÄ± lar
M AK
Ġsu dan
ĠOD TÃľ
Ä±l makta
Ġsen edi
s ayÄ±
Ġv eteriner
ĠEmek lilik
K il
Ġhayat Ä±mÄ±za
l ali
ay nÄ±
b atÄ±
Ġs ilme
Ġplan lar
Ġo z
Ġtur izmi
Ġsistem lerinde
ĠtaÅŁÄ± dÄ±
ĠBil al
Ben ce
Ġpaz ara
ĠkulÃ¼b Ã¼n
il le
ĠTÃ¼rk istan
Ġkriz in
Ġist eyecek
bo ard
Ġdol gun
Ġtab anÄ±
ĠyayÄ±n lar
n ova
Ġmodel inin
esel a
Ġdil eÄŁiyle
ĠA let
rag on
K art
ĠT IR
Ġibr az
ĠbaÅŁk alarÄ±
mayan lar
Ġkurum larÄ±nÄ±n
iti on
B azen
Ġan ki
Ad alet
ĠÃ§alÄ±ÅŁ tÄ±klarÄ±nÄ±
Ġmah sus
ĠC omp
Ġsaat ten
ost al
Ġkalk tÄ±
we i
ĠulaÅŁ arak
ĠanlaÅŁ Ä±lÄ±yor
ĠTam ir
gar enk
ey ken
Ġbak acak
Ġoku mayÄ±
Ġdur up
inde x
ĠKer em
ĠÃ§ocuk larla
Ġmark asÄ±nÄ±n
ĠBab asÄ±
ĠyargÄ± lama
S tr
Ġrapor larÄ±
Ġinf o
ez e
Ġlav abo
ĠÃĩ erÃ§ev
Ġtazmin atÄ±
ĠBayrak tar
Pol is
Ġd um
ĠBer g
Ġif las
Åŀ im
Ġre el
ĠP DF
Ġedilm esinin
ĠFa iz
ĠNet work
AN T
R EN
ĠbÃ¼rok rat
ĠMis afir
ada yÄ±
ĠHastan e
ĠyaÅŁadÄ±ÄŁ Ä±m
cÄ± lÄ±ÄŁÄ±n
Ġtadil at
ĠÃ§Ä±k madan
ĠK oy
Ġt im
Ġisim lerden
k m
ĠiÃ§ ers
ĠkarÅŁÄ±laÅŁt Ä±ÄŁÄ±
ĠbuluÅŁ acak
p ark
Ġpas lanmaz
ĠkonuÅŁ urken
ĠÃ§alÄ±ÅŁan larÄ±na
ĠÃ§ek miÅŁ
ĠMer ve
ol d
ĠiÅŁlem lerinizi
ĠAra cÄ±
Ġay larÄ±
ĠKur ucu
ĠDan imarka
ĠRes taurant
Ġesas larÄ±
Ġedebilir iz
ĠÅŁiddet e
han esi
An n
ĠT FF
ĠsÃ¼r enin
ĠGÃ¼mÃ¼ÅŁ hane
Ġservis e
Ġal acaÄŁÄ±z
Ġdeng esiz
ĠZor lu
Ġyur tiÃ§i
Ġpan eli
ĠSig ara
tik lerini
ĠB af
V Ã¼c
ĠaÄŁ abey
eb ook
ĠEl de
ĠHal en
Tab ii
ĠMahall esinde
ĠÅŁ e
sik lop
Ġ: (
ĠkatÄ±lÄ±m cÄ±lar
Ġmensup larÄ±nÄ±n
ĠF o
ĠKut sal
ĠaraÃ§ la
ĠiÅŁlet menin
ĠD om
al li
ĠOf fice
Ġtem alÄ±
ĠW in
eÃ§h iz
ĠÃĸÄŁretmen ler
ĠkatÄ±lÄ±m cÄ±larÄ±n
Ġpsik olog
ĠAv cÄ±lar
Ġt ik
Ġgerek ecek
ĠDÄ±ÅŁ arÄ±
Ġsun mayÄ±
Ġsorun lu
ĠnÃ¼f usunun
ĠGÃ¼n Ã¼n
Ã§ Ä±lÄ±ÄŁ
ĠBr Ã¼ksel
is er
ĠBan g
ĠBet on
Ã¼v ey
Ä°Z MET
ĠF ur
Ġkontrol Ã¼nde
ĠyaÅŁat mak
ĠGEN EL
ĠKuÅŁ adasÄ±
ĠÃ¼ret ilmiÅŁtir
Ġzan net
ĠTÃľRK Ä°YE
ĠC O
Ġgol le
ber t
ĠbaÄŁÄ±mlÄ± lÄ±k
Ġap art
Ġyur d
Ġtraf iÄŁi
Ġkiral ik
Ġuz laÅŁ
ĠRes imleri
Ġkir eÃ§
land alÄ±
ĠyÃ¼kÃ¼mlÃ¼ dÃ¼r
Ãĸ yle
ĠYÄ±k ama
Ġsun ulur
ĠÃ¶ldÃ¼r Ã¼ldÃ¼
ĠaÄŁz Ä±ndan
ĠbaÅŁ bak
ekk ur
st rÃ¼k
oÄŁ az
ĠÃ¼retim in
Bay ram
ĠgeÃ§ir dik
la ÄŁÄ±
END Ä°R
ĠH ip
ĠAbdur rahman
ĠÃ§Ä±k tÄ±m
z ani
Ġdah ili
Ġgir me
Ġuc unda
ĠÃ¼retim ine
ĠhatÄ±rlat tÄ±
Ġyarat ma
ĠseÃ§enek lerini
l iyim
Ġm d
ĠÃ§evr esine
ĠAr Ä±
Y abancÄ±
Ġhav uÃ§
Ġdin ler
Ġtuz ak
Ġy uf
ph p
ĠM oÄŁol
ĠdeÄŁiÅŁ mesi
ĠHak im
alan masÄ±
Ġettir mek
ĠBen z
È Ļ
ĠyaÅŁ arken
Ġveriyor lar
ĠBaÅŁ kent
Ġetkil eyecek
ĠMart in
Ġtoplant Ä±sÄ±na
Ġfi ilen
Ġmateryal ler
Ġinan cÄ±
ĠMuh teÅŁem
Ġed ileceÄŁi
ĠKÄ±s aca
an lara
ĠLim anÄ±
Ġdur madan
ĠyÃ¼ksek lik
Ġmet n
Ġkok ulu
ÅŁ in
Ġgit meden
ĠdÃ¼zenlem eleri
Ġintik am
Ġatan dÄ±
Ul usal
Ġtahamm Ã¼l
ĠA san
ĠÅŁah sen
Ġekonom iye
Ġn iz
Ġef sun
Ġetik eti
Ġkadro muz
ĠgÃ¼n lerin
Ġberek et
et ooth
Ġder ne
h ep
ĠÄ°r landa
G elen
Ġbak Ä±nca
Ġr i
ĠdÃ¼ÅŁ me
ĠGÃ¶k Ã§
ĠsÃ¼n ger
ÃĩalÄ±ÅŁ ma
Ġboyut larÄ±
oter ap
Ġkadros unda
ĠSe x
ĠgeliÅŁmeler e
V ar
ĠgÃ¶tÃ¼r dÃ¼
sÃ¼z lÃ¼k
ĠKos ova
Ġsun muÅŁ
Ġyat kÄ±n
T BMM
Ä° Ãĩ
Ġdef ned
Ġm y
s Ä±r
ĠbÃ¼yÃ¼m eye
Ġyar amaz
ĠÃ¼cret in
ĠÅŁirket e
Ġtah lil
ĠA it
ĠanlayÄ±ÅŁ Ä±nÄ±
ĠCeza evi
ĠBaÅŁk ons
ĠgÃ¶z Ã¼nÃ¼
ĠYÄ±l lar
Ġt orun
Ġuy kusuz
ĠgeÃ§ iÅŁi
ĠMan avgat
ĠAnn em
os na
ma ÄŁÄ±
M en
Erz urum
Ġtut muÅŁ
Ġkar am
ĠanlaÅŁ Ä±lmasÄ±
ĠdoÄŁ duÄŁu
ĠsaÄŁlÄ±yor uz
ĠÃ§eyre ÄŁinde
V al
ĠyakÄ±ÅŁ Ä±r
di o
ul up
uy un
ic ek
ĠdÃ¼zenlen miÅŁtir
Ġak sak
pan ya
ĠmÃ¼ÅŁter inin
Ġihtiyac Ä±m
ĠT u
lÄ±yor du
Ġdo main
ĠKans er
ĠgeÃ§ meye
ĠkatkÄ± larÄ±
ĠP ers
ĠÃ¶ÄŁ leden
Ġkup a
ĠhavalandÄ±r ma
Ġdayan Ä±ÅŁ
Ġin en
Ġbel le
ĠAÄŁ Ä±z
ili ÄŁine
ĠBir incisi
Ġkelim esinin
S or
ĠkadÄ±n la
ĠGÃ¼r eÅŁ
Ġetkil edi
ĠS Ä°STEM
g Ã¶
Ġj el
Ġmek anlar
Ġ Ñ
Ġkal mayÄ±
Ġbiz lerin
ĠÃ¼niversit enin
Ġkat ta
for ma
ĠbirÅŁey ler
r iyat
ark i
Ġdis ip
ĠyÃ¶netim in
Ġgeril edi
Ġsak Ä±nc
alat a
umhurbaÅŁk an
Ġg Ã¼ce
lem eyi
ĠsÃ¶zcÃ¼ ÄŁ
Ð¾Ð ²
F Ä±r
Ġs usuz
k om
ĠkÃ¶ le
ĠgerÃ§ ektir
Ġmilyon a
ma malÄ±dÄ±r
ĠÃ§ek ilmesi
ĠR af
GerÃ§ ekten
ĠyÃ¶netim ini
ĠTim es
Ġkay Ä±n
Ġbun ca
j der
ĠAy kut
ĠgÃ¶nder erek
ĠS SK
Ġindir ip
mÄ±ÅŁ tÄ±k
On lar
ĠDem et
Ġgay ri
ĠAL T
Ġkorun ma
Ġb inden
Ġr ock
ĠÃ¶ÄŁretmen lik
ĠP lat
Ġiz ledim
Ġik isini
Ġazal masÄ±
Ġp es
Ġp usu
Ġgider ler
Ġort asÄ±na
? '
ĠhazÄ±r lÄ±klarÄ±
ĠSay Ä±sal
Ġdel eg
Ġkaynak lanÄ±yor
ĠsÄ±kÄ±ntÄ± larÄ±
Ġgr ip
ĠKoc aman
ĠuÄŁr amÄ±ÅŁ
abilecek siniz
ĠReh abilitasyon
ĠBo stan
Ã» d
ĠKurul unun
ĠDers i
diy se
Ã¼r Ã¼n
Ġ9 1
ĠbaÅŁk asÄ±nÄ±n
Ġbilin mez
me ga
Ġkonum landÄ±r
ĠÄ°ÅŁlet mec
ĠÃĩift Ã§i
or s
ĠkÄ±z larÄ±n
Ġs az
Ġm eg
ĠaynÄ± dÄ±r
Ġstandar d
Ġbil hassa
C am
Ġaday larÄ±nÄ±n
ĠForum u
ĠdÃ¼ny asÄ±nÄ±
ĠBak alÄ±m
ĠdÃ¼zen e
ĠbaÅŁlan mÄ±ÅŁtÄ±r
ĠyÄ±l an
Ġok unan
Ġb ezi
ĠAr zu
ĠtasarÄ±m cÄ±
Ġkapat Ä±p
Ġmetabol iz
ar Ä±n
ĠiÅŁyer inde
Ġdayan Ä±r
Ġkayb eder
Ġmotiv e
ĠyaÅŁan acak
ekk ep
ĠCumhurbaÅŁkan Ä±mÄ±z
Ġkol tuÄŁu
Ġsunmak tayÄ±z
Ġsen ede
ĠN Ã¶
ĠeÅŁ deÄŁer
Ġgid iyorum
Ä°n giliz
Ġgen cin
ĠÃĩ oban
ĠÅŁah sÄ±n
Ġmev z
Ġsonsuz a
ar p
ĠH en
6 00
Ġken te
ĠgÃ¶tÃ¼r Ã¼r
ĠdÃ¼ÅŁÃ¼nm Ã¼yorum
Ġfor vet
Ø ³
lama dÄ±
ĠmÃ¼cadel esini
Ġanlat tÄ±ÄŁÄ±
Ġat tÄ±m
200 1
ĠÃ¶rgÃ¼tÃ¼n e
Ġter as
Ġmemlek eti
Ġm ur
ĠsÄ±nÄ± fa
Ġsamim iyet
Ġart mÄ±ÅŁ
ĠBÃ¼r osu
ĠKon yaspor
ĠkaÃ§ Ä±ÅŁ
Ġarayan lar
ĠoluÅŁtur acak
ati ons
ĠhazÄ±r ladÄ±
ĠyÄ±l ki
ĠÅŀ air
Ġbah ane
YukarÄ± daki
ĠKork maz
Ġam c
ĠanlaÅŁ malÄ±
gin Ã§
ĠVol eybol
EH Ä°R
ĠSe dat
Ġkrit erler
ĠoluÅŁ masÄ±na
iy ade
ol un
Ġsun umu
Man isa
Ġsebep leri
Ġip lik
Ġdoktor lar
ĠÃ¶den ecek
Ġdeng esini
Yal nÄ±z
Ġbaz da
Ġg am
ĠArjant in
ek Ã¶y
B R
ĠÄ° LE
ĠYah ya
ĠyÃ¼z Ã¼nde
Ġin ovasyon
Ġetk isinin
Ġgit tiÄŁimiz
Ġ198 7
Ġbenim sen
ĠR ay
ĠdÃ¶nem inden
Ä±m daki
oÄŁ a
Ã® s
ĠbaÄŁlam Ä±nda
ĠÃ¼zer ini
ĠkÄ±sÄ±m larÄ±
em emesi
Ġdil in
ĠÅŁub esi
ĠMuham met
ĠgÃ¶ster ilir
ĠMut f
ĠErg enekon
ĠSek s
Ġd aki
ĠgeliÅŁ mesine
Ġsoy kÄ±rÄ±m
ĠN okt
ĠkarÅŁÄ± lay
ĠH ome
Ġtas fiye
Ġis raf
Ġtan Ä±r
iliyor du
Ġhaft asÄ±
ĠSorum luluk
ĠiÅŁ inizi
ĠAr Ã§elik
Ġokun masÄ±
ĠÃ§ alar
ulacak tÄ±r
ĠÃĸ lÃ¼
ĠArkadaÅŁ lar
ĠH Ã¢
ĠVÃ¼c ud
Ġy in
g Ä±m
aÄŁ Ä±mÄ±z
Ġfaydalan mak
ĠH ilmi
r ev
lat Ä±n
ĠHat tÄ±
Ġkan unu
G A
Ġhesap lanÄ±r
H emen
ĠHalk la
Ġf laÅŁ
ĠÃ§oÄŁ unun
Ġmuk av
Ġerkek leri
Ġyap Ä±lÄ±p
S istem
ĠÃ¶l mÃ¼ÅŁ
ĠgerÃ§ekleÅŁ tiÄŁi
ĠY AZ
Ġyum ruk
ĠÃ§ Ä±t
Ġil mi
ti hat
Ġsak lama
Ġolay dan
Ġev inize
ĠkarÅŁÄ±laÅŁtÄ±r ma
D el
Ġla st
Ġhisset tim
lem eleri
ĠyapÄ±l malÄ±
Ġkarakter ini
ĠDav et
Ġfa izi
Ġsalon da
ĠAk Ä±l
ĠKor kut
Ġail eye
ĠÃĩaÄŁ layan
ĠFar s
ĠÃ§Ä±kar arak
ĠtÃ¼ket iciler
ĠR enault
ĠdÃ¼zen lenir
b ack
Ġincelendi ÄŁinde
Ġz at
ĠÅŁu ur
ĠaÃ§Ä±kla dÄ±ÄŁÄ±
Ġhayat Ä±nÄ±zda
Ġark asÄ±
Ġedilm eye
n ut
ĠAl l
ĠfÄ±r tÄ±na
ak ta
Ġtep s
ĠdeÄŁiÅŁim e
ĠMa alesef
is iyat
ĠsaÃ§ lar
it aban
ĠY edi
Ġan estezi
Ġbelir leme
ĠResul ullah
Ġtan Ä±ÅŁtÄ±r
Ġart tÄ±kÃ§a
Ġkop yal
Ġuygu layÄ±n
ĠÃ¶ÄŁren en
V ali
Ġservis leri
Ġpaket leme
ĠyÃ¼rÃ¼y erek
ĠtÃ¼r Ã¼ne
ĠÃ§evr ili
Ġhalk Ä±mÄ±zÄ±n
Ġkut luyorum
ĠeÅŁy alarÄ±n
Ã¼m r
ĠP oÅŁ
ĠÃ§ar ÅŁÄ±
Ġhayat Ä±mda
ak er
iliyor sunuz
Ġmanz arasÄ±
Ġkan alizasyon
ĠDanÄ±ÅŁ manÄ±
c ess
Ġkons olos
Ġon ca
ĠdeÄŁerlendir meye
Ġasker lerin
ĠS AÄŀ
ĠÃ¼stÃ¼n lÃ¼k
Ġkost Ã¼m
ĠL o
ĠÃ¼n itesi
ĠkarÅŁÄ±laÅŁ Ä±lan
Ġver giler
ĠGol d
Ġtem enn
ĠÃ¶den ek
ĠgeÃ§ tim
Ġyan ma
ĠmaÃ§ lar
ĠPolitik asÄ±
Ġf iber
Ġdedi ÄŁini
v es
ĠÄ°Ã§er ik
Ġgel me
ĠHrist iyan
Ġnokt ayÄ±
mahal le
Ġokum uÅŁ
ĠeÅŁ cinsel
ĠiliÅŁk iyi
ĠH Ä°ZMET
ĠaÃ§ maya
Ġ2 20
Ġm Ä±ydÄ±
ĠÃ¶lÃ¼m Ã¼nden
Ġsoy un
id im
Ã¼nÃ¼z Ã¼n
Ġbak la
Ġsabah Ä±
ros k
Ġbulama dÄ±m
S ultan
ĠOl mak
Ġdemir yolu
Ġh ekt
s ub
Ã¼v ekk
ĠTemiz liÄŁi
Ġuygulan maktadÄ±r
ik lik
Ã¶l Ã§
Ġdevlet lerin
dÃ¼r Ã¼lebilir
Ġbur alarda
ĠEs ra
T icaret
Ġan ormal
ro z
Ġuygun luk
ĠDo larÄ±
ĠE ÄŁit
Ġak Ä±mÄ±
k Ä±s
uÅŁt a
Ġokun du
olog y
Ġkah ramanÄ±
ĠÃĸnc esi
Ã¼yor lar
c us
b re
Ġizley erek
Ġbir iyim
Ġtak Ä±n
eb ildiÄŁi
Ġkilometr elik
C H
Ä±m larÄ±
Ġbul masÄ±
ĠilÃ§ enin
Ġbor sa
Ġter api
** *
c iye
Ġkullan Ä±cÄ±sÄ±
let me
Ġbecer ilerini
Ġtopr aÄŁÄ±
Ġsefer leri
Ġkadro ya
Z eytin
ĠA LI
c Ã¼m
ol f
Ġdem eden
lo ud
Ġdown load
ĠKÄ±r klareli
ĠV AR
ĠEngel li
Ġr end
Ġengel leyen
Bil gi
ĠK ub
Ġod un
Ġtep e
ot ok
ĠtaÅŁ Ä±nÄ±r
Ãĩ ift
ç ¥
ĠyÃ¶netmen liÄŁini
ĠarttÄ±r Ä±r
m p
uy o
ĠÃ¶dÃ¼l lÃ¼
ĠN O
ĠOr al
ĠyaptÄ±ÄŁ Ä±nÄ±zda
Ġdir i
ĠmÃ¼dÃ¼r leri
g es
ĠÃ¼r eme
ĠSah af
v en
lili ÄŁine
Ġaltyap Ä±sÄ±
li e
ĠYalnÄ±z ca
alÄ±ÄŁ a
Ġtut tuÄŁu
ĠkÄ±z art
iy miÅŁ
ĠTar sus
ĠayrÄ±l mak
Ġpark e
ĠParla ment
Ä±n dak
b adem
BÃ¼yÃ¼k ÅŁehir
Ġayr Ä±ÅŁtÄ±r
ĠiÅŁlem ine
Ġgazetec ilerin
Y T
ĠuÄŁraÅŁ an
siz liÄŁi
oh um
ĠneÅŁ eli
Ġbat arya
Ġs ilikon
ĠÃ¼ret ken
Ġiy iydi
Ġyen erek
ĠM esih
Ġz av
Ne w
H DP
ĠsÃ¼r eler
Ġsem pat
Ġmalzem enin
ĠbaÄŁlantÄ± larÄ±
Ġordus unun
ĠhatÄ±r a
Ã¢n Ã®
Ġaj ansÄ±
Ġbeklent ilerini
Ġend Ã¼stri
ĠsÄ±y r
isi dir
ĠOl sun
âĦ ¢
ĠgÃ¶nder ir
Ðµ Ð½
ĠsÃ¼r erken
Ä± Ä±
ĠH AY
Ġizley ici
ĠD osya
ĠiÅŁ inde
Ġuyg ar
k adÄ±n
Ġst op
Ġol malÄ±sÄ±nÄ±z
Ġil mek
Ġrady asyon
Ġpozisyon u
ĠkarÅŁÄ±laÅŁ acak
ikil oc
ua wei
ĠUn iversit
Y P
ĠbÄ±rak mÄ±ÅŁ
Ġister ler
rem it
ĠÃ§ek ecek
ĠT il
Ġrahat lÄ±ÄŁÄ±
b Ä±
ĠhÃ¼kÃ¼m dar
ĠkÄ±ÅŁ kÄ±r
ag en
Ġkavram larÄ±
ulma malÄ±dÄ±r
http s
D ep
ĠÄ°m alat
Ġmuht elif
S avaÅŁ
Ġkalit eyi
Ġg af
Ġklav ye
ĠgÃ¶z Ã¼yle
Ġbir isinin
K Ä±ÅŁ
Ġyapabilir im
Ġvar lÄ±klar
Ġp ut
Ġkat an
ĠgerÃ§ekleÅŁtir ilir
Ġekip lerince
u u
Ġtut tuÄŁ
Ġli beral
F T
ĠS oma
Ġkomb ine
Ġpat layÄ±cÄ±
ĠiÃ§er isinden
T al
ĠiliÅŁk inin
ĠyoÄŁun laÅŁ
ĠseÃ§im lere
alÄ± cÄ±
ĠÃ§ift lik
Ġteknoloj iye
ĠS adÄ±k
ĠÃ§alÄ±ÅŁ Ä±lan
Ä°N CÄ°
ler imin
Ġkarar la
Ġistek lerini
Ġg ran
Ġboy an
ĠyaÅŁama yÄ±
Ġsor usunun
ĠKil o
Ġson da
Ġbulun maz
Ġist ir
ĠkÄ±skan Ã§
Ġuygulamalar Ä±nÄ±
Ã¼ley ici
ĠÅŀehir ler
Ġortak lÄ±ÄŁÄ±
Ġav rupa
G UL
Ġn etice
ĠH Ã¼lya
ĠkÄ±z a
Ġyapmak tayÄ±z
OR T
Ġyapar Ä±z
Ġhizmet inizde
ĠÃ¶mr Ã¼nÃ¼
ĠAy ar
ĠvatandaÅŁ larÄ±mÄ±z
Ġkes en
uÃ§ uk
Ġmahall esinde
Ġdir enc
ĠdeÄŁerlendir ilir
M uÄŁla
ĠLin ux
Ġyol larda
emez ler
Ġvaziyet te
ĠHav uz
ad y
Ġmis ali
Ã¢ ni
l ist
ĠL uc
BÃ¶yle ce
Ġl iteratÃ¼r
ĠKul ak
ĠM Ã¼lk
Ġak abinde
Ġsis tematik
Ġama ca
Ġhizmet lerinde
ĠalÄ±n maktadÄ±r
b asyon
ĠÃĸ k
ĠÅŁÃ¶ len
ĠFaz Ä±l
Ġo g
ĠyÄ±l Ä±ndaki
ĠNef es
Ġgergin lik
Ġolacak lar
ĠmÃ¼cadel esinde
R ek
Ġsebep lerden
ĠbaÅŁlangÄ±Ã§ ta
ĠdeÄŁiÅŁ mez
Ar ap
ĠÃ¼stÃ¼n lÃ¼ÄŁÃ¼
Ġyal var
KiÅŁ isel
Ġtali matÄ±
Ġol im
ĠrahatsÄ±z lÄ±ÄŁÄ±
Ġfilm e
ĠDo landÄ±rÄ±cÄ±
r un
Ġbir a
ĠgeÃ§ir me
Ġedildi ÄŁinde
Ġk okt
ĠÅŀirket in
Ġdiplo matik
ĠUygula masÄ±
Ġkategor i
ĠÃĸÄŁren me
Ġkes iÅŁ
ĠÃ¼z Ã¼nt
ĠsÄ±z dÄ±r
G Ä°
Ġyan daÅŁ
ĠhÃ¼cr eler
Ġon larda
Ġot eli
Ġ198 2
ĠtaÅŁ lar
Ġab lam
Ġel leri
ĠayÄ±r mak
Y as
ĠL akin
ĠdeÄŁiÅŁtir erek
ola p
ran Ä±ÅŁ
ĠkÄ±s acasÄ±
Ġkam usal
Ġkur up
ĠSit emizde
ĠZ en
Ġy udum
S ab
ĠaÃ§Ä±k lar
ĠC enk
ĠN ov
ĠboÅŁ una
ĠBr un
Ġayr Ä±mÄ±
ĠyanÄ±t Ä±nÄ±
ĠsaÃ§ larÄ±
Ġmal esef
ent s
Ġfil ozof
Ġuygu lay
ĠdaÄŁÄ±n Ä±k
m uh
lÃ½ k
ĠH isar
Ġbuzdolab Ä±
ĠT Ã¶ren
Ġman ev
ĠgÃ¼c Ã¼n
M P
ĠVen edik
t Ä±ysa
Ġv ekili
Ġas istan
Ġsayg Ä±yla
ĠT AN
ĠgÃ¶nder en
Ġ198 8
ĠÅŁart lara
Ġhukuk un
Ġip hone
b or
. ]
Ġil la
ĠparÃ§ acÄ±k
ĠDÃ¼nya daki
SeÃ§ im
Ġil Ã¢h
iv a
ob et
Ġhal indeki
ros s
ĠgÃ¼nde mi
Ã¼z zaman
Ġtahakk uk
ĠAl ma
ĠhastalÄ±ÄŁ Ä±nÄ±n
S e
ĠKar tÄ±
Ġkab ak
Ġlok asyon
ĠÄ°r fan
ide m
ĠMey ve
Ġkurum larÄ±nda
LÄ° ÄŀÄ°
ĠM B
ĠsanatÃ§Ä± lar
Ġa idat
ĠÅŁ ant
Ġbilm eden
ĠseÃ§ tiÄŁiniz
Ġstat Ã¼
Ġbil imi
ĠFer hat
Ġkim liÄŁini
O f
BalÄ±k esir
ĠK e
Bir az
ĠÃ¶lÃ§ ek
ĠdÃ¼ÅŁÃ¼n meden
ĠalÄ±ÅŁ veriÅŁi
abil ecektir
ĠA lem
Ġb oks
AL IÅŀ
ĠD osy
b l
ilece ÄŁimiz
ĠdeÄŁerlendir meler
ĠÃĩar p
Yer el
Ġyenilik ler
Ġzek Ã¢
Ġhaf tadÄ±r
ĠgerÃ§ekleÅŁtir ecek
ĠSorum lusu
ĠÅŀ afak
ez yum
ĠSab ri
ĠI ÄŁdÄ±r
ĠsektÃ¶r Ã¼ndeki
Ġhesab Ä±nÄ±za
ĠiÅŁken c
mesi dir
doÄŁ ru
la dÄ±klarÄ±
in an
Ġsporcu lar
TM L
Ġar adÄ±m
ĠÃ¶ÄŁren miÅŁ
ĠuÃ§ ur
uv er
ĠtÃ¶ren de
o larÄ±
Ġyakal adÄ±
ĠDoÄŁal gaz
Ġister dim
Ġeylem leri
ĠÅŁub at
Ġsec de
Ġf Ä±s
opar lÃ¶r
Ġduy duÄŁum
Ġfant astik
Ġhaz ir
Ġim tihan
Ġayar lar
ĠJo se
ĠbÃ¼yÃ¼k ÅŁehir
Ġ10 1
Ġdestek liyor
ĠSn ap
ĠtÃ¼c car
es te
ĠRe is
ĠS ezer
ĠÃ¶n leyici
op si
ĠL CD
Ġter tip
Ġayr Ä±lmasÄ±
ĠKul Ã¼b
ĠS icil
ĠAl Ã¼minyum
ĠaraÃ§ ta
ede b
Ġpsik oloj
Ġiz leri
R C
otos hop
Ġmal Ä±n
r eni
OL OJ
Ġf lash
Ġduy duklarÄ±
ĠAngel es
ĠDes te
ĠÃ¶ÄŁ len
Ġard Ä±na
Ġsahip liÄŁinde
ĠFeder al
ĠÅŁamp uan
ĠyarÄ±ÅŁ maya
ĠyanÄ± tÄ±
ĠaÅŁaÄŁÄ± dakilerden
ni a
sel en
Ġgez ilecek
H ast
Ġmasraf larÄ±
Ġbir araya
Ġdav ul
Ġkur ar
Ġk uzu
ĠbuluÅŁ uyor
ĠBazÄ± larÄ±
anlÄ±ÄŁ Ä±na
Ãĩ evre
Ġkir acÄ±
E mek
Ġj et
ĠUy gur
Ġhapis han
ĠT ech
ĠSalon unda
Ġsay Ä±labilir
m uyorum
ĠgÃ¶ster ildi
Ben de
d v
ĠarkadaÅŁ Ä±nÄ±n
ĠÃĩÄ±k Ä±ÅŁ
Ġm Ã¼slÃ¼m
Ġbak ma
Ġsistem li
Ġmodel in
ĠF ri
Ġtemel li
ĠkapÄ± lar
ĠGÃ¶rev lisi
Ġantik a
D ers
ĠÅŁekil leri
Ġtest ler
Ġg u
Ð ²
ĠgÃ¼ney inde
Ä±ÄŁ Ä±n
D on
Ġay Ä±k
ĠAn talyaspor
Ġhast alara
ĠÃ§ alÄ±
Ġkor e
Ġyaz lÄ±k
ĠyÃ¼rÃ¼t mek
?? ?
duÄŁunuz da
sel am
Ġaray abilirsiniz
ĠyaÅŁÄ±nda yken
Ġdesen li
ĠgÃ¶nder ilmesi
ĠyazÄ± ya
Ġdub laj
ĠoluÅŁtur ulur
ĠgÃ¼zel ce
Ġkitab Ä±nÄ±n
p ara
ab Ä±n
ef abrik
Ġklav y
Ġkend imiz
Ġtah Ä±l
m Ã½Ã¾
ĠgeniÅŁ liÄŁi
ĠSur iyel
ĠM eb
ĠMÃ¼ÅŁ avir
A dam
ĠbÃ¼yÃ¼k el
ĠayrÄ± larak
ĠoluÅŁtur maya
ĠbazÄ± larÄ±nÄ±n
ĠÃ¶dÃ¼l leri
Ġterey aÄŁÄ±
ĠD Ä±ÅŁÄ±
uma ÅŁ
ĠPsik olojik
Ġbay i
ĠdeÄŁiÅŁik liÄŁe
ĠKeÃ§ i
ĠÃ§ab alarÄ±
Ġa di
ĠF M
ĠyapÄ±l makta
ĠMÃ¼ÅŁt eriler
Ġmillet inin
Ġdestek lenen
ĠS aman
Ġbul unup
ĠKap tan
Ġv eli
ĠarkadaÅŁ larÄ±yla
Ġsayf amÄ±zda
elendir me
ĠmÃ¼f redat
ĠolduÄŁ un
ĠOk yan
ĠdÃ¶n erek
ĠilÃ§ esinin
ĠkarÅŁÄ±laÅŁt Ä±
ĠyaÅŁ tan
Ġtablo da
ĠÃ§Ä±rp Ä±n
ĠKab lo
Ġrakam larÄ±
ĠkaldÄ±r Ä±lan
Ġdeniz in
P U
Ã¼r et
Ġorgan larÄ±
Ġbit iÅŁ
ĠgeÃ§ mesine
Ġhedef lerine
s Ã¶rÃ¼
ĠÃ¼y elerinden
ĠJe an
Ġdeneyim ini
Ġh ile
ĠSÄ±r bistan
ĠgÃ¼b re
Ġof f
ĠÃ¶ÄŁretmen in
GÃ¼n lÃ¼k
ĠyÄ±ldÃ¶n Ã¼m
ay e
Ġyasak tÄ±r
ĠF IFA
Ġdur u
____ ____
Ġse o
Ġtakv iye
Ġkir liliÄŁi
Ġkal mamÄ±ÅŁ
ĠFi dan
ĠÃĩ atÄ±
Ġver eceÄŁini
Ãľ T
ĠsaÄŁla ya
ĠK OSGEB
ĠLim an
Ġhuz uru
v az
ĠÃ¼lk elerinden
ĠÃľlk emizin
Ġher gÃ¼n
Ġter temiz
ĠMÃ¼k emmel
Ġt iÅŁÃ¶rt
ĠgiriÅŁim cilik
Ġtop luluÄŁu
Ġdemokras inin
Ġotel lerde
Ġr Ã¼ÅŁvet
ĠC hi
ĠdeÄŁer lerine
Ġistiyor dum
Ġkiral amak
Ġbilgisay ara
ho mas
Ġail esini
C K
ĠV il
ĠBakanlÄ±ÄŁ Ä±na
. ),
Ġfikr ini
ĠM AL
G ar
ĠasÄ±l lÄ±
P ort
S arÄ±
Ġetm emiÅŁ
Ġer dem
Ġkes ilir
Ġrisk leri
ĠÃ§oÄŁ unu
Ġis hal
Ġ197 4
Ġhusu sta
Ġbelir sizlik
Ġsit elerinden
ĠÄ° negÃ¶l
ĠSev giler
Ġbedel inin
az in
Ġd antel
Ġgel mesiyle
Ġkor uyor
ĠÃ§Ä±kar sa
ĠÄ°lan Ä±
S tar
ĠT Ä±r
ĠfÄ±r Ã§a
et ti
Ġak Ä±
Ġharek at
ken d
Ġben t
Ġbek leyin
ĠaraÅŁtÄ±r malarÄ±
Z aten
Ġbay aÄŁÄ±
ĠÃ§eÅŁit liliÄŁi
ĠÃ¶rt Ã¼sÃ¼
ik ten
ĠsÄ±r rÄ±
Ġsit enizin
Ġez an
iy seniz
ĠyaÄŁ Ä±ÅŁÄ±
ĠÃ¼z Ã¼cÃ¼
Ġdet erj
Ġenj eksiyon
ĠEt ti
ĠF al
ĠiliÅŁk ilerinin
osman paÅŁa
ĠaÅŁa masÄ±na
00 00
Ġisim lendir
ĠbaÄŁ lar
Ġah lÃ¢k
Ġtaraf tarÄ±
ĠsaÃ§ lÄ±
P A
e et
dur ma
ĠhazÄ±r da
Ġtamam Ä±na
Ġsevin dim
Ġgerek lilik
Ġ0 50
Ġpar asal
Ġtan Ä±yor
T at
ĠbaÅŁ Ä±ndaki
Ġkabul Ã¼
Ã¶zel likle
Ġyenilen ebilir
Ġkut ladÄ±
Ġmevki inde
oh ut
×Ĺ×Ĺ ×Ĺ×Ĺ
ĠyeryÃ¼z Ã¼nde
tin a
Ġturist lerin
lama yacak
ĠÅŀ eri
ĠgerÃ§ek le
ĠmÃ¼dÃ¼r lÃ¼ÄŁÃ¼
ĠyapÄ±l maz
Ġm enkul
Ġkullan Ä±p
Ġdavran Ä±ÅŁÄ±
ramv ay
Ġl ob
Ġedecek lerini
Ġtey z
ĠkatkÄ± lar
ĠSov yetler
S enin
Ġgerek Ã§esi
Ġkarakter ler
tal ay
po ol
Ġser Ã¼ven
Ġkay bolan
ĠkarÄ±ÅŁtÄ±r arak
Ġduy duÄŁumuz
Ġkonu ÄŁu
w eb
ĠÃ§ocuk larÄ±mÄ±z
Ġskan dal
de ce
ĠP aÅŁ
Ġslogan Ä±yla
Ġmev duat
Ġhizmet inde
ĠÃ¼niversit elerin
C Ãľ
Ġev ini
ĠL oto
ĠdanÄ±ÅŁman lÄ±ÄŁÄ±
ĠkoÅŁul larÄ±nÄ±
Ġn af
d k
ĠEr gen
Ġbin ada
ĀĀ ĀĀ
ih at
Ġbar Ä±ÅŁÄ±
Ġ `
ĠBayan lar
Ġzarar larÄ±
ĠSÃ¼r esi
ĠÃ¼lkemiz deki
it me
Ġben di
Ġtarih lerde
Ġtamam layarak
ĠOtel leri
Ġ5 000
ĠaÃ§Ä±lÄ±ÅŁ Ä±nÄ±
ĠdeÄŁil ler
Ġlezz eti
ĠG Ã¼cÃ¼
ĠaraÃ§ larla
ti ca
ebilece ÄŁimiz
ĠÃ¼ret meye
ĠmÃ¼zi ÄŁin
Ġtek el
Ġkab Ä±z
ĠHey eti
ĠsanÄ± ÄŁÄ±n
Ġolas Ä±lÄ±ÄŁ
ĠR iz
El bette
ĠYap rak
ĠYÃ¶net icisi
Ġkaf asÄ±nÄ±
ĠY alan
ĠEr han
ĠdeÄŁiÅŁtir di
ĠMez un
Ġistem ektedir
Ġpen is
ou ch
ĠÄ°lÃ§ esinde
ĠyapÄ±l dÄ±ktan
t anÄ±
ak tadÄ±r
ĠM elik
ĠSÃ¶z ler
ĠSaÄŁ lam
Ġsalon larÄ±
Ġfaaliyet te
Ġb odrum
lay t
ĠM ES
Ġist ersen
f iyat
Ġedin miÅŁ
ĠÃ¶zgÃ¼r ce
ĠÃ¶n ler
M ASI
ĠÃ§evr im
ĠyÃ¶n lendirme
Ġp rat
ĠyapÄ±yor sunuz
ĠMÃ¼dÃ¼rlÃ¼ÄŁ Ã¼nÃ¼n
ĠsÄ±nÄ±f Ä±nÄ±n
Ġer g
ĠmaÃ§ Ä±na
Ġ10 5
M EN
M urat
ĠÅŀ uan
ĠanlaÅŁ Ä±lmaktadÄ±r
ri ca
Ġtas avvuf
an ma
ĠiÃ§ lerinde
ĠD N
mis iniz
ĠKral lÄ±k
edi Ã¼zzaman
ĠK ES
ĠBil ge
Ġtem bel
( )
re at
ĠFÄ±r Ä±n
ĠÃ¶ g
ĠS uyu
ĠEÄŀÄ°T Ä°MÄ°
ast ro
ĠdÃ¶nÃ¼ÅŁ Ã¼r
Ġkesi p
Ġev imde
r ic
Ġger isinde
ĠDok uz
Ġh it
Ġgez en
Ġr ezil
Ġb Ã¶r
ĠKÃ¶ se
ĠarkadaÅŁ larÄ±n
land iya
layabilir iz
Ġin ek
ĠaraÃ§ larÄ±nÄ±
ĠSib el
Ġr ap
Ä°N Ä°
ĠparÃ§ al
Ġdes em
Ġz il
Ġver meniz
Ġasker in
ie w
Ġyap sÄ±n
ĠL at
Ġhuzur unda
Ġuyar Ä±sÄ±
ĠOrta okul
Ġlek e
E b
Ġma gaz
Ġprot ez
Ġ10 80
ĠAl tan
Ġplatform da
Ġkorun mak
Ġger eÄŁini
Ġkar tal
on der
ĠMev zu
Ġmar if
ĠkÄ±y Ä±sÄ±nda
Ġf lor
Ġgerekir ken
ĠoluÅŁtu ÄŁu
ĠB eb
ru Ã§
ĠYap an
Kah raman
Ġma ma
ĠÅŀeh rin
ĠM Ã¼c
Ġfaaliyet lerin
ĠyatÄ±rÄ±m cÄ±lar
ĠÄ°lk okul
Ġedece ÄŁiniz
ord s
ĠbaÄŁ lanan
Ä±r sanÄ±z
Ġdil imi
Ġg asp
Ġkaynak larÄ±nÄ±
Ġerk eÄŁi
Ġlist eye
Mod ern
Ġkalit esinde
isk Ã¼v
Ġtemiz lemek
Ġetm ediÄŁi
Ġ198 4
Ġmuv af
ĠKent sel
ĠartÄ±r an
Ġbildir i
Ġat Ä±lmasÄ±
Ġtut uÅŁ
ĠkÄ± lar
Ġkapat tÄ±
day et
Ġpazar lÄ±k
Ġaksesuar larÄ±
ĠKal b
ĠPan el
ĠS aha
ing le
Ä±y Ä±k
Ġem sal
Ġtal ip
ĠbÃ¼ny esindeki
Ġverm ekten
ĠreÃ§ et
En d
ĠYar atÄ±cÄ±
Ġyar ayan
ĠSer gi
ĠÃĩub uk
ĠmÃ¼ hendisi
ĠdeÄŁerlendir mesinde
ĠHalk Ä±n
Ġelekt ri
ĠH Ã¼r
ĠAn i
Ġrapor unda
Ġtakib en
Ġkoy ma
Ġtoplan masÄ±
Ġdir ektÃ¶rÃ¼
ĠÃĩ ekil
Ġdok unun
Ġadap te
Tem el
t t
ok al
ĠgeÃ§miÅŁ ten
d ullah
Ġtas lak
Ġev lenme
eg en
C AN
ĠyatÄ±rÄ±m larÄ±n
ĠBaÄŁ cÄ±lar
ĠÃ¼rÃ¼n lerinde
Kr edi
Ġsekret er
d inin
ĠmÃ¼ÅŁt erek
ad iye
ĠHerk ese
ĠÄ° TÃľ
Ġmekt ub
ĠsaÄŁ landÄ±
Ġneden ler
Ġvek alet
Ġor gaz
Ġer otik
ĠÃ§orb asÄ±
ĠBu h
Ġkon fer
ĠF Ä±ndÄ±k
ĠgeÃ§ir iyor
Ġsiyas eti
Ġistem iyoruz
ullah Ã§Ä±
K ut
ĠyaÅŁam Ä±na
ĠyatÄ±rÄ±m cÄ±larÄ±n
Ġazalt Ä±lmasÄ±
ĠJ ava
it enin
Ġbr Ã¼t
ĠKeÅŁ ke
ĠBek len
Ġtut acak
ba a
Ġaktar ma
Ġpeyn iri
E A
ĠgÃ¶ster diÄŁini
Ġzengin leÅŁtir
imiz dir
Ġokul lara
Ġbin asÄ±nÄ±n
ĠgÃ¶rÃ¼l meye
la tÄ±cÄ±
ĠAl lÃ¢h
Ġbirbir imize
Ġist eyebilirsiniz
ĠyolculuÄŁ a
En erji
E X
Ġzirv eye
ĠhÃ¼r met
ĠEser leri
Ġyatak ta
ĠSÄ±r a
Ġm Ä±sÄ±n
S iyah
Ġdik en
Ġimz asÄ±
Ġtok at
B AÅŀ
Ġetk iye
iÅŁ sel
Ġetm emek
ĠYen ilik
Ġhas tal
ĠEr bakan
ot on
Ġbulunma masÄ±
Ġmilyon dan
ink o
Ġdemok rat
tiy az
ĠgÃ¼ven de
ĠIn tel
ĠM ih
Ġcinsel lik
ĠÃ¶n yar
Ġor kest
Ġver ebilmek
Ġetmektedir ler
ĠKal dÄ±
M aÃ§
Ġkart on
V ak
ĠÃ¼st Ã¼nden
Ġkarab iber
Ġp alet
Ġdin let
Ġduv arÄ±
ĠkullanÄ±l malÄ±dÄ±r
o e
Ä°N DE
ĠÐ ²
ĠyapÄ±m Ä±na
Ġkit aba
Ġpsik oloji
Elekt rik
k g
ĠÃ¶rgÃ¼t lerinin
ĠbaÅŁ Ã¶rt
ĠhazÄ±r layÄ±p
ĠGÃ¶r mek
ĠÃ§aÄŁ Ä±n
Ġek osistem
Ġkonse p
dÃ¼k siyon
Ġtop layÄ±p
ĠÃ§eÅŁit lilik
Ġod alarÄ±nda
Ġn elere
ĠÅŀ irin
Ġmutab akat
siz ce
ir me
Ã¼m s
Ġpat lat
Ġalacak larÄ±
Ġisten iyor
Ġtop lar
y aÅŁÄ±
Ġo ut
Ġdenk lem
ĠaÄŁaÃ§ larÄ±
G ece
ĠÃ¶ÄŁren ir
Ġc ansÄ±z
ĠR oy
ĠDÃ¼zen li
at ch
em an
m Ã¼z
anlÄ± lar
Ġediyor sanÄ±z
ĠL ap
ĠKiÅŁ inin
Ġmam ul
ort is
ĠÃĸ den
Ġvar Ä±ÅŁ
unuz la
ĠYap Ä±lÄ±r
BaÅŁk a
Ġinc eler
ta in
ĠEsen yurt
Ġdiren ci
Ġneden ini
y ur
al Ä±nÄ±n
Ã¾ Ã½
Ġsep et
Ġp Ã¼f
ĠgÃ¶r meden
ĠalÄ±n mak
Åŀ ah
or f
ĠgÃ¶tÃ¼r en
Ġaday lÄ±ÄŁÄ±
ĠdolaÅŁ an
ece ÄŁin
ĠBab am
ĠgiriÅŁim inin
ĠfÄ±r lat
ĠÃ§ift Ã§i
ĠgÃ¶rev liler
ĠKad ro
gr ad
ÃľL T
ĠkÃ¼Ã§ Ã¼lt
Ġzehir li
Ġhayat Ä±mÄ±zda
Ġlisans lÄ±
ĠyÃ¼rÃ¼t me
ĠE den
Ġkayn aÅŁ
Ġkapat Ä±n
Ġyan an
Ġduy duÄŁunu
ĠanlatÄ±r ken
Ġkat mak
Ġbank aya
Ġsosy o
Ġfiyat Ä±nÄ±n
Ġyenil g
Ġalkol lÃ¼
ĠM uk
B ek
ĠgÃ¶rÃ¼ÅŁ Ã¼nÃ¼
ĠSah ibi
h av
ĠTun us
Ġgayret i
Ġmuhabir ine
Ġdoldur arak
Ġzar ara
ĠD at
ĠUn ited
ĠEk mek
N ormal
Ġanla tacak
Ġpart iye
Ġyer dir
Ġt hat
Ä°S K
ĠG ER
Ġsendro mu
iy az
Ġboy lu
ĠP eter
ĠÃľl ker
ĠuÄŁr adÄ±
eler inizi
man n
Ġprogram larÄ±nÄ±n
Ġ eki
maya caÄŁÄ±z
Ġsev enler
ĠNur ettin
ok e
ĠA H
ĠFev zi
ehli van
ed it
ĠMer ak
say dÄ±
Ġyoksul luk
un us
ĠseÃ§ ebilirsiniz
Ġbeyan nam
Ġdin Ã®
M Ä°R
ĠMÃ¼hendis leri
ĠdeÄŁer ine
ĠgÃ¼n Ã¼nden
Ġok uyu
Ġdo larÄ±n
ĠZ inc
yor um
Ġl Ã¼z
ĠY avaÅŁ
Ġok uyorum
T D
ey iniz
Ġ Ñģ
M Ä±sÄ±r
Ġbar Ä±n
Ġboz an
00 1
ĠLid eri
Ġnisp eten
Ġkullan Ä±yoruz
ĠAs la
c han
ĠHar ika
Ġkavram lar
Ġbulunuyor du
ĠOr general
ĠkÄ±rÄ±k lÄ±ÄŁÄ±
ĠÃ§Ã¶z me
ĠU p
ĠAlb Ã¼m
Ġs Ã¼
n ar
ĠÃ§ek mektedir
Ġverilm elidir
ĠÄ°ncel eme
iy y
Ġoy sa
ĠyÃ¶netim e
ĠÅŁÃ¶ hret
ĠgÃ¶l ge
f eti
Ġsev inc
ĠF orex
ĠtakÄ±m Ä±nÄ±
Ã¼n ikasyon
ĠsÃ¼r erek
iyet ine
Ġ198 5
Ġplan lanÄ±yor
K uÅŁ
ĠY AÅŀ
Ġkal acaktÄ±r
Ġiddi anam
Ġtef sir
ĠIM F
Ġref akat
Ġolmaya caÄŁÄ±
Ġac Ä±k
amaya caÄŁÄ±nÄ±
ĠgeÃ§ me
ĠBÃ¶lg ede
Ġmak ro
ĠdÃ¶n Ã¼mÃ¼
Ġvarol uÅŁ
T AÅŀ
ĠhÄ±z Ä±yla
ĠmÃ¼ÅŁteriler imiz
ĠK Ä±l
Ġotur duÄŁu
Ġmekaniz masÄ±
ï¼ Į
Ġtah s
T av
Ġkat al
Ġgev ÅŁ
ĠÅŁekl ine
ĠyapÄ±l dÄ±ÄŁÄ±nda
ĠMal ta
uz a
Ġdost um
Ġih lali
Ġf aci
ili ÄŁinin
ĠTes cil
Ġkur siyer
tÄ±ÄŁ Ä±mda
YaÅŁ am
Ġtah rib
ĠÃ¶lÃ¼m sÃ¼z
eri de
ĠKafkas ya
ster dam
AC AK
o in
ĠÃ§Ä±kar mÄ±ÅŁ
Ġmer div
Ġdokun matik
ĠdanÄ±ÅŁ manÄ±
Ġlit r
Ġr ut
ĠAl ternatif
ĠyaÅŁan dÄ±ÄŁÄ±nÄ±
ĠÃ§ anak
Ġtoh umu
ĠÙ ħ
ĠÄ°n ci
Ġokuy abilirsiniz
ĠL as
I CI
Ġist ediler
Ġkampany alar
ma h
Ġkad in
ĠKar ac
Ġceza i
lerim den
ĠgÃ¶ b
Ġmas ke
ĠGiz lilik
ĠS tep
it le
ĠdoÄŁ usunda
Ã¼ lat
y Ã¶n
ĠKan dil
Ġmen z
leyece ÄŁiz
ĠiÃ§ imde
ĠUy ar
ĠakÄ±ÅŁ Ä±nÄ±
Ã§ er
Ġdedi ÄŁin
ĠyanÄ± ma
ĠÅŁab lon
adam larÄ±
l alar
Ġperson ele
ĠalmÄ±ÅŁ tÄ±m
ĠCas ino
ĠHem ÅŁir
as yum
ĠÄ° S
Ġsit eden
Ġkon usunun
out h
ĠKitap lar
ov ic
ĠtanÄ± dÄ±ÄŁÄ±
Ġeb at
ĠAyv alÄ±k
y dÄ±m
Ġr ektÃ¶r
Ġtopr aÄŁÄ±n
ĠK edi
ĠT Ã¼z
âĢ¦âĢ¦ âĢ¦âĢ¦
ĠK un
ĠY alÄ±
ĠKim yasal
ĠgeÃ§ir meye
ĠTurk ey
ĠdÃ¼ÄŁ Ã¼m
Bir inci
Ġdiy al
im dir
ĠyÃ¶n Ã¼nÃ¼
ĠD eli
Ġolun masÄ±
ĠSeÃ§ me
ĠmÃ¼ÅŁ rik
ĠeÄŁil imi
Ġar adÄ±
ĠG emi
Ġ198 6
ĠKon feder
Ġfiyat larÄ±na
ĠTe or
ĠÃ§alÄ±ÅŁmalar Ä±yla
Ġgide bilir
Ġviz esi
Ġy eÄŁ
ĠmÃ¼ esses
ĠUy gu
ti ÄŁin
Ġtermin al
Ġmaliyet li
L is
ĠKÃ¼rt lerin
ĠkÃ¢ fir
ĠgÃ¶rÃ¼ÅŁ mede
ĠsonuÃ§ larÄ±n
ĠhÃ¼k met
ad in
Ġhijyen ik
Ġd edir
ÅŁ if
ĠÃ§alÄ±ÅŁ tÄ±ÄŁÄ±m
ĠgÃ¶tÃ¼r Ã¼ldÃ¼
ĠÃ¼rÃ¼n lerine
Y Ã¼r
s osyal
Ġgazetec ilere
ãĢ ģ
leÅŁ ir
ĠSon u
ĠhoÅŁ una
ĠAn laÅŁmasÄ±
Ġhediy elik
ekkÃ¼r ler
ĠHazret i
Ġrast gele
ĠiyileÅŁtir me
AÅŁaÄŁÄ± daki
ĠMec l
Ã§ Ä±l
Ġistem em
ĠÃĩalÄ±ÅŁ malar
c tr
ĠO lum
ĠaÄŁrÄ± larÄ±
dÄ±ÄŁÄ±mÄ±z Ä±
UL U
Ġdep artman
Ġedilir se
ĠgÃ¶nÃ¼l den
Oy sa
Ġsayf aya
ĠkaldÄ±r Ä±p
ĠKap ak
ĠAt ina
Ġins Ã¼lin
ĠZ e
S av
ur n
Ġar tik
Ġbel ediyesi
ĠT OBB
Ġmal larÄ±n
esi fik
ĠgÃ¼n lere
iyet inde
ĠalgÄ± lama
Ġc Ä±v
ĠÅŁart larÄ±nda
ĠÃ§ab alar
Ġolma dÄ±ÄŁÄ±nÄ±n
Ġenerj iyi
Ġr engin
ĠyalÄ± tÄ±mÄ±
c asÄ±na
K Ã¼t
ĠN ap
ey ler
ĠEc evit
ĠtÃ¼ketic ilerin
ĠT y
Ġkes ildi
Ġmerkez lerinden
ĠEs k
ĠMut laka
ĠKiÅŁ ilik
Ġat Ä±lmÄ±ÅŁ
Ġdernek ler
ĠyapÄ±lab ilmektedir
Ġat acak
R abb
ĠG EÃĩ
Ġal manÄ±n
ĠÃ¼retic iler
iz asyonu
ĠKorun masÄ±
Ġkavram Ä±nÄ±
P ay
Ġden gesi
ĠbaÅŁar mÄ±ÅŁ
ĠMerk el
ĠOl uÅŁ
s anÄ±
Ġgel i
ĠhoÅŁ gel
du c
ĠNec ip
Ġfotok op
ĠBar osu
it lerin
ĠÃ§alÄ±ÅŁ tÄ±klarÄ±
ĠYardÄ±m laÅŁma
ĠhazÄ±r lar
lan ta
ĠÃ¼lk esine
Ġproj elerini
Ġbilgisayar Ä±nÄ±za
Ġanla mÄ±ÅŁ
ĠÃĩor lu
ĠÃ¶ldÃ¼r mek
ir en
la di
ĠPro blem
ĠsÃ¶y lenir
Vat andaÅŁ
ĠipuÃ§ larÄ±
Ġhav alarda
ĠS D
Ġak varyum
ĠiÃ§er iye
ĠdiÄŁer ine
s up
Ã¶ ÅŁ
Ġyap abileceÄŁi
Ġsit elerin
la masÄ±yla
Ġes asÄ±na
Ġteknoloj iler
Ġtabi at
ĠPsik iyat
ĠÃ§evir di
ĠÃ¼st Ã¼ndeki
ĠhiÃ§bir i
Ġyar arÄ±
Ã¢ met
ĠGÃ¼n ay
Ġoluyor sunuz
ort h
Ġdev ret
ĠÃ¶zellik lerinin
ĠkaldÄ±r dÄ±
P et
ĠaÃ§ Ä±lÄ±m
Ãĩ ay
ĠYÃ¶net ici
ĠÃ¶l Ã§e
Ġkitap larÄ±n
Ġyarg Ä±la
ĠI z
ĠdÃ¶nem ler
Ġyararlan abilirsiniz
ĠbaÅŁvur usunda
Ġkuy ru
ĠMÃ¼ hendisi
Ġmu dur
ĠÄ°ktis at
Ġsit emizi
Ġadliy eye
ĠC um
Ġtamamla dÄ±ktan
ĠbÃ¶lg esinden
Ġunut tur
Ġlen f
ĠyansÄ± dÄ±
ĠHo use
ĠkolaylaÅŁtÄ±r mak
ĠFilm ler
ĠD Ã¼k
P en
H S
Ġyetenek leri
ĠÃ¶nc eleri
Ä±ntÄ± lar
ĠBer at
Ġvel iler
ĠkiÅŁi dir
Ġman ada
Ġibaret tir
Ġyap mayan
Ġdav asÄ±nda
M in
ĠAÃ§Ä±k lama
abiliyor lar
ĠHac ettepe
Ġkes mek
r ey
Ġyap Ä±sÄ±yla
Ġdevr al
Ġyap abilm
ĠKr alÄ±
ĠGre en
ran Ä±n
ĠiÃ§erik ler
LE Åŀ
ĠBÃ¼yÃ¼kel Ã§iliÄŁi
id di
ĠkÃ¶ ft
l ediler
im um
Ġf ah
Ġmer teb
unuz dan
ĠÃ§Ä±k madÄ±
Ã¢ nÄ±n
Ġpank art
Ġedin en
Ġadres inize
ĠR eÅŁ
Ġma x
ĠHad is
ĠyÃ¼z eyi
Ġhaber ini
Ġiy im
ĠYer leÅŁ
Ġsanat Ä±n
ĠgÃ¶ bek
ĠKam era
Ġdin am
ĠÃĩ ALIÅŀ
de pres
ust in
tem elen
Ġtarif e
Ġsent ez
ĠbaÅŁla dÄ±ktan
oz om
Ġ19 15
B odrum
v ey
ĠsÃ¶z lerle
eler imizin
ĠaÃ§ tÄ±m
Ġsiyas etin
Ġtatb ik
Ġb ack
Ã¼rk an
m eyip
Ġtahmin leri
Ġister ken
ĠH ES
Ġtan esini
Ġolabilir di
ĠBoz kurt
ĠGÃ¼n gÃ¶r
Ġkayded ilir
ĠbÃ¶lÃ¼ cÃ¼
ol ak
ĠKon gr
ĠÃ§al Ã½Ã¾
Ġdiplo ma
D uy
Ä°H M
Ġuf uk
ĠDoÄŁ uÅŁ
ĠMod eli
Ġail elerine
ĠYen ik
ĠÃĩak mak
ðŁ ĳ
Ġkat Ä±lmasÄ±
Ġrol Ã¼nÃ¼
ĠÃ§ey r
at om
ĠS up
er cin
Ġdel alet
ĠV estel
Ġstratej isi
ĠÅŁan zÄ±m
ĠyÃ¶net mek
Ġsayf anÄ±n
ĠF l
Ġdedik leri
Ġs k
ĠkapÄ± dan
Ġhalk Ä±nÄ±
Ġvol eybol
ĠK erkÃ¼k
Ġyap acaktÄ±r
ĠF Ä±k
ĠMÃ¼n ih
ĠÃ¶z ver
ĠSertif ik
Ã° u
ĠTah min
Ġincelem eye
f ar
8 00
Ġson larÄ±nda
ĠsÄ±rala masÄ±nda
Ä±l mayan
ĠVar lÄ±k
Ġsempoz yum
! .
Ġen der
oy ol
Ġhesap lanan
Ġa ÄŁustos
S Ä±nav
ĠgÃ¼c Ã¼yle
ĠaraÃ§ lara
Ġpart il
ĠHes ab
c at
Ġolan lardan
ĠDÃ¼n dar
Ġyem eÄŁe
Ġd Ã¶l
Ġhayat Ä±mÄ±zÄ±n
Ġsit elere
Ġfelsef esi
Ġmeyv eler
ĠdÃ¶nÃ¼ÅŁ Ã¼mÃ¼
ĠP ot
Ġhep sine
ĠanlayÄ±ÅŁ Ä±yla
fi eld
Ġbat ary
Ġstandart larÄ±na
ĠÃľl kenin
Ġtab iri
å½© ç¥
ĠgÃ¶z Ã¼nde
ĠtÃ¼r Ã¼nde
H T
Ġf rom
ĠyaÅŁ Ä±n
Ġkalit esinin
Ġbuy uk
Ġar da
ĠDer ya
av ig
Ġdar p
Ġelbis eler
Ù ĳ
ĠiÅŁ inin
ĠGÃ¼ven li
Ġf ran
Av ust
Ġgelece ÄŁine
Ġdeh ÅŁet
ĠD P
ĠN iz
ĠyÃ¼z y
Ġyaz Ä±ldÄ±
ĠmÃ¼ÅŁter ilere
Ġyap Ä±sÄ±nda
Ġil imizde
ey ici
ĠN eÅŁ
Ġtak ma
Ġuz laÅŁma
Ġfabrik asÄ±
Ġhareket inin
leriniz den
Ġyap malÄ±
Ġe ÄŁim
sh op
HiÃ§ bir
ĠÃ§alÄ±ÅŁ mÄ±yor
ĠdÃ¼ÅŁÃ¼r Ã¼l
ĠT Ã¼p
ĠtanÄ±ÅŁ mak
ir alama
Ġihtiyac Ä±nÄ±n
[...]
