{"<s>":0,"<pad>":1,"</s>":2,"<unk>":3,"<mask>":4,"!":5,"\"":6,"#":7,"$":8,"%":9,"&":10,"'":11,"(":12,")":13,"*":14,"+":15,",":16,"-":17,".":18,"/":19,"0":20,"1":21,"2":22,"3":23,"4":24,"5":25,"6":26,"7":27,"8":28,"9":29,":":30,";":31,"<":32,"=":33,">":34,"?":35,"@":36,"A":37,"B":38,"C":39,"D":40,"E":41,"F":42,"G":43,"H":44,"I":45,"J":46,"K":47,"L":48,"M":49,"N":50,"O":51,"P":52,"Q":53,"R":54,"S":55,"T":56,"U":57,"V":58,"W":59,"X":60,"Y":61,"Z":62,"[":63,"\\":64,"]":65,"^":66,"_":67,"`":68,"a":69,"b":70,"c":71,"d":72,"e":73,"f":74,"g":75,"h":76,"i":77,"j":78,"k":79,"l":80,"m":81,"n":82,"o":83,"p":84,"q":85,"r":86,"s":87,"t":88,"u":89,"v":90,"w":91,"x":92,"y":93,"z":94,"{":95,"|":96,"}":97,"~":98,"¡":99,"¢":100,"£":101,"¤":102,"¥":103,"¦":104,"§":105,"¨":106,"©":107,"ª":108,"«":109,"¬":110,"®":111,"¯":112,"°":113,"±":114,"²":115,"³":116,"´":117,"µ":118,"¶":119,"·":120,"¸":121,"¹":122,"º":123,"»":124,"¼":125,"½":126,"¾":127,"¿":128,"À":129,"Á":130,"Â":131,"Ã":132,"Ä":133,"Å":134,"Æ":135,"Ç":136,"È":137,"É":138,"Ê":139,"Ë":140,"Ì":141,"Í":142,"Î":143,"Ï":144,"Ð":145,"Ñ":146,"Ò":147,"Ó":148,"Ô":149,"Õ":150,"Ö":151,"×":152,"Ø":153,"Ù":154,"Ú":155,"Û":156,"Ü":157,"Ý":158,"Þ":159,"ß":160,"à":161,"á":162,"â":163,"ã":164,"ä":165,"å":166,"æ":167,"ç":168,"è":169,"é":170,"ê":171,"ë":172,"ì":173,"í":174,"î":175,"ï":176,"ð":177,"ñ":178,"ò":179,"ó":180,"ô":181,"õ":182,"ö":183,"÷":184,"ø":185,"ù":186,"ú":187,"û":188,"ü":189,"ý":190,"þ":191,"ÿ":192,"Ā":193,"ā":194,"Ă":195,"ă":196,"Ą":197,"ą":198,"Ć":199,"ć":200,"Ĉ":201,"ĉ":202,"Ċ":203,"ċ":204,"Č":205,"č":206,"Ď":207,"ď":208,"Đ":209,"đ":210,"Ē":211,"ē":212,"Ĕ":213,"ĕ":214,"Ė":215,"ė":216,"Ę":217,"ę":218,"Ě":219,"ě":220,"Ĝ":221,"ĝ":222,"Ğ":223,"ğ":224,"Ġ":225,"ġ":226,"Ģ":227,"ģ":228,"Ĥ":229,"ĥ":230,"Ħ":231,"ħ":232,"Ĩ":233,"ĩ":234,"Ī":235,"ī":236,"Ĭ":237,"ĭ":238,"Į":239,"į":240,"İ":241,"ı":242,"Ĳ":243,"ĳ":244,"Ĵ":245,"ĵ":246,"Ķ":247,"ķ":248,"ĸ":249,"Ĺ":250,"ĺ":251,"Ļ":252,"ļ":253,"Ľ":254,"ľ":255,"Ŀ":256,"ŀ":257,"Ł":258,"ł":259,"Ń":260,"Ä±":261,"ar":262,"er":263,"Ã¼":264,"an":265,"in":266,"ÅŁ":267,"Ġb":268,"en":269,"Ä±n":270,"il":271,"ir":272,"ÄŁ":273,"Ġk":274,"Ã§":275,"Ġd":276,"Ġs":277,"al":278,"Ġy":279,"ak":280,"Ġg":281,"lar":282,"Ã¶":283,"ek":284,"el":285,"Ġo":286,"Ġv":287,"et":288,"ma":289,"la":290,"Ġt":291,"Ġi":292,"da":293,"un":294,"de":295,"ler":296,"Ġve":297,"Ġh":298,"or":299,"es":300,"iy":301,"ay":302,"iz":303,"at":304,"im":305,"ik":306,"em":307,"on":308,"Ä±r":309,"Ġbir":310,"âĢ":311,"ur":312,"as":313,"ĠB":314,"ed":315,"Ġm":316,"Ã¼n":317,"lÄ±":318,"Ġol":319,"ĠÃ§":320,"ul":321,"aÅŁ":322,"Ã¼r":323,"is":324,"ĠA":325,"am":326,"ey":327,"ap":328,"Ä±m":329,"iÅŁ":330,"Ġa":331,"it":332,"ĠK":333,"Ä±l":334,"le":335,"Ä±ÅŁ":336,"Ġil":337,"ĠÃ¶":338,"Ġde":339,"Ä°":340,"ah":341,"Ä±z":342,"um":343,"ĠS":344,"az":345,"âĢĻ":346,"Ä±k":347,"Ġp":348,"ĠT":349,"li":350,"ab":351,"dan":352,"ĠM":353,"ĠiÃ§":354,"Ġf":355,"Ä±nda":356,"ya":357,"st":358,"aÄŁ":359,"lan":360,"Ġal":361,"Ã¼z":362,"ad":363,"ĠgÃ¶":364,"ok":365,"larÄ±n":366,"ini":367,"inde":368,"ine":369,"ev":370,"Ġyap":371,"ĠÅŁ":372,"Ġn":373,"ol":374,"di":375,"dÄ±":376,"larÄ±":377,"ĠD":378,"Ġar":379,"du":380,"ce":381,"Ġbu":382,"den":383,"esi":384,"mas":385,"ĠÄ°":386,"ĠÃ":387,"Ã¼k":388,"ĠE":389,"uz":390,"ĠH":391,"leri":392,"uy":393,"ĠY":394,"ĠiÃ§in":395,"iler":396,"Ã¼m":397,"alar":398,"eler":399,"mak":400,"Ġda":401,"Ġ1":402,"ĠG":403,"ti":404,"iyor":405,"Ġ2":406,"Ä±y":407,"Ġile":408,"Ä±nÄ±":409,"af":410,"Ġz":411,"Ġr":412,"cak":413,"ĠgÃ¶r":414,"Ã¼l":415,"ÅŁt":416,"Ġed":417,"ÄŁi":418,"inin":419,"ĠbaÅŁ":420,"..":421,"Ä±s":422,"lik":423,"Ġet":424,"ec":425,"dir":426,"ut":427,"oÄŁ":428,"Ä±na":429,"Ġan":430,"iye":431,"ilir":432,"eÃ§":433,"Ġson":434,"ilm":435,"Ġver":436,"Ġkar":437,"uk":438,"Ã¶n":439,"ĠP":440,"Ġgel":441,"iniz":442,"us":443,"Ġger":444,"tÄ±":445,"ekt":446,"dÄ±r":447,"ez":448,"eb":449,"ĠÃ¶n":450,"Ã¼y":451,"lÄ±k":452,"ta":453,"larak":454,"ÄŁÄ±":455,"ĠO":456,"len":457,"Ġin":458,"Ġoldu":459,"Ġkon":460,"Ġ(":461,"Ġc":462,"av":463,"Ġolarak":464,"ip":465,"ib":466,"ro":467,"Ġay":468,"Ġbil":469,"Ġtar":470,"Ġen":471,"eÅŁ":472,"ĠâĢ":473,"masÄ±":474,"cÄ±":475,"ĠF":476,"Ä±ndan":477,"ĠdeÄŁ":478,"man":479,"lay":480,"tÄ±r":481,"ĠiÅŁ":482,"Ġolan":483,"ĠC":484,"Ġyer":485,"ĠÃ§ok":486,"lem":487,"ra":488,"mÄ±ÅŁ":489,"uÅŁ":490,"Ã¼ÅŁ":491,"Ã¼rk":492,"anÄ±":493,"aha":494,"edi":495,"te":496,"Ġbul":497,"op":498,"se":499,"tan":500,"imiz":501,"Ġkul":502,"unu":503,"Ġkal":504,"lu":505,"asÄ±":506,"Ġist":507,"Ä±yor":508,"Ġkad":509,"ĠBu":510,"Åŀ":511,"Ã¶r":512,"Ä±nÄ±n":513,"Ã¶y":514,"om":515,"ibi":516,"ih":517,"ĠgÃ¼n":518,"Ġe":519,"eni":520,"ca":521,"ĠaÃ§":522,"Ġor":523,"Ġkur":524,"Ġkullan":525,"yon":526,"ama":527,"ark":528,"Ġ20":529,"Ġdaha":530,"ili":531,"ĠsÃ¼r":532,"ĠÃĩ":533,"âĢĿ":534,"ĠyÄ±l":535,"Ġher":536,"alÄ±ÅŁ":537,"me":538,"ĠolduÄŁ":539,"isi":540,"tir":541,"lerin":542,"aki":543,"Ġuy":544,"eki":545,"alÄ±":546,"laÅŁ":547,"ĠR":548,"Ġvar":549,"Ġbel":550,"ki":551,"ĠgeÃ§":552,"ÄŁr":553,"Ġgibi":554,"Ġma":555,"san":556,"ĠÃ§Ä±k":557,"aman":558,"ĠN":559,"ĠyaÅŁ":560,"ĠÃ§alÄ±ÅŁ":561,"aÃ§":562,"ĠâĢľ":563,"Ġken":564,"Ġyar":565,"ĠTÃ¼rk":566,"ic":567,"ilen":568,"Ä±mÄ±z":569,"Ä±lÄ±":570,"ĠÃ¼z":571,"eli":572,"ĠÃĸ":573,"eye":574,"ada":575,"malar":576,"os":577,"mek":578,"eden":579,"Ġbulun":580,"ers":581,"eh":582,"lama":583,"ken":584,"ist":585,"Ã¼t":586,"met":587,"ĠÃ¼zer":588,"ecek":589,"eri":590,"Ġon":591,"Ġ3":592,"unda":593,"Ġel":594,"let":595,"ĠÃ¶z":596,"ru":597,"miÅŁ":598,"Ã¶z":599,"Ġgerek":600,"sa":601,"Ä±nÄ±z":602,"ĠsaÄŁ":603,"iyet":604,"Ä±lan":605,"lÃ¼":606,"ĠV":607,"00":608,"Ġek":609,"gi":610,"ece":611,"Ġkadar":612,"inden":613,"Ġsay":614,"ĠÅŀ":615,"oy":616,"iyle":617,"daki":618,"Ã¶l":619,"Ã¢":620,"Ġyaz":621,"ĠAn":622,"ot":623,"ac":624,"ĠyÃ¶n":625,"Ġzaman":626,"Ġu":627,"Ġsor":628,"ep":629,"Ġola":630,"Ġdur":631,"Ġkay":632,"Ġtek":633,"'d":634,"Ġpro":635,"aya":636,"ans":637,"ade":638,"ĠL":639,"ĠkarÅŁ":640,"arak":641,"asÄ±nda":642,"men":643,"Ġoy":644,"...":645,"id":646,"lara":647,"Ġhal":648,"aÅŁk":649,"if":650,"Ã¼c":651,"Ġad":652,"Ã¼yÃ¼k":653,"Ġtop":654,"Ġdev":655,"ĠdÃ¼ÅŁ":656,"Ġtaraf":657,"edir":658,"Ġak":659,"Ġkat":660,"Ġsonra":661,"ef":662,"ĠdoÄŁ":663,"oc":664,"Ġ201":665,"unun":666,"larÄ±nÄ±":667,"erk":668,"ĠÃ¼r":669,"Ġuyg":670,"may":671,"Ġsah":672,"ede":673,"erek":674,"art":675,"Ġama":676,"maya":677,"imi":678,"aÄŁÄ±":679,"ĠÅŁek":680,"Ġise":681,"Ġyan":682,"Ġkap":683,"dÄ±ÄŁ":684,"Ã¼Ã§":685,"iÃ§":686,"Ġben":687,"uÅŁt":688,"ĠdÃ¶n":689,"lam":690,"ĠU":691,"ÄŁer":692,"arÄ±":693,"nin":694,"deki":695,"siniz":696,"yi":697,"ĠÃľ":698,"ÄŁini":699,"Ġhay":700,"Ġ-":701,"uyor":702,"lerini":703,"Ġbelir":704,"Ġ\"":705,"dÄ±ÄŁÄ±":706,"Ġsiz":707,"Ġl":708,"Ġhak":709,"ara":710,"Ã¼s":711,"abilir":712,"Ä±yla":713,"Ġalan":714,"ĠÃ¶ÄŁr":715,"Ġat":716,"est":717,"Ġyak":718,"iv":719,"tad":720,"ĠÃ¶zel":721,"Ġev":722,"Ġveya":723,"eleri":724,"dÃ¼r":725,"elik":726,"Ġ4":727,"dÄ±m":728,"esinde":729,"sel":730,"kin":731,"ci":732,"ĠgerÃ§":733,"Ġyeni":734,"larda":735,"Ä±sÄ±":736,"Ġsev":737,"ĠkiÅŁ":738,"Ġtak":739,"ram":740,"una":741,"ĠdÃ¼z":742,"ildi":743,"ley":744,"Ġ5":745,"Ġuz":746,"lere":747,"ter":748,"Ġne":749,"Ġkend":750,"Ä±la":751,"Ġgir":752,"Ġgen":753,"ĠbÃ¼yÃ¼k":754,"ĠyÃ¼z":755,"Ġden":756,"ĠTÃ¼rkiye":757,"Ġilg":758,"Ġinsan":759,"Ġbak":760,"ster":761,"ĠAl":762,"tadÄ±r":763,"izmet":764,"cu":765,"etim":766,"ektedir":767,"iyat":768,"Ġort":769,"ÄŁit":770,"od":771,"acak":772,"emiz":773,"Ġyol":774,"iÅŁtir":775,"Ġhem":776,"ĠBir":777,"tr":778,"ĠÃ¶nem":779,"ĠbÃ¶l":780,"Ġok":781,"ĠAr":782,"Ġbiz":783,"Ġes":784,"Ġilk":785,"Ä±p":786,"anlÄ±":787,"ÅŁtir":788,"ĠaÃ§Ä±k":789,"ĠyÃ¼k":790,"ĠtarafÄ±ndan":791,"ĠdeÄŁil":792,"ĠbaÄŁ":793,"ĠgÃ¶re":794,"maktadÄ±r":795,"ĠsÃ¶y":796,"sun":797,"ÄŁu":798,"ne":799,"Ġko":800,"Ġdo":801,"Ġki":802,"ĠÅŁekil":803,"Ġdurum":804,"Ġfark":805,"lat":806,"bilir":807,"Ġhar":808,"ĠBaÅŁk":809,"Ġiz":810,"Ġtarih":811,"eyi":812,"ĠgÃ¶ster":813,"Ġas":814,"aat":815,"uh":816,"enin":817,"Ġiyi":818,"ĠseÃ§":819,"ĠolduÄŁu":820,"ĠgerÃ§ek":821,"asyon":822,"ran":823,"uÅŁtur":824,"leÅŁ":825,"Ġhizmet":826,"ebilir":827,"Ġder":828,"liÄŁi":829,"Ġser":830,"mesi":831,"larÄ±nÄ±n":832,"bir":833,"oz":834,"tik":835,"ten":836,"ileri":837,"Ġyet":838,"ĠkarÅŁÄ±":839,"ĠI":840,"etir":841,"tÄ±k":842,"Ġyok":843,"Ġsan":844,"Ġolma":845,"aret":846,"up":847,"dur":848,"Ġpar":849,"Ġalt":850,"anÄ±n":851,"Ã¼zel":852,"re":853,"Ã¼v":854,"rÄ±":855,"Ã¼st":856,"Ġot":857,"ĠÅŁekilde":858,"Ġih":859,"alÄ±k":860,"Ġya":861,"nÄ±":862,"aber":863,"nÄ±n":864,"ĠÃ¶ÄŁren":865,"ĠtÃ¼m":866,"ÄŁitim":867,"Ġmil":868,"Ġgetir":869,"ĠgÃ¶z":870,"Ġbilg":871,"ret":872,"Ġhas":873,"Ä±mÄ±":874,"ĠsÄ±r":875,"Ġneden":876,"istem":877,"Ä±cÄ±":878,"raf":879,"ĠAy":880,"ĠKur":881,"larÄ±na":882,"iÄŁer":883,"lerde":884,"ĠÃ¼l":885,"erkez":886,"Ġilgili":887,"olo":888,"leÅŁtir":889,"ĠmÃ¼":890,"ocuk":891,"Ġkaz":892,"Ġtut":893,"ĠdÃ¼n":894,"ĠsÃ¶z":895,"ĠÃ§ek":896,"Ġsahip":897,"ĠEr":898,"20":899,"tar":900,"ĠdeÄŁer":901,"ulu":902,"Ġaz":903,"ĠdÃ¼ÅŁÃ¼n":904,"esine":905,"ĠÅŁey":906,"Ġdevam":907,"ĠZ":908,"ĠyapÄ±l":909,"dÄ±k":910,"bul":911,"ayan":912,"ka":913,"Ã¼yor":914,"Ġ6":915,"lah":916,"por":917,"ï¿":918,"ï¿½":919,"iyorum":920,"Ġhaz":921,"Ãľ":922,"der":923,"Ã¼ven":924,"ob":925,"han":926,"Ġter":927,"Ġis":928,"ĠÃ¶nemli":929,"lendir":930,"ĠdÃ¼zen":931,"ĠÄ°n":932,"ĠolduÄŁunu":933,"Ġsu":934,"siz":935,"Ġetti":936,"si":937,"Ġyay":938,"Ġ19":939,"Ġfaz":940,"Ã§e":941,"usu":942,"lerinin":943,"Ġsat":944,"ĠÄ°l":945,"âĢ¦":946,"eniz":947,"Ġbin":948,"ÄŁiniz":949,"dÃ¼":950,"ilik":951,"esini":952,"ĠÃ¼lk":953,"lerine":954,"ĠalÄ±n":955,"oloj":956,"ĠBel":957,"ĠtaÅŁ":958,"ĠgÃ¼zel":959,"lÄ±ÄŁ":960,"ĠkÄ±s":961,"ĠiÃ§er":962,"Ġbirlik":963,"Ġede":964,"Ġduy":965,"Ã§a":966,"Ġsonu":967,"stan":968,"ĠiÃ§inde":969,"Ġfazla":970,"larÄ±nda":971,"Ã¶yle":972,"Ġbas":973,"Ġhayat":974,"Ġetm":975,"sÄ±z":976,"ĠÃ¼rÃ¼n":977,"azÄ±":978,"sek":979,"Ġolur":980,"ĠarasÄ±nda":981,"ĠÃ¶nce":982,"Ġsit":983,"Ġiki":984,"alan":985,"Ã¼nde":986,"esin":987,"ula":988,"Ġsun":989,"ide":990,"iÅŁim":991,"gÃ¼n":992,"dik":993,"Ġkor":994,"Ġsistem":995,"likle":996,"Ġzor":997,"maz":998,"ayÄ±":999,"ĠaÅŁ":1000,"lardan":1001,"Ä±ndaki":1002,"ĠhazÄ±r":1003,"Ġhakk":1004,"ig":1005,"ĠbaÅŁla":1006,"ehir":1007,"Ġdiye":1008,"Ġtes":1009,"gram":1010,"ĠdÄ±ÅŁ":1011,"ĠhiÃ§":1012,"Ġ7":1013,"alarÄ±":1014,"Ġbek":1015,"ĠÃĸz":1016,"ĠÃ¶l":1017,"eÄŁ":1018,"stanbul":1019,"Ġtan":1020,"Ġkab":1021,"emek":1022,"Ġim":1023,"diÄŁi":1024,"Ġhat":1025,"Ġoyun":1026,"Ġark":1027,"ĠyaptÄ±":1028,"Ġada":1029,"eyen":1030,"ĠdiÄŁer":1031,"Ġetk":1032,"mÄ±ÅŁtÄ±r":1033,"ilecek":1034,"Bu":1035,"Ġtem":1036,"Ġgelen":1037,"Ãĸ":1038,"tÃ¼r":1039,"Ġkonu":1040,"ĠGen":1041,"Ã½":1042,"ub":1043,"ledi":1044,"ilmesi":1045,"rup":1046,"liÄŁ":1047,"ĠAk":1048,"adece":1049,"Ã¼p":1050,"ĠdÃ¶nem":1051,"Ġbirlikte":1052,"lÄ±ÄŁÄ±":1053,"ulan":1054,"ye":1055,"Ġolmak":1056,"osy":1057,"ĠMÃ¼":1058,"ĠaÄŁ":1059,"ĠfarklÄ±":1060,"ektir":1061,"ĠaynÄ±":1062,"ĠBak":1063,"Ġ,":1064,"ĠkÃ¶":1065,"eti":1066,"uv":1067,"Ġsaat":1068,"cel":1069,"Ġkim":1070,"Ġmes":1071,"iyon":1072,"asÄ±l":1073,"Ġkazan":1074,"malarÄ±":1075,"Ġdik":1076,"Ġboy":1077,"Ã¼nÃ¼":1078,"ĠÃ¶r":1079,"ĠyapÄ±lan":1080,"Ġolacak":1081,"oÅŁ":1082,"Ġbur":1083,"yor":1084,"Ġdil":1085,"ĠeÅŁ":1086,"Ġeden":1087,"ivers":1088,"larla":1089,"ĠÃ§ocuk":1090,"ĠiÅŁlem":1091,"ĠKar":1092,"bet":1093,"Ġ10":1094,"ilerin":1095,"meye":1096,"Ãĩ":1097,"iversit":1098,"asar":1099,"olu":1100,"ika":1101,"Ġdedi":1102,"Ġbelirt":1103,"Ã¼tÃ¼n":1104,"mektedir":1105,"lerinde":1106,"ĠgÃ¼ven":1107,"og":1108,"ana":1109,"Ġyat":1110,"Ġ8":1111,"kÃ¼":1112,"dar":1113,"ĠEn":1114,"ÄŁimiz":1115,"Ġif":1116,"ĠÃ¼st":1117,"eme":1118,"ĠdoÄŁru":1119,"ĠgÃ¶rÃ¼n":1120,"abilirsiniz":1121,"luk":1122,"iyoruz":1123,"ĠgÃ¶rev":1124,"Ġkan":1125,"Ġhaf":1126,"ĠbÃ¶lg":1127,"masÄ±nÄ±":1128,"ĠÃ¶nc":1129,"adaÅŁ":1130,"Ġtama":1131,"nun":1132,"ilece":1133,"Ġsen":1134,"Ġkendi":1135,"ĠiliÅŁ":1136,"201":1137,"muÅŁ":1138,"Ġkit":1139,"Ġmal":1140,"ĠÃ§Ä±kar":1141,"Ġtel":1142,"orm":1143,"ĠÄ°stanbul":1144,"larÄ±mÄ±z":1145,"Ä±t":1146,"ĠtÃ¼r":1147,"Ä±zÄ±":1148,"ĠBaÅŁkanÄ±":1149,"isinde":1150,"kan":1151,"kat":1152,"layan":1153,"Ġmod":1154,"ici":1155,"ĠdeÄŁiÅŁ":1156,"masÄ±na":1157,"net":1158,"Ġsadece":1159,"hur":1160,"Ġbulunan":1161,"na":1162,"Ġmut":1163,"Ã¼ne":1164,"ĠsÄ±k":1165,"iyas":1166,"Ġtekn":1167,"lak":1168,"ÄŁÃ¼":1169,"Ġkam":1170,"Ġtab":1171,"ahat":1172,"Ġkarar":1173,"ĠPro":1174,"ĠÄ°s":1175,"irk":1176,"Ġiht":1177,"Ġdav":1178,"Ġer":1179,"ĠnasÄ±l":1180,"Ġkr":1181,"Ġhav":1182,"Ġmak":1183,"malÄ±":1184,"rak":1185,"esinin":1186,"atÄ±":1187,"caÄŁ":1188,"dÄ±ÄŁÄ±nÄ±":1189,"Ä±rak":1190,"ĠBeled":1191,"lerden":1192,"ort":1193,"Ġsal":1194,"Ġfiyat":1195,"lÃ¼k":1196,"Ġuygun":1197,"ĠOr":1198,"ĠW":1199,"ĠKon":1200,"ing":1201,"ĠyardÄ±m":1202,"Ġ:":1203,"end":1204,"ĠeÄŁitim":1205,"Ġbun":1206,"Ġbit":1207,"acaÄŁ":1208,"Ġeder":1209,"ektÃ¶r":1210,"Ã®":1211,"Ġgid":1212,"ĠulaÅŁ":1213,"enk":1214,"iliyor":1215,"Ġgit":1216,"laÅŁt":1217,"okt":1218,"sÄ±":1219,"estek":1220,"usunda":1221,"umhur":1222,"tÃ¼":1223,"ĠolmasÄ±":1224,"Ġ0":1225,"Ġkurul":1226,"Ġolduk":1227,"sam":1228,"gu":1229,"eket":1230,"Ġart":1231,"ER":1232,"gil":1233,"ĠJ":1234,"Ġproj":1235,"ĠBil":1236,"avaÅŁ":1237,"ĠarkadaÅŁ":1238,"ĠAv":1239,"ĠâĢĺ":1240,"unuz":1241,"mayÄ±":1242,"ĠoluÅŁtur":1243,"lanan":1244,"ĠÃ§ev":1245,"Ġ9":1246,"ĠbÄ±rak":1247,"Ġfir":1248,"ĠgÃ¶n":1249,"mi":1250,"ĠyÃ¼ksek":1251,"uma":1252,"Ġbah":1253,"Ġmad":1254,"bar":1255,"AN":1256,"Ġte":1257,"van":1258,"Ä±ÄŁ":1259,"ĠÃľn":1260,"Ġdikkat":1261,"Ġdem":1262,"ĠÄ°ÅŁ":1263,"hal":1264,"ĠyÃ¼r":1265,"osyal":1266,"Ġprogram":1267,"lerinden":1268,"orum":1269,"ĠÃ¼zere":1270,"Ġce":1271,"Ġik":1272,"ĠgÃ¼Ã§":1273,"sal":1274,"lerle":1275,"tal":1276,"ÄŁim":1277,"ri":1278,"Ġgenel":1279,"aba":1280,"Ã¼mÃ¼z":1281,"Ġbile":1282,"gel":1283,"ĠgerÃ§ekleÅŁtir":1284,"duÄŁu":1285,"Ġem":1286,"Ġ'":1287,"anda":1288,"ĠkonuÅŁ":1289,"ĠÃ¼zerine":1290,"AR":1291,"Ġpay":1292,"Ġbiri":1293,"elerin":1294,"mayan":1295,"oÄŁlu":1296,"ĠkaÃ§":1297,"larÄ±ndan":1298,"Ġedilm":1299,"ĠÃ¼y":1300,"ĠGenel":1301,"kÄ±":1302,"leme":1303,"ĠÃ¼ret":1304,"ĠhakkÄ±nda":1305,"rÄ±ca":1306,"ĠoluÅŁ":1307,"ge":1308,"Ġkayn":1309,"ĠkadÄ±n":1310,"lenen":1311,"Ġdestek":1312,"Ġ#":1313,"ĠyÄ±lÄ±nda":1314,"ĠÃ¼zerinde":1315,"lum":1316,"lerimiz":1317,"ov":1318,"edik":1319,"Ġsorun":1320,"umuz":1321,"aÅŁtÄ±r":1322,"ent":1323,"Ġfilm":1324,"ĠMÃ¼dÃ¼r":1325,"ĠgeÃ§ir":1326,"urt":1327,"ĠhÄ±z":1328,"ĠÃ§Ã¶z":1329,"Ã§i":1330,"Ä±rÄ±m":1331,"Ġkolay":1332,"ĠMil":1333,"Ġmerkez":1334,"Ġanlam":1335,"aj":1336,"Ġdin":1337,"elim":1338,"ant":1339,"Ġuzun":1340,"fa":1341,"ĠbÃ¼tÃ¼n":1342,"ĠbÃ¶lÃ¼m":1343,"acÄ±":1344,"rar":1345,"Ġihtiy":1346,"ĠbazÄ±":1347,"Ã§Ä±":1348,"ĠBaÅŁ":1349,"Ġ15":1350,"Ġmuh":1351,"Ä±lÄ±r":1352,"ile":1353,"Ã¼nkÃ¼":1354,"efon":1355,"gan":1356,"sik":1357,"Ġ200":1358,"Ä±ldÄ±":1359,"onom":1360,"ÄŁin":1361,"ali":1362,"ĠyÃ¶net":1363,"tÄ±m":1364,"Ġtam":1365,"Ġfa":1366,"manÄ±n":1367,"ĠSon":1368,"ĠbaÅŁka":1369,"Ġoyn":1370,"Ġhast":1371,"Ġtasar":1372,"Ġtamam":1373,"akat":1374,"ĠteÅŁ":1375,"Ġseb":1376,"ĠbaÅŁar":1377,"ĠBur":1378,"Ġun":1379,"Ġmet":1380,"ĠEk":1381,"Ã§ok":1382,"sin":1383,"Ġortaya":1384,"Ġbilgi":1385,"Ġres":1386,"irket":1387,"ĠÃ¼n":1388,"Ġgeldi":1389,"siyon":1390,"Ä±lmasÄ±":1391,"Ġkoy":1392,"ĠsÄ±":1393,"mer":1394,"Ã¼Ã§Ã¼k":1395,"Ġhep":1396,"Ġ%":1397,"ver":1398,"tif":1399,"uru":1400,"ĠÃ¼Ã§":1401,"ĠsaÄŁla":1402,"Ä±lÄ±m":1403,"ĠÃ¶ÄŁrenc":1404,"Ġsonr":1405,"inizi":1406,"ank":1407,"Ã¼ltÃ¼r":1408,"ĠBen":1409,"Ġhareket":1410,"Ġkabul":1411,"mam":1412,"Ġkes":1413,"rik":1414,"oÄŁraf":1415,"Ġplan":1416,"ĠgeliÅŁ":1417,"Ġmev":1418,"dÄ±ndan":1419,"azar":1420,"gÄ±":1421,"ĠTek":1422,"ĠÃľniversit":1423,"ĠdÃ¼ny":1424,"ĠyaÅŁam":1425,"Ġhaber":1426,"Ġediyor":1427,"Ä±lacak":1428,"ĠAllah":1429,"Ã¶k":1430,"Ġifade":1431,"yla":1432,"suz":1433,"Ġbey":1434,"min":1435,"Ġmi":1436,"ĠyayÄ±n":1437,"ĠgÃ¶rÃ¼ÅŁ":1438,"ĠGÃ¼n":1439,"Ġkom":1440,"meler":1441,"Ġw":1442,"bol":1443,"eÅŁit":1444,"ĠkÄ±z":1445,"ayÄ±n":1446,"eg":1447,"ĠYÃ¶n":1448,"sanÄ±z":1449,"miÅŁtir":1450,"res":1451,"ĠCumhur":1452,"ĠyakÄ±n":1453,"Ġhes":1454,"ĠkiÅŁi":1455,"Ġyas":1456,"Ġrahat":1457,"tem":1458,"dum":1459,"Ġedilen":1460,"Ġolabilir":1461,"ĠMerkez":1462,"Ġtah":1463,"trol":1464,"isini":1465,"dav":1466,"mir":1467,"Ġolay":1468,"Ġpol":1469,"gin":1470,"Ġbenim":1471,"Ġziy":1472,"kara":1473,"ĠKan":1474,"ĠEs":1475,"ber":1476,"Ġayr":1477,"anlÄ±ÄŁÄ±":1478,"istan":1479,"duÄŁ":1480,"com":1481,"ĠbÃ¶yle":1482,"ĠgÃ¶nder":1483,"mez":1484,"dim":1485,"ĠSan":1486,"ĠsaÄŁlÄ±k":1487,"asÄ±na":1488,"Ġtelefon":1489,"Ġ|":1490,"indeki":1491,"ĠÃ§alÄ±ÅŁmalar":1492,"Ġhan":1493,"Ġyapan":1494,"ĠyÃ¼zde":1495,"madan":1496,"ĠiÃ§erisinde":1497,"nde":1498,"Ġ/":1499,"uÄŁ":1500,"ĠÅŁu":1501,"per":1502,"Ġterc":1503,"Ġla":1504,"Ġyerine":1505,"Ġkav":1506,"isine":1507,"Ġancak":1508,"ĠaraÃ§":1509,"ele":1510,"Ġuygula":1511,"ĠAt":1512,"Ä±nÄ±r":1513,"undan":1514,"Ä±yorum":1515,"ĠYar":1516,"ĠdÃ¼nya":1517,"Ġbilin":1518,"ĠDev":1519,"tÄ±ÄŁ":1520,"ize":1521,"edef":1522,"ĠÃ¼c":1523,"ĠHal":1524,"tur":1525,"Ġkonusunda":1526,"Ġkapsam":1527,"ekten":1528,"ĠkÄ±r":1529,"cek":1530,"ĠdeÄŁerlendir":1531,"ĠPar":1532,"Ġkalit":1533,"),":1534,"ĠÃ¼cret":1535,"Ġtur":1536,"nek":1537,"ĠsonuÃ§":1538,"ekte":1539,"amaz":1540,"Ã¼ÅŁt":1541,"lÄ±yor":1542,"ternet":1543,"ĠvardÄ±r":1544,"Ġman":1545,"det":1546,"oÄŁan":1547,"ĠardÄ±ndan":1548,"ĠyaklaÅŁ":1549,"ÂŃ":1550,"imdi":1551,"ĠYÄ±l":1552,"ĠAB":1553,"Ġanlat":1554,"ĠAncak":1555,"Ġdolay":1556,"ekli":1557,"Ġtal":1558,"ĠAma":1559,"ĠÃ§eÅŁit":1560,"Ã¼kÃ¼m":1561,"arasÄ±":1562,"yacak":1563,"ĠHer":1564,"leyen":1565,"Ġ12":1566,"oh":1567,"Ġistedi":1568,".âĢĿ":1569,"ilere":1570,"ĠEl":1571,"ĠEÄŁitim":1572,"Ġam":1573,"landÄ±r":1574,"Ã¼nÃ¼n":1575,"ĠAs":1576,"Ġkurum":1577,"ÂĴ":1578,"Ġetmek":1579,"Ġmilyon":1580,"ĠEv":1581,"uluk":1582,"Ġkez":1583,"Ġyarat":1584,"unca":1585,"Ġdiy":1586,"Ġindir":1587,"Ä±da":1588,"ekk":1589,"azet":1590,"ĠbirÃ§ok":1591,"rupa":1592,"Ġinan":1593,"oÄŁu":1594,"las":1595,"ĠbÃ¼y":1596,"TÃ¼rk":1597,"ĠbugÃ¼n":1598,"Ġisim":1599,"ĠâĢĵ":1600,"uyu":1601,"Ġdevlet":1602,"Ġmodel":1603,"Ä±ÅŁÄ±":1604,"ĠgÃ¶rÃ¼l":1605,"Ġmey":1606,"10":1607,"ĠSer":1608,"Ġtercih":1609,"ĠbaÄŁlÄ±":1610,"ust":1611,"Ä±lmÄ±ÅŁ":1612,"ilmiÅŁ":1613,"ĠTar":1614,"Ġses":1615,"he":1616,"ĠartÄ±k":1617,"Ä±nÄ±f":1618,"erj":1619,"19":1620,"Ġtat":1621,"lo":1622,"Ġgelir":1623,"Ġkir":1624,"Ġziyaret":1625,"ĠBÃ¶l":1626,"Ġber":1627,"Ġmer":1628,"sil":1629,"Ġhis":1630,"ĠgÃ¼nÃ¼":1631,"nda":1632,"Ã¼b":1633,"ĠÂ":1634,"Ġtav":1635,"Ġiti":1636,"oÄŁun":1637,"Ġyen":1638,"ĠÃ¶de":1639,"Ġolsun":1640,"izi":1641,"ĠYap":1642,"yÄ±":1643,"otoÄŁraf":1644,"Ġkontrol":1645,"Bir":1646,"ĠgeliÅŁtir":1647,"sunuz":1648,"ast":1649,"ud":1650,"ĠkÄ±sa":1651,"kÃ¼n":1652,"ĠuÃ§":1653,"Ġolup":1654,"tÄ±ÄŁÄ±":1655,"Ġtoplan":1656,"ĠyanÄ±":1657,"aliyet":1658,"ĠbaÅŁv":1659,"ĠsektÃ¶r":1660,"adÄ±":1661,"ĠyaptÄ±ÄŁÄ±":1662,"iyesi":1663,"Ġerk":1664,"akk":1665,"ebilirsiniz":1666,"kinci":1667,"ĠTL":1668,"'t":1669,"alt":1670,"Ġyine":1671,"Ġdah":1672,"Ġhedef":1673,"ĠÃĸzel":1674,"lim":1675,"ĠÅŁirket":1676,"Ġ[":1677,"ĠDer":1678,"ĠaltÄ±nda":1679,"uÅŁtu":1680,"Ġ2018":1681,"ĠpaylaÅŁ":1682,"Ġvat":1683,"Ġincel":1684,"Ġhemen":1685,"ĠsÃ¶yledi":1686,"ĠgeÃ§en":1687,"ĠaÃ§Ä±kla":1688,"ĠÃľniversitesi":1689,"ĠgenÃ§":1690,"ĠaraÅŁtÄ±r":1691,"Ġyapmak":1692,"mem":1693,"ĠyaÅŁan":1694,"Ġait":1695,"iyi":1696,"anlar":1697,"ĠyaÄŁ":1698,"Ä±yoruz":1699,"etmen":1700,"Ġrenk":1701,"obil":1702,"ari":1703,"Ġsize":1704,"ĠBÃ¼yÃ¼k":1705,"umu":1706,"Ã¼cad":1707,"erli":1708,"Ġmem":1709,"Ġtoplum":1710,"ĠÄ°z":1711,"Ġkol":1712,"abÄ±":1713,"ĠMah":1714,"Ġkitap":1715,"Ġitibar":1716,"ĠmaÃ§":1717,"ĠmÄ±":1718,"alama":1719,"eyin":1720,"ĠseÃ§im":1721,"Ġbenz":1722,"br":1723,"Ġsosyal":1724,"uslar":1725,"Ġvur":1726,"Ġkaynak":1727,"duk":1728,"ayet":1729,"ĠfÄ±r":1730,"laÅŁtÄ±r":1731,"Ġzamanda":1732,"emm":1733,"ĠmÃ¼m":1734,"Ġtr":1735,"Ã¼sÃ¼":1736,"Ġkil":1737,"ĠDÃ¼n":1738,"Ġadam":1739,"Ġmas":1740,"edim":1741,"ĠmÃ¼ÅŁt":1742,"ĠBiz":1743,"ĠTop":1744,"Ġherk":1745,"Ġbar":1746,"asÄ±nÄ±":1747,"ĠkÃ¼Ã§Ã¼k":1748,"ĠsÃ¼re":1749,"Ġtemiz":1750,"Ġbunu":1751,"Ġid":1752,"ET":1753,"ĠoldukÃ§a":1754,"Ġcev":1755,"manÄ±z":1756,"Ġ18":1757,"ĠilÃ§":1758,"oloji":1759,"ost":1760,"Ġli":1761,"Ġzar":1762,"ale":1763,"ĠhiÃ§bir":1764,"An":1765,"isinin":1766,"aban":1767,"Ġgeri":1768,"ecektir":1769,"Ġekonom":1770,"tiÄŁi":1771,"Ġmark":1772,"tiv":1773,"ch":1774,"Ġders":1775,"za":1776,"Ġpek":1777,"ĠOn":1778,"Ġgereken":1779,"ĠÃ¼zerinden":1780,"ĠtakÄ±m":1781,"Ġuygu":1782,"dÄ±n":1783,"ÅŁte":1784,"amp":1785,"Ġanla":1786,"ĠsÄ±nÄ±r":1787,"tin":1788,"ĠtanÄ±":1789,"lÃ¼ÄŁÃ¼":1790,"Ġdir":1791,"Ġserv":1792,"ĠAvrupa":1793,"Ġ.":1794,"gÄ±n":1795,"ÄŁinde":1796,"Ġverdi":1797,"Ġsab":1798,"Ġveren":1799,"Ġadet":1800,"ag":1801,"Ġpara":1802,"for":1803,"ĠmÃ¼z":1804,"andaÅŁ":1805,"Ġonun":1806,"ĠdeÄŁiÅŁik":1807,"ani":1808,"ilmek":1809,"Ġokul":1810,"ĠmÃ¼mkÃ¼n":1811,"isyon":1812,"Ġyorum":1813,"Ġdak":1814,"Ġilet":1815,"tim":1816,"Ġper":1817,"ĠDr":1818,"Ä±ntÄ±":1819,"dana":1820,"bu":1821,"Ġhalk":1822,"umlu":1823,"Ġetkin":1824,"of":1825,"ĠAnkara":1826,"din":1827,"Ġbiraz":1828,"Ġmu":1829,"uyla":1830,"Ġtedav":1831,"ĠÃĸÄŁr":1832,"Ġhafta":1833,"elen":1834,"hangi":1835,"cÃ¼":1836,"bak":1837,"Ġtekrar":1838,"Ġ11":1839,"ĠHaz":1840,"masÄ±nÄ±n":1841,"Ġbildir":1842,"Ġoluyor":1843,"lemek":1844,"ĠÃ¶zellik":1845,"alarÄ±n":1846,"Ġbizim":1847,"Ġnokt":1848,"Ġeski":1849,"ni":1850,"Ġtakip":1851,"âĢľ":1852,"Ä±sÄ±nda":1853,"ĠdeÄŁiÅŁtir":1854,"Ġfaaliyet":1855,"imizin":1856,"Ä±nav":1857,"ĠÃ§alÄ±ÅŁan":1858,"50":1859,"Ġsey":1860,"Ġberaber":1861,"ĠÅŁeh":1862,"fer":1863,"baÅŁk":1864,"su":1865,"Ġele":1866,"asÄ±nÄ±n":1867,"Ġsiyas":1868,"ãģ":1869,"ola":1870,"ĠmÃ¼cad":1871,"ĠiliÅŁk":1872,"Ġsoru":1873,"ĠÃĸn":1874,"AL":1875,"eÄŁi":1876,"Ä±ma":1877,"yle":1878,"Ġbirbir":1879,"Ġengel":1880,"sÄ±nÄ±z":1881,"Ġsak":1882,"ĠOk":1883,"Ġorta":1884,"ince":1885,"ĠhÃ¼kÃ¼m":1886,"ĠKal":1887,"Ġuzak":1888,"rat":1889,"Ġmadde":1890,"malÄ±dÄ±r":1891,"ĠanlaÅŁ":1892,"ĠaÄŁÄ±r":1893,"ĠKay":1894,"alÄ±m":1895,"larÄ±yla":1896,"ĠtÃ¼k":1897,"Ġsanat":1898,"doÄŁan":1899,"Ġerkek":1900,"ĠyÃ¶ntem":1901,"ekkÃ¼r":1902,"Ġelde":1903,"AK":1904,"Ä±sÄ±ndan":1905,"ĠyapÄ±":1906,"Ġnedeniyle":1907,"elere":1908,"Ġmik":1909,"sman":1910,"ĠsavaÅŁ":1911,"ker":1912,"ĠÃ§evr":1913,"ĠkaldÄ±r":1914,"erÃ§":1915,"ĠbaÄŁlan":1916,"ĠÃ§Ã¶zÃ¼m":1917,"lek":1918,"taj":1919,"Ġfay":1920,"Ġbana":1921,"Ġkesin":1922,"Ġul":1923,"ĠÄ°Ã§":1924,"Ġistem":1925,"muÅŁtur":1926,"ĠyÃ¶nelik":1927,"ren":1928,"ime":1929,"ĠBunun":1930,"ĠfotoÄŁraf":1931,".\"":1932,"000":1933,"Ġalmak":1934,"yan":1935,"Ġkut":1936,"ĠÃ¶lÃ§":1937,"ĠÃ¶zellikle":1938,"Ġuygulan":1939,"ĠÃ§aÄŁ":1940,"Ġbunun":1941,"ĠÃ§alÄ±ÅŁma":1942,"Ġspor":1943,"Ã¼f":1944,"ron":1945,"ĠABD":1946,"esinden":1947,"Ġkonusu":1948,"ĠaÅŁaÄŁÄ±":1949,"lÃ¼ÄŁ":1950,"pr":1951,"Ġbor":1952,"dak":1953,"ĠsÄ±ra":1954,"elerini":1955,"Ġ30":1956,"Ġtemel":1957,"deÅŁ":1958,"EN":1959,"Ġboz":1960,"Ġ14":1961,"lardÄ±r":1962,"Ġmillet":1963,"Ġbay":1964,"ĠbaÅŁladÄ±":1965,"elerde":1966,"Ġmed":1967,"ĠboÅŁ":1968,"Ġdiz":1969,"ĠOy":1970,"ĠBelediye":1971,"ilerini":1972,"ĠAyrÄ±ca":1973,"iyeti":1974,"ĠHas":1975,"Ġgez":1976,"Ġonu":1977,"uslararasÄ±":1978,"Ġverm":1979,"ĠBaÅŁkan":1980,"Ã¼nden":1981,"lÃ¼l":1982,"Ġsar":1983,"ilmektedir":1984,"Äŀ":1985,"ĠvatandaÅŁ":1986,"vet":1987,"ĠTur":1988,"HP":1989,"ĠgeniÅŁ":1990,"alat":1991,"ĠkoÅŁ":1992,"ilerine":1993,"Ġgerekir":1994,"afa":1995,"pan":1996,"Ġedildi":1997,"tu":1998,"ĠEy":1999,"Ġmah":2000,"ĠyatÄ±rÄ±m":2001,"sat":2002,"ĠVe":2003,"Ġ13":2004,"alet":2005,"ĠKas":2006,"cut":2007,"Ġ16":2008,"ĠgiriÅŁ":2009,"etay":2010,"Ġherhangi":2011,"ĠKad":2012,"ĠHay":2013,"Ġinternet":2014,"izm":2015,"ĠayrÄ±":2016,"ĠdeÄŁildir":2017,"Ġ...":2018,"Ġsayf":2019,"ift":2020,"Ġortam":2021,"ĠkÃ¼ltÃ¼r":2022,"onu":2023,"ve":2024,"esel":2025,"Ġac":2026,"leriyle":2027,"Ġolmayan":2028,"ĠBey":2029,"ĠyÃ¶netim":2030,"ĠparÃ§":2031,"ĠraÄŁ":2032,"ĠiliÅŁkin":2033,"azi":2034,"Ġrek":2035,"ĠalÄ±ÅŁ":2036,"eyim":2037,"ĠKo":2038,"ĠYeni":2039,"Ġnum":2040,"dÃ¼ÄŁ":2041,"Ġyani":2042,"ĠÅŁekl":2043,"Ġotur":2044,"Ġgerekli":2045,"Ġyeniden":2046,"Ġner":2047,"dÃ¼l":2048,"caÄŁÄ±":2049,"aten":2050,"Ġdair":2051,"ukuk":2052,"ow":2053,"lÄ±nda":2054,"eci":2055,"ĠadÄ±":2056,"Ä±lÄ±yor":2057,"ĠKom":2058,"ĠsatÄ±ÅŁ":2059,"ĠÃĩÃ¼nkÃ¼":2060,"itik":2061,"isay":2062,"ĠÃ§Ä±kan":2063,"ĠyÃ¼ksel":2064,"sÄ±n":2065,"ĠihtiyaÃ§":2066,"Ġsil":2067,"ĠdolayÄ±":2068,"bi":2069,"Ġbilm":2070,"ÄŁine":2071,"ĠÃ§iz":2072,"Ġoran":2073,"Ã¼cÃ¼":2074,"Ġcih":2075,"Ġvide":2076,"Ġortak":2077,"arken":2078,"matik":2079,"Ġail":2080,"ĠÄ°ngil":2081,"Ġhesap":2082,"ĠraÄŁmen":2083,"Ġaras":2084,"Ġdol":2085,"imize":2086,"enek":2087,"can":2088,"Ġkah":2089,"Ä±ÅŁtÄ±r":2090,"ĠÅŁart":2091,"efer":2092,"Ġsav":2093,"Ġgrup":2094,"ĠbakÄ±m":2095,"ĠMerkezi":2096,"Ġikinci":2097,"ĠKul":2098,"masÄ±nda":2099,"ĠdÄ±ÅŁÄ±nda":2100,"Ġdok":2101,"inize":2102,"Ġcan":2103,"ES":2104,"Ġekip":2105,"be":2106,"ĠÃ¶rg":2107,"ĠeÄŁ":2108,"ĠhÄ±zlÄ±":2109,"inci":2110,"larÄ±nÄ±z":2111,"Ġyemek":2112,"landÄ±":2113,"Ã¼ÄŁ":2114,").":2115,"icaret":2116,"esiyle":2117,"12":2118,"Ġyal":2119,"Ã¼lt":2120,"ÅŁam":2121,"Ġhiss":2122,"ĠNe":2123,"ĠSaÄŁ":2124,"kil":2125,"erson":2126,"ĠDevlet":2127,"Ġelekt":2128,"lis":2129,"Ã¼mÃ¼":2130,"ĠGÃ¶r":2131,"Ġburada":2132,"Ġsizin":2133,"Ġisteyen":2134,"Ġgider":2135,"ĠÃ¶ner":2136,"ĠAh":2137,"ĠgerÃ§ekleÅŁ":2138,"EL":2139,"Ġaday":2140,"ĠMeh":2141,"ĠkapsamÄ±nda":2142,"AT":2143,"isk":2144,"mat":2145,"ĠkÄ±sm":2146,"imde":2147,"abilece":2148,"ĠinÅŁ":2149,"ĠBay":2150,"apor":2151,"Ġyarar":2152,"ĠOt":2153,"ĠsÃ¼rdÃ¼r":2154,"mal":2155,"Ġ17":2156,"ĠamaÃ§":2157,"30":2158,"Ġsek":2159,"Ġlis":2160,"nÄ±z":2161,"Ġbelg":2162,"ÅŁehir":2163,"meli":2164,"Ġiddi":2165,"Ġdes":2166,"ĠbaÅŁk":2167,"ĠÅŁehir":2168,"Ġorgan":2169,"rim":2170,"Ġderece":2171,"TÃ¼rkiye":2172,"pit":2173,"ĠteÅŁekkÃ¼r":2174,"ĠaÃ§Ä±klama":2175,"ĠyardÄ±mcÄ±":2176,"Ġsayesinde":2177,"Ä±rken":2178,"ĠUy":2179,"Ġmalz":2180,"ĠsuÃ§":2181,"Ġolab":2182,"utbol":2183,"ĠsaÃ§":2184,"Ġunut":2185,"cÄ±sÄ±":2186,"Ġoda":2187,"ĠÃ§eÅŁitli":2188,"Ġ2017":2189,"Ġolsa":2190,"imizi":2191,"ĠkullanÄ±cÄ±":2192,"ĠsaldÄ±r":2193,"Ã»":2194,"Ġboyunca":2195,"ĠÃ¼retim":2196,"isayar":2197,"ĠkÃ¶y":2198,"Ġcin":2199,"ĠsÄ±nÄ±f":2200,"ite":2201,"ĠAK":2202,"meyi":2203,"emin":2204,"Ġedil":2205,"Ġhalinde":2206,"enc":2207,"ĠtÄ±k":2208,"Ġkas":2209,"mÄ±ÅŁtÄ±":2210,"Ġmek":2211,"Ä±nca":2212,"Ġdayan":2213,"Ġamac":2214,"Ã¶rt":2215,"ĠÅŀub":2216,"Ġuygulama":2217,"uvar":2218,"Ġister":2219,"ĠDaha":2220,"Ġsok":2221,"dem":2222,"Ġmevcut":2223,"ĠÃ§ar":2224,"Ġuzman":2225,"ĠkayÄ±t":2226,"Ä±yÄ±":2227,"Ġenerj":2228,"Ġteknik":2229,"Ġedin":2230,"emi":2231,"ĠuÄŁr":2232,"Ġhey":2233,"ĠAd":2234,"ĠErdoÄŁan":2235,"Ġdetay":2236,"meden":2237,"ĠyoÄŁun":2238,"luluk":2239,"lilik":2240,"Ã¼ler":2241,"ĠÄ°lk":2242,"ĠtÃ¼rlÃ¼":2243,"ĠKurulu":2244,"Ġgec":2245,"ĠkuruluÅŁ":2246,"Ġ24":2247,"lk":2248,"ĠBelediyesi":2249,"abancÄ±":2250,"luÄŁ":2251,"ĠkullanÄ±l":2252,"ĠMuh":2253,"Ä±nÄ±zÄ±":2254,"ĠiÅŁlet":2255,"Ġhava":2256,"Ġtoplam":2257,"ĠsÄ±cak":2258,"yo":2259,"Ä°N":2260,"ĠTr":2261,"ĠDÃ¼nya":2262,"Ġsahibi":2263,"Ġmez":2264,"Ġzarar":2265,"vek":2266,"ĠTekn":2267,"ĠOsman":2268,"ĠHar":2269,"ĠAli":2270,"11":2271,"medi":2272,"Ġtarihi":2273,"ĠMar":2274,"Ä±rÄ±":2275,"Ġsez":2276,"ĠDem":2277,"ladÄ±":2278,"ĠSay":2279,"Ġav":2280,"Ġdurumda":2281,"talya":2282,"ba":2283,"Ġbize":2284,"uan":2285,"taÅŁ":2286,"Ġteh":2287,"alarda":2288,"anlÄ±ÄŁ":2289,"ĠEm":2290,"ĠyapÄ±lacak":2291,"ĠUz":2292,"ebek":2293,"Ġkork":2294,"Ġvak":2295,"tep":2296,"ĠGel":2297,"Ġle":2298,"etin":2299,"Ä±ÅŁÄ±k":2300,"tiÄŁini":2301,"Ġistiyor":2302,"Ġiy":2303,"Ġey":2304,"sak":2305,"Ġederek":2306,"olojik":2307,"lÃ¼m":2308,"ĠolacaktÄ±r":2309,"Ġtalep":2310,"ate":2311,"ira":2312,"Ġof":2313,"Ġmen":2314,"Ã¾":2315,"ĠyanÄ±nda":2316,"Ġbeni":2317,"elerinin":2318,"ĠAb":2319,"Ã¼len":2320,"Ġtarihinde":2321,"ilerinin":2322,"gun":2323,"ere":2324,"Ġsebep":2325,"ĠyaklaÅŁÄ±k":2326,"Ġverilen":2327,"Ġgiy":2328,"ĠbiÃ§":2329,"makta":2330,"ĠaldÄ±":2331,"Ġ25":2332,"adolu":2333,"Ġanda":2334,"ĠtasarÄ±m":2335,"ĠsÃ¼rekli":2336,"mesini":2337,"ĠadÄ±m":2338,"Ġhale":2339,"ĠdoÄŁr":2340,"Ġtep":2341,"liyor":2342,"ĠdoÄŁal":2343,"Ġgazet":2344,"ãģĤ":2345,"bo":2346,"Ġdahil":2347,"iliÄŁi":2348,"ĠHav":2349,"ener":2350,"ĠSu":2351,"ĠYÃ¼k":2352,"lÃ¢":2353,"ĠdÃ¶nÃ¼ÅŁ":2354,"Ġpat":2355,"Ġj":2356,"Ġdar":2357,"yar":2358,"ohbet":2359,"ĠDo":2360,"Ġtespit":2361,"ĠcanlÄ±":2362,"ĠUl":2363,"ãģĤãģĤ":2364,"Ġdavran":2365,"ĠMehmet":2366,"lendi":2367,"otor":2368,"anÄ±ÅŁ":2369,"ĠyÄ±k":2370,"asyonu":2371,"usal":2372,"ĠSur":2373,"ĠyazÄ±":2374,"imleri":2375,"fet":2376,"Ġbab":2377,"IN":2378,"cÄ±lÄ±k":2379,"ĠsÄ±nav":2380,"dam":2381,"ĠettiÄŁi":2382,"yum":2383,"ĠsayÄ±lÄ±":2384,"ĠÃĸr":2385,"Ġgeliyor":2386,"Ġcevap":2387,"ii":2388,"Ġpazar":2389,"ĠParti":2390,"ij":2391,"ĠhatÄ±r":2392,"ĠyÃ¼rÃ¼t":2393,"Ġst":2394,"oktor":2395,"air":2396,"Ġrak":2397,"lif":2398,"Ġiler":2399,"ĠkardeÅŁ":2400,"ĠmaÄŁ":2401,"endi":2402,"Ġfik":2403,"ediye":2404,"tay":2405,"emizde":2406,"Ġtemsil":2407,"lÄ±ÅŁ":2408,"aÅŁÄ±":2409,"ĠadÄ±na":2410,"fes":2411,"Ã¼le":2412,"lanmÄ±ÅŁ":2413,"Ġnedenle":2414,"ĠHat":2415,"caÄŁÄ±nÄ±":2416,"Ġ100":2417,"AS":2418,"ĠKasÄ±m":2419,"Ġbilgiler":2420,"Al":2421,"all":2422,"Ġhangi":2423,"ĠkullanÄ±m":2424,"Ġcihaz":2425,"iran":2426,"dÄ±ÄŁÄ±mÄ±z":2427,"Ġip":2428,"ĠAmer":2429,"alarÄ±nda":2430,"Ġkonuda":2431,"ĠmÃ¼ÅŁter":2432,"mesine":2433,"ĠtanÄ±m":2434,"atif":2435,"ĠÅŁeklinde":2436,"ĠÃ¶rnek":2437,"iir":2438,"Ġbeklen":2439,"Ġgerekiyor":2440,"lin":2441,"Ä°L":2442,"kaÃ§":2443,"Ġana":2444,"ĠÅŁÃ¶yle":2445,"ĠKap":2446,"ĠaÃ§Ä±sÄ±ndan":2447,"adde":2448,"ĠRus":2449,"ĠBun":2450,"ĠÃ¶zg":2451,"ĠyarÄ±ÅŁ":2452,"ĠvÃ¼c":2453,"ĠkÄ±":2454,"Ġbayan":2455,"Ä±sÄ±nÄ±":2456,"ĠiletiÅŁim":2457,"osu":2458,"Ġpart":2459,"elerine":2460,"ustafa":2461,"Ġkalk":2462,"Ben":2463,"emmuz":2464,"bah":2465,"ormal":2466,"Ġyurt":2467,"Ġedeb":2468,"Ġnit":2469,"ĠterÃ¶r":2470,"Ġsin":2471,"Ðµ":2472,"ser":2473,"Ġgece":2474,"Ġona":2475,"evi":2476,"ĠÃ¼niversit":2477,"eder":2478,"Ġkalan":2479,"abilecek":2480,"Ä±sÄ±yla":2481,"ilerek":2482,"Ġoyuncu":2483,"Ġservis":2484,"tÃ¶r":2485,"Ġsistemi":2486,"ĠAlman":2487,"amak":2488,"ÄŁiz":2489,"Ġnak":2490,"ĠÄ°zmir":2491,"ĠKor":2492,"Ġann":2493,"lamak":2494,"Ġbaz":2495,"menin":2496,"ĠMay":2497,"Ġ2016":2498,"inc":2499,"Ġcid":2500,"Ġbelli":2501,"Ġlist":2502,"AD":2503,"ĠbaÅŁarÄ±lÄ±":2504,"ĠÃ¶ÄŁretmen":2505,"ĠAÃ§":2506,"ĠRes":2507,"ĠartÄ±r":2508,"ĠkullanÄ±lan":2509,"Ä°R":2510,"Ġmesaj":2511,"AM":2512,"Ã¢n":2513,"layarak":2514,"gisi":2515,"Ġtart":2516,"Ġdiyor":2517,"Ġruh":2518,"ĠyaptÄ±ÄŁ":2519,"ĠTemmuz":2520,"ĠyaptÄ±r":2521,"Ä°n":2522,"Ġherkes":2523,"ĠsaÄŁlan":2524,"15":2525,"ĠÃ§oc":2526,"ĠÅŁimdi":2527,"Ġkapat":2528,"ĠsÄ±rasÄ±nda":2529,"Ġnet":2530,"ern":2531,"Ġbilim":2532,"ĠkarÅŁÄ±la":2533,"ĠEÄŁer":2534,"Ġit":2535,"Ġah":2536,"ĠvardÄ±":2537,"AB":2538,"ĠdÃ¼zenlenen":2539,"EM":2540,"ĠtÃ¼ket":2541,"Ġhik":2542,"ĠDoÄŁ":2543,"ĠkiÅŁinin":2544,"Ġab":2545,"Ġban":2546,"bilirsiniz":2547,"ĠFir":2548,"mÃ¼ÅŁ":2549,"ĠkÃ¶tÃ¼":2550,"luÄŁu":2551,"meyen":2552,"ĠSÃ¶z":2553,"ĠMillet":2554,"Ġsonucu":2555,"mamÄ±z":2556,"mayacak":2557,"Ġinsanlar":2558,"Ġsig":2559,"Ġoku":2560,"isel":2561,"Ġcam":2562,"Ġoper":2563,"ayi":2564,"Ġdal":2565,"Ġkey":2566,"Ġpiyas":2567,"Ar":2568,"fak":2569,"ilmiÅŁtir":2570,"ĠMÃ¼dÃ¼rlÃ¼ÄŁÃ¼":2571,"arkÄ±":2572,"ind":2573,"Ġkamu":2574,"Ġmakin":2575,"meleri":2576,"izyon":2577,"ala":2578,"ĠYardÄ±m":2579,"Ġham":2580,"Ð°":2581,"amÄ±z":2582,"lÄ±kla":2583,"ÄŁe":2584,"elikle":2585,"ĠyalnÄ±z":2586,"EK":2587,"line":2588,"Ġdon":2589,"ĠAnadolu":2590,"etler":2591,"Ġyum":2592,"Ġzorunda":2593,"ĠgeÃ§miÅŁ":2594,"ĠHalk":2595,"ww":2596,"Ã¼ncÃ¼":2597,"Ġolmaz":2598,"Ġperson":2599,"ucu":2600,"Ġkelim":2601,"ĠÄ±s":2602,"Ġsonunda":2603,"eÅŁil":2604,"acaÄŁÄ±":2605,"ukarÄ±":2606,"Ġbes":2607,"Ġvideo":2608,"ĠHaber":2609,"ĠkatÄ±lÄ±m":2610,"elerinde":2611,"ĠÅŁah":2612,"ĠkonuÅŁtu":2613,"Ġweb":2614,"Ġrapor":2615,"Ġedecek":2616,"ansÄ±":2617,"Ġkaybet":2618,"Ġdep":2619,"ĠyÃ¼zden":2620,"rafik":2621,"Ġetkil":2622,"Ġ50":2623,"ĠBakanlÄ±ÄŁÄ±":2624,"ĠEylÃ¼l":2625,"ĠyaptÄ±k":2626,"ĠbulunduÄŁu":2627,"Ä±mda":2628,"emal":2629,"ĠYÃ¶net":2630,"rac":2631,"Ġitibaren":2632,"Ġfin":2633,"one":2634,"ĠHak":2635,"neÄŁi":2636,"kem":2637,"adan":2638,"AY":2639,"ĠMes":2640,"ĠÃ¶yle":2641,"ĠgÃ¼venlik":2642,"Ġsezon":2643,"Ä±nÄ±za":2644,"Ä±ldÄ±ÄŁÄ±":2645,"ĠsÃ¶yl":2646,"Ä±sÄ±na":2647,"ĠBar":2648,"dÄ±ÄŁÄ±nda":2649,"lerce":2650,"Ġmeydana":2651,"siy":2652,"iÅŁi":2653,"isan":2654,"ĠsÃ¼reÃ§":2655,"lÄ±klÄ±":2656,"Ġmalzem":2657,"Ã¼slÃ¼m":2658,"ĠOl":2659,"Ġotel":2660,"ĠhastalÄ±k":2661,"alara":2662,"ĠÃ§Ä±ktÄ±":2663,"ĠCumhurbaÅŁk":2664,"Ġhastan":2665,"ĠtartÄ±ÅŁ":2666,"ĠSpor":2667,"ĠdÃ¼ÅŁÃ¼nÃ¼yor":2668,"uÃ§":2669,"ĠyÄ±llÄ±k":2670,"emez":2671,"ĠMustafa":2672,"Ġgi":2673,"dÄ±z":2674,"dÃ¼ÄŁÃ¼":2675,"Ä±mÄ±za":2676,"Ġmis":2677,"ene":2678,"Ġyerde":2679,"ĠbaÅŁvur":2680,"atÃ¼rk":2681,"Ġaktar":2682,"ĠYayÄ±n":2683,"Ä°K":2684,"ĠaÅŁk":2685,"Ġizle":2686,"ĠÃ¶rgÃ¼t":2687,"ĠkarÅŁÄ±laÅŁ":2688,"Ġtamamen":2689,"Ġekran":2690,"lerdir":2691,"dÄ±klarÄ±":2692,"tiÄŁimiz":2693,"ĠÄ°st":2694,"Ġ199":2695,"ĠÃ§Ã¼nkÃ¼":2696,"ĠaracÄ±":2697,"ati":2698,"Ġsebeb":2699,"ĠÃľr":2700,"Ä±labilir":2701,"ĠÃĩok":2702,"Ġhukuk":2703,"Ġgiz":2704,"adem":2705,"ĠTak":2706,"Ġsizi":2707,"Ä±lab":2708,"itap":2709,"blem":2710,"Ä±nÄ±zda":2711,"dÃ¼k":2712,"....":2713,"Ġedilir":2714,"liÄŁini":2715,"ĠMart":2716,"ĠEt":2717,"laka":2718,"ĠMilli":2719,"ĠiÅŁaret":2720,"Ġfayd":2721,"ina":2722,"Ġcez":2723,"iri":2724,"ĠbulunmaktadÄ±r":2725,"ĠoluÅŁan":2726,"Ġbula":2727,"Ġseviy":2728,"Ġizin":2729,"200":2730,"Ġkaf":2731,"ĠsatÄ±n":2732,"Ġtip":2733,"ga":2734,"Ġeser":2735,"ĠamacÄ±yla":2736,"ĠSiz":2737,"Ġanlay":2738,"gam":2739,"Ġkayb":2740,"ĠhoÅŁ":2741,"uar":2742,"cort":2743,"ĠgÃ¼Ã§lÃ¼":2744,"Ä±lma":2745,"mar":2746,"Ġzaten":2747,"ĠTab":2748,"Ã¼nÃ¼z":2749,"Ġayak":2750,"Ġvarsa":2751,"Ġhayvan":2752,"Ġasker":2753,"inÃ§":2754,"ĠgÃ¼ncel":2755,"egor":2756,"sen":2757,"ĠbirkaÃ§":2758,"ĠaldÄ±ÄŁÄ±":2759,"ĠFak":2760,"ĠÄ°ngiliz":2761,"ĠkÄ±y":2762,"Ġtarif":2763,"Ġgelecek":2764,"Ġsol":2765,"oda":2766,"imler":2767,"engin":2768,"ĠkatkÄ±":2769,"Ġhaline":2770,"Ġekonomik":2771,"ĠÃ§ift":2772,"lenmesi":2773,"Ġic":2774,"ðŁ":2775,"mÄ±yor":2776,"Ġkendini":2777,"ĠIn":2778,"ĠarasÄ±ndaki":2779,"zer":2780,"UR":2781,"Ġkurt":2782,"Ġsohbet":2783,"ĠYaz":2784,"Ġfakat":2785,"unan":2786,"ĠVer":2787,"ĠilaÃ§":2788,"imli":2789,"Ġdakika":2790,"ĠÄ°nsan":2791,"ĠMal":2792,"ĠbaÅŁvuru":2793,"Ġgru":2794,"anlÄ±k":2795,"ĠYÃ¶netim":2796,"ĠayrÄ±ca":2797,"forman":2798,"Ay":2799,"etik":2800,"ĠEkim":2801,"ĠsÃ¶zleÅŁ":2802,"ĠyÄ±lÄ±":2803,".)":2804,"Ġbilgisayar":2805,"ildiÄŁi":2806,"ĠKr":2807,"aÅŁa":2808,"ĠHaziran":2809,"ĠMayÄ±s":2810,"amÄ±":2811,"alarÄ±nÄ±":2812,"Ġyoktur":2813,"Ġfutbol":2814,"Ġilan":2815,"ĠverdiÄŁi":2816,"Ġteslim":2817,"ĠbaÅŁarÄ±":2818,"ĠkiÅŁiler":2819,"18":2820,"log":2821,"Ġverir":2822,"Ġimk":2823,"ĠyanlÄ±ÅŁ":2824,"adÄ±ÄŁ":2825,"Ġkart":2826,"ĠÃĩalÄ±ÅŁ":2827,"Ġstr":2828,"aliz":2829,"ĠbeÄŁ":2830,"ĠaslÄ±nda":2831,"ĠKat":2832,"hend":2833,"Ġbi":2834,"ĠDeniz":2835,"Ġfor":2836,"Ä±mÄ±zÄ±":2837,"ĠÃĩocuk":2838,"Ġkarak":2839,"lulu":2840,"Ã¼me":2841,"oya":2842,"ĠAf":2843,"ĠTer":2844,"Ġ2015":2845,"enler":2846,"Ġhizmeti":2847,"Ġolmas":2848,"Ġyapar":2849,"ĠbasÄ±n":2850,"Ġistiyorum":2851,"Ġvaz":2852,"Ġend":2853,"Ġsorum":2854,"Ġteknoloj":2855,"ĠÄ°slam":2856,"ĠgerÃ§ekten":2857,"ĠYaÅŁ":2858,"Ġhatta":2859,"Ġtec":2860,"med":2861,"Ġdeniz":2862,"ĠGÃ¼ven":2863,"ĠakÄ±l":2864,"ĠkoÅŁul":2865,"Ġum":2866,"Ġgar":2867,"Ġyere":2868,"ĠalÄ±yor":2869,"ĠMec":2870,"ĠBah":2871,"Ġtesis":2872,"2018":2873,"eksiyon":2874,"Ġciddi":2875,"uvvet":2876,"ĠgÃ¼nlÃ¼k":2877,"ova":2878,"Ġstan":2879,"Ġeksik":2880,"ĠyapÄ±yor":2881,"veriÅŁ":2882,"Ġboyut":2883,"Ġpolis":2884,"ĠBÃ¶yle":2885,"dÄ±ÄŁÄ±m":2886,"ha":2887,"ĠyabancÄ±":2888,"Ġpuan":2889,"ĠdÃ¼zey":2890,"Ġ22":2891,"ĠsonrasÄ±":2892,"ĠetmiÅŁ":2893,"Ġnumar":2894,"ĠHizmet":2895,"aket":2896,"Ġmutlu":2897,"Ġdurumu":2898,"Ġisten":2899,"Ġ21":2900,"ampiyon":2901,"ĠakÅŁam":2902,"Ã¼ÅŁtÃ¼r":2903,"ĠHan":2904,"spor":2905,"ĠÃ¼lke":2906,"ĠinsanlarÄ±n":2907,"mada":2908,"ersiz":2909,"Ġpolitik":2910,"Ġproblem":2911,"ĠKÃ¼r":2912,"Ġdost":2913,"ĠÃ¶ldÃ¼r":2914,"Ġarada":2915,"larÄ±m":2916,"Ġkaliteli":2917,"Ġmiktar":2918,"Ġsizlere":2919,"Ġmemnun":2920,"vekili":2921,"ÄŁitimi":2922,"Ġnok":2923,"Ã°":2924,"ĠbaÅŁlayan":2925,"ĠolmuÅŁ":2926,"ĠgÃ¼nde":2927,"oman":2928,"ĠYÃ¼ksek":2929,"Ġemek":2930,"ĠadlÄ±":2931,"Ä°M":2932,"emen":2933,"ĠbaÅŁlat":2934,"ĠdÃ¼ÅŁÃ¼k":2935,"ĠSev":2936,"ĠdÃ¶rt":2937,"--":2938,"dÄ±ktan":2939,"Ġsilah":2940,"ÅŁÄ±":2941,"Ġmerak":2942,"ĠMak":2943,"Ġdolar":2944,"Ġyeterli":2945,"erÃ§ev":2946,"ĠalÄ±nan":2947,"ras":2948,"Ġ2014":2949,"ĠFakat":2950,"ĠkuÅŁ":2951,"Ġbulundu":2952,"hat":2953,"lÄ±ÄŁÄ±nÄ±":2954,"ĠGenÃ§":2955,"Ä°T":2956,"altÄ±":2957,"Ġkims":2958,"neÄŁin":2959,"gesi":2960,"ht":2961,"ĠProf":2962,"imin":2963,"yas":2964,"zÄ±m":2965,"ĠMan":2966,"ĠSen":2967,"ĠbaÅŁÄ±na":2968,"ĠyaÅŁayan":2969,"rada":2970,"ĠdÃ¶nemde":2971,"Ġkent":2972,"ĠeÄŁlen":2973,"ĠsÃ¶ylem":2974,"Ġyazar":2975,"aÄŁÄ±t":2976,"ĠLis":2977,"mayÄ±n":2978,"Ġsonuc":2979,"ĠBakanÄ±":2980,"ĠsayÄ±sÄ±":2981,"ĠiÃ§ine":2982,"ĠdÃ¼nyanÄ±n":2983,"âĢĺ":2984,"ĠMÃ¼dÃ¼rÃ¼":2985,"ĠbaÄŁÄ±m":2986,"Ġ:)":2987,"go":2988,"lamaya":2989,"ĉĊ":2990,"Ġdek":2991,"Ġbahis":2992,"gar":2993,"ĠoÄŁ":2994,"Ġ23":2995,"ĠAlt":2996,"ĠSal":2997,"ĠÃ¶nceki":2998,"sta":2999,"Ġbuna":3000,"ĠmÃ¼zik":3001,"ĠgÃ¶tÃ¼r":3002,"eyecek":3003,"Ġuyar":3004,"ĠSar":3005,"ĠProj":3006,"Ġaraya":3007,"ĠaltÄ±na":3008,"Ġcil":3009,"istik":3010,"ĠNisan":3011,"kar":3012,"ĠTÃ¼m":3013,"ĠGeÃ§":3014,"ĠKÃ¼ltÃ¼r":3015,"har":3016,"asa":3017,"Ġmotor":3018,"Ġmedya":3019,"Ġetkinlik":3020,"rol":3021,"rin":3022,"Ġdoktor":3023,"eygam":3024,"ĠAhmet":3025,"ĠBas":3026,"Ä±mÄ±zda":3027,"leriniz":3028,"ĠSel":3029,"Ġtoprak":3030,"madÄ±":3031,"siye":3032,"ete":3033,"ĠsÃ¼rec":3034,"uc":3035,"Ġnef":3036,"resi":3037,"ĠSam":3038,"fi":3039,"Ã¶v":3040,"Ġolun":3041,"aÄŁa":3042,"acaktÄ±r":3043,"alarÄ±nÄ±n":3044,"geÃ§":3045,"abil":3046,"yonel":3047,"Ä±mÄ±zÄ±n":3048,"ĠOcak":3049,"Ġonlar":3050,"Ġediyorum":3051,"Ġadres":3052,"ON":3053,"ĠAtatÃ¼rk":3054,"Ġtarz":3055,"Ġmutlaka":3056,"iÃ§ek":3057,"ĠÃ¼cretsiz":3058,"Ã¶ren":3059,"Ġyana":3060,"anan":3061,"Ġir":3062,"Ġtest":3063,"Ġsur":3064,"Ġayar":3065,"ĠMer":3066,"gen":3067,"ĠYani":3068,"Ġmin":3069,"Ġettik":3070,"25":3071,"rek":3072,"elidir":3073,"ĠdÃ¼ÅŁÃ¼nc":3074,"Ġ)":3075,"ï¿½ï¿½":3076,"uzey":3077,"ilendir":3078,"lenmiÅŁ":3079,"ĠbeÅŁ":3080,"ullah":3081,"Ġfak":3082,"ĠÃ¶lÃ¼m":3083,"ĠbaÅŁlan":3084,"Ġperforman":3085,"ĠAÅŁ":3086,"adÄ±k":3087,"Ġbulunuyor":3088,"ĠTel":3089,"taki":3090,"Ġsavun":3091,"ital":3092,"Ġvermek":3093,"ĠÃ¶dÃ¼l":3094,"masÄ±yla":3095,"ĠBul":3096,"adÄ±ÄŁÄ±":3097,"ĠCumhuriyet":3098,"Ġbahs":3099,"ĠdeÄŁiÅŁiklik":3100,"ĠSosyal":3101,"fesyonel":3102,"Ġetkili":3103,"Ġteklif":3104,"miyor":3105,"ult":3106,"lenme":3107,"Ġdurumunda":3108,"Ġtedavi":3109,"izik":3110,"Ġidar":3111,"ku":3112,"En":3113,"Ġmilyar":3114,"eyece":3115,"Ġfirmalar":3116,"Ä°S":3117,"hendis":3118,"eygamber":3119,"ĠKÄ±":3120,"seniz":3121,"ĠÃ§erÃ§ev":3122,"ĠmÃ¼cadele":3123,"nak":3124,"Ġuc":3125,"16":3126,"Ä±sÄ±nÄ±n":3127,"ĠdaÄŁ":3128,"ĠTarih":3129,"Ġyada":3130,"ediy":3131,"Ġbirey":3132,"Ġdeste":3133,"ĠmÃ¼cadel":3134,"Ġyolu":3135,"iddet":3136,"ĠsoÄŁ":3137,"ĠÃ¶ÄŁrenciler":3138,"ton":3139,"Ġedilmesi":3140,"Ġ40":3141,"ĠdÃ¶k":3142,"niyet":3143,"ĠseÃ§enek":3144,"ĠbaÅŁÄ±nda":3145,"ĠmÃ¼k":3146,"ÄŁust":3147,"Ġpersonel":3148,"Ġzengin":3149,"alÄ±ÄŁ":3150,"Ġnormal":3151,"yÄ±l":3152,"itesi":3153,"ĠayÄ±nda":3154,"ĠAÄŁ":3155,"Ġdile":3156,"ĠhazÄ±rlan":3157,"cÄ±lar":3158,"cil":3159,"mÄ±zÄ±":3160,"ĠÃ§ocuÄŁ":3161,"imizde":3162,"ebilecek":3163,"Ġbizi":3164,"Ġkredi":3165,"manÄ±":3166,"lisi":3167,"ĠBÃ¼yÃ¼kÅŁehir":3168,"Ġ2013":3169,"Ġimz":3170,"ratik":3171,"ĠiÃ§eri":3172,"Ġbelki":3173,"ros":3174,"OR":3175,"Ġalma":3176,"Ġhayal":3177,"hi":3178,"ĠYak":3179,"lenir":3180,"Ġhalde":3181,"ĠX":3182,"acaÄŁÄ±z":3183,"Ġform":3184,"Ġesn":3185,"par":3186,"Ġrol":3187,"vi":3188,"eceÄŁi":3189,"ĠyapÄ±lmasÄ±":3190,"ĠÅŁiir":3191,"ĠalÄ±r":3192,"eyn":3193,"ÄŁustos":3194,"zu":3195,"Ġsefer":3196,"ĠtoplantÄ±":3197,"ĠfÄ±rsat":3198,"ebilece":3199,"Ã¢r":3200,"Ġnot":3201,"ĠFakÃ¼lt":3202,"enÃ¼z":3203,"Ġmekan":3204,"Ġileri":3205,"iydi":3206,"Ġbeyaz":3207,"Ġyem":3208,"ĠÄ°ÅŁte":3209,"Ġdeneyim":3210,"dart":3211,"bur":3212,"sim":3213,"Ġmerkezi":3214,"Ġ2012":3215,"tÃ¼l":3216,"24":3217,"Ġdevr":3218,"Ġnerede":3219,"ĠProgram":3220,"eyle":3221,"day":3222,"ĠKÄ±r":3223,"ĠayÄ±r":3224,"ĠSistem":3225,"14":3226,"Ġnokta":3227,"elerden":3228,"ĠkapÄ±":3229,"Ġberi":3230,"Â´":3231,"ĠsaÄŁlar":3232,"ĠÃ§at":3233,"ÄŁinin":3234,"Ã¼ny":3235,"Ġdu":3236,"ĠSaÄŁlÄ±k":3237,"ĠÃ§al":3238,"Ġmobil":3239,"Her":3240,"teki":3241,"atÃ¶r":3242,"ĠTan":3243,"Ġbenzer":3244,"Ġkampan":3245,"Ġyetk":3246,"Ġrisk":3247,"uzur":3248,"ĠÃ¼nlÃ¼":3249,"Ġenerji":3250,"ĠÃĸzellikle":3251,"ipar":3252,"ĠbaÅŁkan":3253,"ĠsonrasÄ±nda":3254,"ĠÃ¶zgÃ¼r":3255,"Ġtrans":3256,"ĠuluslararasÄ±":3257,"bakan":3258,"Ġyandan":3259,"fen":3260,"ĠalanÄ±nda":3261,"Ġesas":3262,"ĠÃ¶nÃ¼nde":3263,"Ġnes":3264,"lamaz":3265,"ĠSÃ¼r":3266,"Ã¼mÃ¼zde":3267,"Ġpoz":3268,"evk":3269,"ĠsaÄŁlÄ±klÄ±":3270,"Ġdolu":3271,"Ġara":3272,"ĠsaÄŁlamak":3273,"ĠgiriÅŁim":3274,"Ġreklam":3275,"Ġsabah":3276,"Ġsene":3277,"Ġaray":3278,"amet":3279,"ĠgÃ¼l":3280,"LAR":3281,"Ġre":3282,"dÄ±ÄŁÄ±nÄ±z":3283,"Ġresmi":3284,"Ġsitesi":3285,"Ã¼ph":3286,"ĠÃ§evir":3287,"Ġyeri":3288,"meniz":3289,"Ã½n":3290,"form":3291,"yal":3292,"Ġdoldur":3293,"ĠKadÄ±n":3294,"Ġkanal":3295,"ĠDemir":3296,"ĠOyun":3297,"ĠKurul":3298,"adaki":3299,"ĠartÄ±ÅŁ":3300,"ĠsayÄ±da":3301,"Ġmahal":3302,"Ã¼yle":3303,"ĠÃ§arp":3304,"pek":3305,"ĠsÃ¶yley":3306,"Ġonay":3307,"ĠÅŁeyler":3308,"umsuz":3309,"ĠDe":3310,"gili":3311,"ÃĦ":3312,"ĠolmadÄ±ÄŁÄ±":3313,"brÄ±s":3314,"tern":3315,"ĠAralÄ±k":3316,"Ġkendisine":3317,"ansÄ±z":3318,"mekte":3319,"Ġoperasyon":3320,"esindeki":3321,"ĠOsmanlÄ±":3322,"Ġalacak":3323,"Ġgol":3324,"urum":3325,"Ġmar":3326,"ĠateÅŁ":3327,"layÄ±n":3328,"Ġdosy":3329,"ĠolmadÄ±ÄŁÄ±nÄ±":3330,"Ġsiyasi":3331,"Ġ28":3332,"edeki":3333,"ĠiÅŁi":3334,"Ġedece":3335,"Ġgerekmektedir":3336,"Ã¼slÃ¼man":3337,"Ä±lmaz":3338,"ĠonlarÄ±n":3339,"Ġgay":3340,"Ġarama":3341,"17":3342,"Ġbal":3343,"ĠgerektiÄŁini":3344,"Ġyararlan":3345,"ĠGir":3346,"Ġderin":3347,"ĠKemal":3348,"Ġilgi":3349,"sÄ±zlÄ±k":3350,"Ġtehlik":3351,"abet":3352,"say":3353,"Ġkok":3354,"Ġtabi":3355,"Ġdakik":3356,"ĠsÃ¼t":3357,"Ġbat":3358,"Son":3359,"Ġbelirten":3360,"ĠÃ§alÄ±ÅŁmalarÄ±":3361,"Ġfon":3362,"AÅŀ":3363,"ĠPol":3364,"ĠBirliÄŁi":3365,"yen":3366,"ĠTÃ¼rkÃ§e":3367,"ulmasÄ±":3368,"ĠdeÄŁerli":3369,"Ã¼per":3370,"iyim":3371,"13":3372,"ĠBank":3373,"Ġhikay":3374,"ĠSuriye":3375,"allah":3376,"Ġkural":3377,"ĠaylÄ±k":3378,"Ġelektrik":3379,"ger":3380,"Ġyaparak":3381,"Ġ?":3382,"Ġoto":3383,"ĠBaÄŁ":3384,"ĠpiÅŁ":3385,"ÄŁinden":3386,"Ġbitir":3387,"ĠkararÄ±":3388,"ĠMÃ¼z":3389,"Ġdef":3390,"ĠaraÅŁtÄ±rma":3391,"laÅŁtÄ±":3392,"Ġproje":3393,"esiz":3394,"ĠSt":3395,"larÄ±nÄ±zÄ±":3396,"Ġalanda":3397,"Ġazal":3398,"bay":3399,"Ġdefa":3400,"Ġoyunu":3401,"Ġsem":3402,"lediÄŁi":3403,"ĠTes":3404,"evizyon":3405,"ĠHastan":3406,"DE":3407,"ĠCHP":3408,"ĠhÃ¢":3409,"ĠyapÄ±lÄ±r":3410,"Ġcep":3411,"ĠGÃ¶":3412,"ĠFilm":3413,"asÄ±yla":3414,"23":3415,"ĠyavaÅŁ":3416,"Ġyapma":3417,"Ġkarakter":3418,"ĠDiÄŁer":3419,"Ġfikir":3420,"Ġbed":3421,"ĠonlarÄ±":3422,"lardÄ±":3423,"alarÄ±na":3424,"uyorum":3425,"LER":3426,"ĠDerneÄŁi":3427,"ĠyaÅŁanan":3428,"ĠÃ§ab":3429,"ĠSanat":3430,"ĠeÄŁer":3431,"ink":3432,"ĠgÃ¶steren":3433,"ĠGazet":3434,"Ġkonum":3435,"Ġhaft":3436,"ĠDÃ¶n":3437,"gÃ¶r":3438,"ĠgÃ¶rÃ¼ntÃ¼":3439,"Ġveriyor":3440,"Ġdam":3441,"best":3442,"ĠKim":3443,"ogle":3444,"ronik":3445,"ĠYer":3446,"ĠKam":3447,"Ġdavet":3448,"Ġkategor":3449,"ĠlazÄ±m":3450,"ĠAÄŁustos":3451,"rÃ¼b":3452,"ĠistediÄŁiniz":3453,"Ġmadd":3454,"Ġ27":3455,"Ġef":3456,"ĠMahall":3457,"ĠAynÄ±":3458,"dasÄ±":3459,"Ġhala":3460,"Ġeylem":3461,"ĠKullan":3462,"ĠÃ¼rÃ¼nleri":3463,"ĠKaz":3464,"Ġyapacak":3465,"60":3466,"ĠsÄ±kÄ±ntÄ±":3467,"ĠdiÅŁ":3468,"ĠyukarÄ±":3469,"ĠKÃ¶":3470,"ĠarttÄ±r":3471,"Ġheyec":3472,"Ġbilgileri":3473,"ĠalanÄ±":3474,"Ġpan":3475,"liÄŁinde":3476,"ĠÅŁeyi":3477,"ĠKend":3478,"ĠsÄ±rada":3479,"asÄ±ndan":3480,"Ä±za":3481,"eÅŁik":3482,"ĠaÄŁr":3483,"duÄŁunu":3484,"Ä±larak":3485,"Ä±lmÄ±ÅŁtÄ±r":3486,"Ġolursa":3487,"Ġkamer":3488,"ĠmÃ¼da":3489,"ĠtaÅŁÄ±":3490,"ĠyapmÄ±ÅŁ":3491,"ĠGÃ¼l":3492,"ĠkeÅŁ":3493,"ĠRusya":3494,"ĠuÃ§ak":3495,"dikleri":3496,"latform":3497,"Ġbebek":3498,"uyoruz":3499,"abiliyor":3500,"ĠSor":3501,"ĠyerleÅŁ":3502,"Ġalarak":3503,"ĠarasÄ±":3504,"Ġtas":3505,"ĠyazÄ±lÄ±":3506,"ĠiÃ§i":3507,"uklu":3508,"zet":3509,"ĠdÄ±ÅŁÄ±":3510,"ĠiÅŁÃ§":3511,"Ġgide":3512,"ĠPer":3513,"lÄ±ÄŁÄ±n":3514,"Ġfil":3515,"son":3516,"ĠtÃ¼rk":3517,"ĠsaÄŁlayan":3518,"Ġkullanarak":3519,"Ġbol":3520,"oogle":3521,"ia":3522,"ĠÅŁiddet":3523,"ĠyÃ¶netic":3524,"tak":3525,"Ġdemek":3526,"Ġkop":3527,"Ġnedir":3528,"Ġkayde":3529,"ahim":3530,"Ġederim":3531,"ĠFakÃ¼ltesi":3532,"mÃ¼r":3533,"lerinizi":3534,"Ġdemok":3535,"Ġotom":3536,"abilm":3537,"tÄ±sÄ±":3538,"her":3539,"ĠolmuÅŁtur":3540,"diler":3541,"Ġtavsiye":3542,"ivil":3543,"ĠÅŀubat":3544,"ĠPart":3545,"lÄ±ÄŁa":3546,"sas":3547,"Ġmec":3548,"Ġlider":3549,"Ġuygulamalar":3550,"LI":3551,"dÃ¼m":3552,"ĠyazÄ±lÄ±m":3553,"ĠbaÅŁta":3554,"ĠyaÅŁÄ±nda":3555,"Ġbank":3556,"ĠFat":3557,"ekim":3558,"ĠhÃ¼c":3559,"dal":3560,"ĠgÃ¶rÃ¼yor":3561,"ĠÃ¢":3562,"masÄ±ndan":3563,"ĠAraÅŁtÄ±r":3564,"ĠtaÅŁÄ±n":3565,"ultan":3566,"Ġ&":3567,"Ġlez":3568,"Ġpo":3569,"Ġsoy":3570,"Ġprofesyonel":3571,"atej":3572,"kÄ±n":3573,"Ġettir":3574,"Ġhafif":3575,"zon":3576,"ĠFran":3577,"ĠBugÃ¼n":3578,"rail":3579,"Ġgal":3580,"ĠFa":3581,"Ġsap":3582,"AP":3583,"nam":3584,"inal":3585,"iyah":3586,"Ã¶ÄŁr":3587,"Ġneler":3588,"book":3589,"Ġhuzur":3590,"Ġduyur":3591,"UL":3592,"80":3593,"ĠeleÅŁtir":3594,"Ġifad":3595,"ĠfiyatlarÄ±":3596,"ses":3597,"lanmasÄ±":3598,"ĠedilmiÅŁ":3599,"Kar":3600,"Ġnamaz":3601,"eyiz":3602,"Ġkavram":3603,"Ġticaret":3604,"larÄ±mÄ±zÄ±n":3605,"lÄ±klarÄ±":3606,"ke":3607,"ED":3608,"ore":3609,"Ġbirisi":3610,"ĠTay":3611,"ĠhenÃ¼z":3612,"ĠTem":3613,"ĠÃ¶ÄŁ":3614,"ĠÅŁik":3615,"ĠDair":3616,"ĠyerleÅŁtir":3617,"tiler":3618,"Ã¢h":3619,"edek":3620,"Ġ26":3621,"Ġizley":3622,"tepe":3623,"miÅŁti":3624,"ĠsayÄ±":3625,"ediler":3626,"Ġtatil":3627,"Ġtakdir":3628,"Ġsel":3629,"Ġediyoruz":3630,"ĠÃ¶ÄŁrenci":3631,"ulur":3632,"ĠOrta":3633,"liÄŁe":3634,"ediÄŁi":3635,"ĠyayÄ±m":3636,"lÄ±klar":3637,"ĠTicaret":3638,"ĠborÃ§":3639,"iÅŁleri":3640,"ĠalÄ±ÅŁveriÅŁ":3641,"lanma":3642,"ĠCumhurbaÅŁkanÄ±":3643,"ĠkarÅŁÄ±sÄ±nda":3644,"Ġduygu":3645,"ĠÃ¶den":3646,"ata":3647,"sine":3648,"ket":3649,"ĠgÃ¼c":3650,"Ġanne":3651,"kenin":3652,"ze":3653,"Ġtemsilc":3654,"eng":3655,"Ġeg":3656,"Ġaile":3657,"Ã¼ÅŁtÃ¼":3658,"Ġescort":3659,"Ġisimli":3660,"ĠBor":3661,"ĠtaÅŁÄ±y":3662,"Ġtaz":3663,"ĠCan":3664,"Ġceza":3665,"Ġihtiyac":3666,"Ġ+":3667,"artesi":3668,"ĠÃ¶deme":3669,"Ġolmaya":3670,"Ä°stanbul":3671,"ĠAlan":3672,"iÄŁ":3673,"Ä±lÄ±ÅŁ":3674,"ilebilir":3675,"Ġ29":3676,"ĠÃĩin":3677,"Ġhayata":3678,"ĠSat":3679,"estiv":3680,"Er":3681,"Ġolumsuz":3682,"ĠAntalya":3683,"emmel":3684,"Ġbelirtti":3685,"Ġkeyif":3686,"Ġkendine":3687,"Ġkilo":3688,"ĠhayÄ±r":3689,"Ġtaleb":3690,"ĠkarÅŁÄ±laÅŁt":3691,"Ġzam":3692,"elerinden":3693,"rem":3694,"ĠKÄ±brÄ±s":3695,"Ġted":3696,".,":3697,"ĠtecrÃ¼b":3698,"ĠÐ":3699,"ĠdetaylÄ±":3700,"Ġhisset":3701,"Ġkimse":3702,"ĠyÄ±llarda":3703,"Ġton":3704,"Ġbundan":3705,"imar":3706,"ĠyÄ±ldÄ±r":3707,"ĠÃ¶nÃ¼ne":3708,"ĠkÃ¼r":3709,"ĠAydÄ±n":3710,"Ġduvar":3711,"dro":3712,"Ġdel":3713,"Ġnakl":3714,"ĠBursa":3715,"ise":3716,"Biz":3717,"ĠAlmanya":3718,"Ġsonucunda":3719,"Ġkorun":3720,"ĠdÃ¶neminde":3721,"Ġhad":3722,"ĠKÄ±z":3723,"Ġyerinde":3724,"ĠiÅŁe":3725,"alÄ±ÄŁÄ±":3726,"Ġarac":3727,"ĠÄ°lÃ§e":3728,"elerle":3729,"err":3730,"ĠtaÅŁÄ±ma":3731,"Ġkesinlikle":3732,"ĠGÃ¶k":3733,"ipariÅŁ":3734,"Ġpas":3735,"Ġ*":3736,"Ã¼tfen":3737,"tp":3738,"ĠkazandÄ±r":3739,"Ġolm":3740,"Ġmesel":3741,"ĠSeÃ§":3742,"ĠgÃ¼neÅŁ":3743,"ĠkarÄ±ÅŁ":3744,"Â±":3745,"ĠTeknik":3746,"ĠprogramÄ±":3747,"ĠsaldÄ±rÄ±":3748,"elt":3749,"Ġetmektedir":3750,"Ġikti":3751,"dat":3752,"Ġlira":3753,"gula":3754,"Ġsahiptir":3755,"ĠbeÄŁen":3756,"Ġverilm":3757,"Ġkurtar":3758,"usun":3759,"ĠÅŀimdi":3760,"Ġap":3761,"ĠdoÄŁum":3762,"ons":3763,"ĠdÃ¼nyada":3764,"ledik":3765,"ĠAmerika":3766,"dit":3767,"Ġanlamda":3768,"Ġtutar":3769,"Ġsenin":3770,"ĠacÄ±":3771,"lanÄ±r":3772,"raman":3773,"ork":3774,"liÄŁin":3775,"Ġgaz":3776,"umak":3777,"ĠnÃ¼f":3778,"Ġ2011":3779,"yse":3780,"ĠdÃ¼ÄŁ":3781,"Bur":3782,"Ġstandart":3783,"Ġyoksa":3784,"Ġokuy":3785,"yap":3786,"tere":3787,"Ġbasit":3788,"keri":3789,"ĠAra":3790,"inizin":3791,"daÄŁ":3792,"ĠalmÄ±ÅŁ":3793,"abilmek":3794,"ĠDeÄŁ":3795,"arÄ±m":3796,"ĠBilg":3797,"ĠmÃ¼dÃ¼r":3798,"ĠbaÅŁlar":3799,"ĠinsanÄ±n":3800,"oca":3801,"ĠmÃ¼ÅŁteri":3802,"ayla":3803,"ĠDÄ±ÅŁ":3804,"Ġbunlar":3805,"ĠdÃ¼zenlem":3806,"ĠalÄ±p":3807,"ĠbaÄŁlantÄ±":3808,"Ġzorun":3809,"ĠdavranÄ±ÅŁ":3810,"ÂĶ":3811,"obÃ¼s":3812,"ĠhayatÄ±nÄ±":3813,"Ã§ak":3814,"sini":3815,"ĠmeÅŁ":3816,"Ġpsik":3817,"Ä°Y":3818,"ĠLig":3819,"abzon":3820,"Ġsokak":3821,"ĠTaÅŁ":3822,"ĠmÃ¼dahal":3823,"Ġemin":3824,"ezi":3825,"ĠYardÄ±mcÄ±sÄ±":3826,"ĠgÃ¶rmek":3827,"ĠaÅŁaÄŁÄ±daki":3828,"KK":3829,"Ġperformans":3830,"Ġpop":3831,"Ġvb":3832,"Ġkuvvet":3833,"ĠbuluÅŁ":3834,"ĠhazÄ±rla":3835,"ĠÃĩev":3836,"bahÃ§e":3837,"Ġasla":3838,"ĠAÃ§Ä±k":3839,"''":3840,"ilim":3841,"alim":3842,"Ġzevk":3843,"ĠBÃ¶lÃ¼m":3844,"Ġresim":3845,"oto":3846,"ĠgÃ¶ren":3847,"ĠaÃ§Ä±klamada":3848,"Ġsonraki":3849,"are":3850,"ĠÃ§oÄŁu":3851,"ĠkÄ±l":3852,"ĠYet":3853,"omet":3854,"ĠvazgeÃ§":3855,"Ġkitab":3856,"emizin":3857,"ĠDÃ¼z":3858,"40":3859,"onya":3860,"ĠiÃ§erik":3861,"ĠaydÄ±n":3862,"Ãĸz":3863,"ĠÅŁarkÄ±":3864,"erseniz":3865,"ĠCam":3866,"edeni":3867,"racat":3868,"Ġyolc":3869,"Ġonlara":3870,"izasyon":3871,"mur":3872,"Ġkadro":3873,"layÄ±p":3874,"ĠServ":3875,"ĠyetiÅŁ":3876,"co":3877,"daÅŁ":3878,"Ġyor":3879,"Ġamel":3880,"ĠaÃ§Ä±":3881,"ĠyapÄ±ldÄ±":3882,"ĠÄ°yi":3883,"ĠdÃ¼ÅŁÃ¼r":3884,"ĠyetiÅŁtir":3885,"ĠÃľrÃ¼n":3886,"Ġlim":3887,"ĠiÅŁte":3888,"ĠsÃ¼rede":3889,"//":3890,"yacaÄŁ":3891,"Ä±sÄ±r":3892,"Ġtahmin":3893,"iyan":3894,"Ġgiden":3895,"to":3896,"larÄ±mÄ±zÄ±":3897,"acaÄŁÄ±nÄ±":3898,"atur":3899,"Ġhap":3900,"ĠDav":3901,"Ġfel":3902,"haba":3903,"Ġta":3904,"OS":3905,"ĠĠ":3906,"Ġez":3907,"ĠSavaÅŁ":3908,"ĠVak":3909,"ĠkarÄ±ÅŁtÄ±r":3910,"ĠEÅŁ":3911,"dikten":3912,"ĠÃ¼ye":3913,"Ġib":3914,"ersin":3915,"ĠÃľst":3916,"ĠBazÄ±":3917,"ĠÃ¶ne":3918,"ĠÃ§ap":3919,"Ġday":3920,"iber":3921,"emiÅŁ":3922,"ĠTe":3923,"Ġ=":3924,"ham":3925,"ÃľR":3926,"ard":3927,"eÅŁiktaÅŁ":3928,"ĠÄ±sÄ±":3929,"isinden":3930,"ekil":3931,"cebook":3932,"afir":3933,"ĠBal":3934,"Ġ60":3935,"Ak":3936,"lasyon":3937,"ĠÄ±ÅŁÄ±k":3938,"Ġhesab":3939,"Ġbazen":3940,"tÄ±ÄŁÄ±nÄ±":3941,"ĠiÅŁbir":3942,"Ã¼ndeki":3943,"aca":3944,"ĠBurada":3945,"laÅŁma":3946,"liler":3947,"ĠKÃ¶y":3948,"Ġverildi":3949,"Ġerken":3950,"cilik":3951,"liÄŁine":3952,"ĠÅŁÃ¼ph":3953,"ĠEf":3954,"ĠyaÅŁama":3955,"ĠgÃ¼nlerde":3956,"ĠGÃ¶z":3957,"Ġpaket":3958,"Ä±yordu":3959,"Ġbirinci":3960,"Ġkonut":3961,"ĠVal":3962,"ĠdanÄ±ÅŁ":3963,"pp":3964,"ĠdeÄŁiÅŁim":3965,"ĠUluslararasÄ±":3966,"mÄ±":3967,"meni":3968,"eytin":3969,"Ġbelirtilen":3970,"ĠSah":3971,"erler":3972,"Ġodak":3973,"mail":3974,"larca":3975,"ĠyaygÄ±n":3976,"uldu":3977,"ĠkiÅŁisel":3978,"ĠaltÄ±":3979,"ĠMur":3980,"tarÄ±":3981,"ĠBunu":3982,"erken":3983,"ĠkatÄ±l":3984,"ĠGazi":3985,"Mer":3986,"Ġfirma":3987,"ĠolmasÄ±na":3988,"ĠBr":3989,"Ġpark":3990,"Ġyerel":3991,"ĠÂĵ":3992,"Ġetme":3993,"Ġbelirterek":3994,"ĠMahallesi":3995,"Ġyola":3996,"Ġbuy":3997,"Ġgirdi":3998,"ãģĤãģĤãģĤãģĤ":3999,"ĠsÃ¼resi":4000,"Ġfizik":4001,"Ġrad":4002,"Ġedip":4003,"Ġgitti":4004,"ĠÃ§Ä±kÄ±ÅŁ":4005,"Ġgenellikle":4006,"sizlik":4007,"Ġod":4008,"bette":4009,"ĠbunlarÄ±n":4010,"rum":4011,"Ġmodern":4012,"Ġsona":4013,"ĠSayÄ±n":4014,"ayÄ±f":4015,"Ġsp":4016,"Ġsik":4017,"lamasÄ±":4018,"IM":4019,"Ġorada":4020,"Ġdahi":4021,"Ġsert":4022,"Ġavan":4023,"orn":4024,"Ġlisans":4025,"ĠkatÄ±ldÄ±":4026,"Ä±mÄ±n":4027,"Ġhizmetleri":4028,"Ġimza":4029,"Ġelem":4030,"ĠyaÅŁÄ±ndaki":4031,"unlarÄ±":4032,"Ä±ÅŁma":4033,"Ġbilir":4034,"stik":4035,"ĠðŁ":4036,"Ġ>":4037,"sinin":4038,"Ġeve":4039,"Ġtane":4040,"Ġyapmaya":4041,"ĠaltÄ±n":4042,"Ã§esi":4043,"://":4044,"ĠSamsun":4045,"Ġkans":4046,"Ġus":4047,"Ġism":4048,"ĠAz":4049,"Ã¼stÃ¼":4050,"ĠbÃ¼t":4051,"Ġsalon":4052,"ĠAm":4053,"ban":4054,"lev":4055,"lerimizi":4056,"ĠHem":4057,"ĠyanÄ±t":4058,"ĠdÄ±ÅŁarÄ±":4059,"Ġgerektir":4060,"leÅŁme":4061,"ĠHakk":4062,"iÄŁi":4063,"eÄŁin":4064,"Ġimkan":4065,"ĠYÃ¼z":4066,"ĠdÃ¼zenlen":4067,"Ġide":4068,"Ġhus":4069,"ĠbalÄ±k":4070,"IR":4071,"Ġsana":4072,"ĠHz":4073,"ebe":4074,"ĠKÃ¼rt":4075,"ĠkaldÄ±":4076,"ĠÃ§iÃ§ek":4077,"Ä±yorlar":4078,"ĠÃ§ay":4079,"ĠtatlÄ±":4080,"ĠeÅŁit":4081,"Ġcen":4082,"22":4083,"ĠÅŁif":4084,"Ġkendisi":4085,"ĠkÃ¶ÅŁ":4086,"Ġgiren":4087,"âĢĿ,":4088,"Ġucuz":4089,"Ġkendisini":4090,"ĠbunlarÄ±":4091,"lerim":4092,"ĠÃ¶zelliÄŁi":4093,"ĠbaskÄ±":4094,"Ġbilinen":4095,"ĠilÃ§esinde":4096,"Ã¶ÄŁretim":4097,"iklet":4098,"ĠÄ°ngilizce":4099,"ĠbÃ¶":4100,"Ġse":4101,"ĠyÃ¼rÃ¼y":4102,"iyer":4103,"Ġolumlu":4104,"GÃ¼n":4105,"gal":4106,"ĠyapÄ±m":4107,"ĠBaÅŁkanlÄ±ÄŁÄ±":4108,"Ġsorunu":4109,"ĠYol":4110,"ĠgeÃ§ti":4111,"Ġalabilirsiniz":4112,"Ġiddia":4113,"Ġarab":4114,"ĠMÃ¼slÃ¼man":4115,"ĠÅŁans":4116,"iyatro":4117,"Ġavantaj":4118,"isiyle":4119,"yÃ¼z":4120,"Ġkaydet":4121,"ĠÃ¶ÄŁretim":4122,"ĠYat":4123,"ĠÃľy":4124,"ĠYal":4125,"teÅŁ":4126,"ĠÃ¼Ã§Ã¼ncÃ¼":4127,"ĠkÄ±ÅŁ":4128,"ndan":4129,"ĠÅŁar":4130,"Ġmon":4131,"ĠdÃ¶v":4132,"ĠoranÄ±":4133,"ĠmÃ¼kemmel":4134,"enerbahÃ§e":4135,"ĠMev":4136,"Ġprot":4137,"dek":4138,"ĠCh":4139,"ÄŁan":4140,"Ġcinsel":4141,"ĠgeÃ§erli":4142,"likleri":4143,"eceÄŁini":4144,"ĠyÄ±lda":4145,"lÄ±ÄŁÄ±na":4146,"ĠeÅŁy":4147,"ĠSonra":4148,"ĠolduÄŁuna":4149,"ĠparÃ§a":4150,"ĠMod":4151,"Ġkem":4152,"ĠFirmalarÄ±":4153,"Ġserbest":4154,"ĠhakkÄ±":4155,"Ð¾":4156,"usunu":4157,"ĠDoÄŁu":4158,"2017":4159,"Ġkapas":4160,"Ã¶yl":4161,"pt":4162,"Ġkalp":4163,"Ä±ndÄ±r":4164,"icari":4165,"ĠÃ¶lÃ§Ã¼":4166,"uzu":4167,"Ġonline":4168,"Ġderec":4169,"Ġfaiz":4170,"ou":4171,"oyu":4172,"ĠbiÃ§imde":4173,"his":4174,"ĠKitap":4175,"alatasar":4176,"ĠKurum":4177,"sÃ¼z":4178,"ĠÃ¶ÄŁret":4179,"aka":4180,"Ä°ÅŁ":4181,"Ġduyg":4182,"ĠÃ¶nemlidir":4183,"ĠHaf":4184,"Ġdiyerek":4185,"ĠGÃ¼zel":4186,"akar":4187,"ĠÃ¶ncesi":4188,"ĠÄ°k":4189,"Ġharika":4190,"Ġkahv":4191,"ĠiÅŁlemi":4192,"adÄ±r":4193,"Ġbec":4194,"Ġkurulu":4195,"memiÅŁ":4196,"ilerden":4197,"Ġmarka":4198,"ĠMilletvekili":4199,"ĠBayram":4200,"ĠHam":4201,"alatasaray":4202,"Ġyiy":4203,"Ġyeter":4204,"bal":4205,"ĠkiÅŁilerin":4206,"gulama":4207,"Ġetmeye":4208,"tis":4209,"Ġkm":4210,"Ġroman":4211,"ĠsÃ¶ylÃ¼yor":4212,"Ä±sÄ±z":4213,"BaÅŁ":4214,"sur":4215,"ĠkiÅŁilik":4216,"ahmet":4217,"ĠÅŁehit":4218,"ĠgÃ¶nÃ¼l":4219,"Ġevde":4220,"gr":4221,"Ġetraf":4222,"nden":4223,"Ġbon":4224,"ĠYÄ±lmaz":4225,"Ġbe":4226,"ĠÃ§eken":4227,"ĠyeÅŁil":4228,"ĠBan":4229,"Ġbeden":4230,"Ä±f":4231,"ai":4232,"ĠanlayÄ±ÅŁ":4233,"ÅŁey":4234,"ĠÃľlk":4235,"70":4236,"iyordu":4237,"ĠinÅŁaat":4238,"Ġthe":4239,"Ġkampany":4240,"Ġyasak":4241,"osta":4242,"Ġotomobil":4243,"ĠHol":4244,"ĠMut":4245,"Ġsahn":4246,"Ãĸn":4247,"Ġvakit":4248,"ĠTV":4249,"ĠÅŀah":4250,"Ġnedeni":4251,"ĠPazar":4252,"ĠBuna":4253,"Ġteknoloji":4254,"bin":4255,"ĠdoÄŁrult":4256,"gÄ±Ã§":4257,"ĠBÃ¶ylece":4258,"ĠÃ¼rÃ¼nler":4259,"ĠSin":4260,"ezer":4261,"ĠtÃ¶ren":4262,"Ġgetirdi":4263,"Ġince":4264,"Ġyaralan":4265,"ĠÃ§ocuklar":4266,"dÄ±rÄ±m":4267,"Ä±b":4268,"kek":4269,"ĠkapalÄ±":4270,"Ġtemin":4271,"ĠDen":4272,"Ġyakal":4273,"Ä±c":4274,"Ġplatform":4275,"ĠÄ°ran":4276,"ĠKah":4277,"ation":4278,"ĠÃ¼zerindeki":4279,"ecep":4280,"Ġmo":4281,"yer":4282,"Ġmesaf":4283,"ĠcÃ¼m":4284,"maktan":4285,"ĠÂ»":4286,"Ä±lÄ±Ã§":4287,"ĠÃ¼lkenin":4288,"ĠolacaÄŁ":4289,"ĠgÃ¼venli":4290,"hane":4291,"ĠElekt":4292,"layÄ±cÄ±":4293,"ĠsaÄŁlayacak":4294,"Ġhoc":4295,"abrik":4296,"Ġyetkil":4297,"ileceÄŁi":4298,"lili":4299,"Ġciv":4300,"ĠBer":4301,"Ġsuyu":4302,"Ġkod":4303,"ĠinÅŁa":4304,"etleri":4305,"ĠNo":4306,"ĠSadece":4307,"orta":4308,"rika":4309,"Ä±nar":4310,"Ġgetiren":4311,"ĠKir":4312,"ÅŁÄ±k":4313,"ĠDur":4314,"ĠGÃ¼ney":4315,"ĠBenim":4316,"Gen":4317,"ĠbÃ¼ny":4318,"ulmuÅŁ":4319,"Ġetkisi":4320,"Ġvit":4321,"Ä±sÄ±nÄ±z":4322,"Ġyans":4323,"inizde":4324,"ternatif":4325,"ĠkÄ±smÄ±":4326,"baÅŁ":4327,"nu":4328,"qu":4329,"eceÄŁiz":4330,"Ġstratej":4331,"lÄ±ÄŁÄ±yla":4332,"Ġkuru":4333,"ord":4334,"Ġenf":4335,"Yeni":4336,"Ġ500":4337,"ĠgeliÅŁim":4338,"Ġsivil":4339,"ĠVar":4340,"Ġortadan":4341,"malarÄ±nÄ±":4342,"ĠÄ°m":4343,"ĠdoÄŁrudan":4344,"Ġhac":4345,"Pro":4346,"dev":4347,"mamÄ±ÅŁ":4348,"Ä°Z":4349,"Ġmaliyet":4350,"Ġmilli":4351,"adi":4352,"Ġortalama":4353,"Ġekley":4354,"Ä°s":4355,"Ġaktif":4356,"ĠaÅŁÄ±rÄ±":4357,"Ġsorumlu":4358,"ĠDil":4359,"ĠKÃ¼Ã§Ã¼k":4360,"ĠYayÄ±nlarÄ±":4361,"ben":4362,"urken":4363,"ĠdÃ¼ÅŁÃ¼nÃ¼yorum":4364,"ĠNur":4365,"Ġnitelik":4366,"ĠolmasÄ±nÄ±":4367,"Ġbirik":4368,"27":4369,"Ġgelin":4370,"ĠÃĸÄŁretmen":4371,"ĠpeÅŁ":4372,"ĠFil":4373,"Ġyatak":4374,"abileceÄŁiniz":4375,"ĠSanayi":4376,"ess":4377,"ĠÃ¶zellikleri":4378,"alardan":4379,"Ġteb":4380,"ĠÄ±ÅŁ":4381,"Ġparti":4382,"ijital":4383,"dÄ±klarÄ±nÄ±":4384,"bey":4385,"Ġmeslek":4386,"ĠVE":4387,"ĠkullanÄ±mÄ±":4388,"ĠbaÄŁÄ±msÄ±z":4389,"ĠÃ¼yesi":4390,"ĠÃ¶nlem":4391,"kÃ¶y":4392,"acaÄŁÄ±nÄ±z":4393,"Ġsunu":4394,"ĠyalnÄ±zca":4395,"tuk":4396,"ĠasÄ±l":4397,"ĠgÃ¶rdÃ¼ÄŁ":4398,"ĠGÃ¼r":4399,"Ġtoplu":4400,"ĠHÃ¼s":4401,"Ä±lÄ±ÄŁ":4402,"Ġarz":4403,"ĠMed":4404,"Ġistih":4405,"ĠzayÄ±f":4406,"ĠgÃ¶Ã§":4407,"estor":4408,"Ã§iler":4409,"celi":4410,"ĠGÃ¼venlik":4411,"brahim":4412,"aza":4413,"Ġtad":4414,"ĠâĢ¦":4415,"ĠKÄ±s":4416,"ĠTasar":4417,"ĠKol":4418,"Ġbulunma":4419,"ĠdoÄŁrultusunda":4420,"ĠyatÄ±r":4421,"Ġbanka":4422,"Ġbelirli":4423,"ĠiÃ§eren":4424,"Ġtransfer":4425,"okul":4426,"Ġgrub":4427,"Ġharc":4428,"ĠalÄ±m":4429,"ĠkÄ±rmÄ±zÄ±":4430,"ĠOkul":4431,"Ġseyahat":4432,"Ġetmesi":4433,"ĠamacÄ±":4434,"Ġolanlar":4435,"ĠSab":4436,"Ġsine":4437,"ĠKanun":4438,"irken":4439,"ĠvÃ¼cut":4440,"ĠBin":4441,"ĠolduÄŁumuz":4442,"Ġbirim":4443,"yip":4444,"ĠyÄ±ldÄ±z":4445,"aÅŁÄ±r":4446,"Ġmodelleri":4447,"emesi":4448,"ĠgelmiÅŁ":4449,"ĠsipariÅŁ":4450,"ĠÄ°nÅŁ":4451,"ĠSultan":4452,"Ġuyan":4453,"oj":4454,"liyet":4455,"yet":4456,"ĠÄ°srail":4457,"ĠBit":4458,"UN":4459,"ĠgÃ¶rm":4460,"Ġsite":4461,"Ġgur":4462,"Ã¼lÃ¼":4463,"Ġht":4464,"ĠÅŁikayet":4465,"Ġtelevizyon":4466,"illi":4467,"ĠPeygamber":4468,"21":4469,"ĠyapÄ±lmÄ±ÅŁ":4470,"kiler":4471,"Ġcm":4472,"Ġdeney":4473,"emize":4474,"Ġotomatik":4475,"ikan":4476,"Ġseni":4477,"ĠÃĸrneÄŁin":4478,"ĠFr":4479,"ino":4480,"Ġatan":4481,"Ġdokun":4482,"iyorlar":4483,"Ä±nÄ±zÄ±n":4484,"fat":4485,"Ġins":4486,"ĠArap":4487,"acaÄŁÄ±m":4488,"ĠÃ§Ä±kÄ±yor":4489,"ĠeÄŁitimi":4490,"ner":4491,"ĠbaÅŁlÄ±yor":4492,"ĠyÄ±lÄ±n":4493,"uro":4494,"Ġbayram":4495,"ĠYan":4496,"dÃ¼z":4497,"Ġand":4498,"Ġistek":4499,"ĠII":4500,"ĠsoÄŁuk":4501,"AZ":4502,"ows":4503,"Ġarka":4504,"Ġkum":4505,"arlar":4506,"iki":4507,"Ġolmadan":4508,"Ġtez":4509,"ĠÃ§oÄŁ":4510,"ĠUn":4511,"yÄ±z":4512,"ĠRecep":4513,"ĠMas":4514,"Ġyerini":4515,"ĠdÃ¼ÅŁman":4516,"Ġpla":4517,"ĠrahatsÄ±z":4518,"ĠsoruÅŁtur":4519,"90":4520,"Ġheyecan":4521,"ĠakÄ±llÄ±":4522,"Ġkendilerine":4523,"ĠbakÄ±ÅŁ":4524,"ĠyÃ¶netimi":4525,"irler":4526,"Ġkurtul":4527,"Or":4528,"Ġ198":4529,"Ġbende":4530,"Ġaskeri":4531,"ĠÃ§erÃ§evesinde":4532,"lasik":4533,"ĠBaÅŁbakan":4534,"ĠÅŀeh":4535,"Ġdedim":4536,"Ġzih":4537,"Ġyaparken":4538,"baÅŁÄ±":4539,"ĠMeclis":4540,"udi":4541,"ong":4542,"lacak":4543,"Ġtuz":4544,"sem":4545,"Ġ31":4546,"ĠÅŀehir":4547,"int":4548,"ĠkullanÄ±lÄ±r":4549,"Ġfinans":4550,"ĠLi":4551,"Ġdiyen":4552,"'s":4553,"ĠGoogle":4554,"Ġx":4555,"uf":4556,"Ġaf":4557,"Ġanaliz":4558,"Ġcok":4559,"Ġmezun":4560,"Ġkanun":4561,"Ġalb":4562,"ĠtanÄ±t":4563,"Ġameliyat":4564,"teÅŁem":4565,"âĢ¦]":4566,"fÄ±":4567,"sit":4568,"ĠKara":4569,"Ġfer":4570,"ĠgeÃ§iÅŁ":4571,"Ġfilmi":4572,"amazan":4573,"ĠAKP":4574,"28":4575,"Ä±nacak":4576,"Ġherkesin":4577,"ĠalmaktadÄ±r":4578,"Ġmisafir":4579,"Ġreh":4580,"giler":4581,"ĠaÃ§Ä±kladÄ±":4582,"hone":4583,"Ġ2010":4584,"ĠolduÄŁundan":4585,"Ġgiderek":4586,"Ġcilt":4587,"Ġhasta":4588,"ave":4589,"elis":4590,"**":4591,"mut":4592,"ĠHD":4593,"ĠmÃ¼ÅŁteriler":4594,"ĠkalÄ±n":4595,"ĠkatÄ±lan":4596,"ebiliyor":4597,"Ã¼mÃ¼zdeki":4598,"ĠDiy":4599,"ĠanlamÄ±na":4600,"ĠMark":4601,"ksiyon":4602,"Ġseks":4603,"ire":4604,"lendirme":4605,"Ä±rlar":4606,"unuzu":4607,"nik":4608,"Ġbekliyor":4609,"ĠÅŁeker":4610,"ĠtanÄ±ÅŁ":4611,"ĠSÄ±nÄ±f":4612,"ond":4613,"ĠiÅŁlemleri":4614,"ĠÃ§Ä±kart":4615,"ĠÃ¶nceden":4616,"Ġces":4617,"diÄŁini":4618,"Ġveri":4619,"arÄ±nda":4620,"Dev":4621,"ĠÃ¶y":4622,"arlÄ±":4623,"ĠSek":4624,"ĠHava":4625,"manÄ±zÄ±":4626,"Ġ35":4627,"ĠgÃ¼venilir":4628,"ĠRe":4629,"ĠÅŁub":4630,"Ġedebilirsiniz":4631,"ĠgÃ¶rsel":4632,"ST":4633,"ĠYunan":4634,"ĠBeÅŁiktaÅŁ":4635,"ĠkanÄ±":4636,"Ġsuy":4637,"ĠTrabzon":4638,"El":4639,"Ġlezzet":4640,"26":4641,"Ġolanak":4642,"Ġrakam":4643,"Ġbelediye":4644,"ĠGerÃ§":4645,"Ġtutuk":4646,"ĠeriÅŁ":4647,"ĠEski":4648,"Ġred":4649,"Ġazalt":4650,"Ġitir":4651,"iter":4652,"iya":4653,"Ġdiren":4654,"Ġbirden":4655,"ĠHasan":4656,"ĠYÄ±ldÄ±rÄ±m":4657,"ĠayÄ±":4658,"larÄ±mÄ±za":4659,"ĠuÄŁraÅŁ":4660,"Ġiptal":4661,"ĠDers":4662,"ĠÅŁampiyon":4663,"ĠtÄ±r":4664,"encer":4665,"Ġverecek":4666,"oma":4667,"anÄ±m":4668,"Ġsiyah":4669,"Ġters":4670,"lardaki":4671,"ĠÃ§oÄŁun":4672,"ĠsÃ¶yleyen":4673,"ĠTat":4674,"ĠdÃ¼zenli":4675,"anlarÄ±":4676,"Ġetik":4677,"Ġiktidar":4678,"ĠyÃ¼zyÄ±l":4679,"ĠKab":4680,"ese":4681,"Ġbelirlen":4682,"gaz":4683,"ĠÅŁÄ±k":4684,"vik":4685,"ĠCumhuriyeti":4686,"wit":4687,"ĠaÄŁaÃ§":4688,"Ġkurulan":4689,"Ġpozisyon":4690,"deniz":4691,"ĠhazÄ±rlanan":4692,"Ã¼ley":4693,"Ġekib":4694,"ĠÃ¼stÃ¼n":4695,"mesinin":4696,"ĠhÃ¼kÃ¼met":4697,"ĠÅŁiÅŁ":4698,"uÄŁu":4699,"ĠÄ°ngiltere":4700,"iyiz":4701,"ĠkullandÄ±":4702,"ĠMurat":4703,"ĠCez":4704,"OL":4705,"Ġsiyaset":4706,"Ġvergi":4707,"Ġbekl":4708,"Ã¼lebilir":4709,"Ġtarihli":4710,"umhurbaÅŁk":4711,"lamalar":4712,"Ġpil":4713,"Ġhediye":4714,"ĠÄ°dar":4715,"DÃ¼n":4716,"Ġbecer":4717,"ĠolduklarÄ±":4718,"indows":4719,"Ġgizli":4720,"ĠÅŁer":4721,"ĠSh":4722,"kiÅŁ":4723,"Ġ80":4724,"ĠDir":4725,"tion":4726,"Ġistedik":4727,"Hay":4728,"AH":4729,"ladÄ±ÄŁÄ±":4730,"usuna":4731,"Ã¼mÃ¼ÅŁ":4732,"ĠMad":4733,"ĠIrak":4734,"ilme":4735,"Ġkus":4736,"Ġsim":4737,"Ġgelenek":4738,"ĠBankasÄ±":4739,"ABD":4740,"Ġeklen":4741,"ĠadÄ±nÄ±":4742,"Ġistik":4743,"Ġsorumluluk":4744,"ĠÅŀu":4745,"ĠvermiÅŁ":4746,"ĠaÃ§Ä±klamalar":4747,"ĠsaygÄ±":4748,"ĠdÃ¶nÃ¼ÅŁtÃ¼r":4749,"ĠihtiyacÄ±":4750,"?âĢĿ":4751,"Ä±lÄ±p":4752,"Ġneredeyse":4753,"tel":4754,"Ġkomp":4755,"adet":4756,"ĠAraÅŁtÄ±rma":4757,"ĠÃ¼lkede":4758,"ĠÃ¼rÃ¼nÃ¼":4759,"nÃ¼n":4760,"luluÄŁ":4761,"ĠsÄ±ÄŁ":4762,"Ġrast":4763,"ĠsÃ¼reci":4764,"Ġiken":4765,"Ġren":4766,"ĠyaÅŁat":4767,"ĠiÃ§indeki":4768,"ĠMet":4769,"ĠsÄ±v":4770,"Ġsayfa":4771,"ĠDeÄŁer":4772,"Ġedebilir":4773,"ĠlÃ¼tfen":4774,"ĠÄ°ki":4775,"ĠTayyip":4776,"Ġhttp":4777,"ĠSÄ±r":4778,"ĠmÃ¼t":4779,"diÄŁimiz":4780,"ĠYine":4781,"ĠtanÄ±n":4782,"Ġdikkate":4783,"ĠFiyat":4784,"ĠgerÃ§ekleÅŁtirilen":4785,"ĠRab":4786,"As":4787,"seri":4788,"ĠdÃ¼nyaya":4789,"Ġ[âĢ¦]":4790,"Ä±lmasÄ±na":4791,"Ġihtim":4792,"yada":4793,"ĠBat":4794,"Ġihracat":4795,"Ġbulundur":4796,"okulu":4797,"ĠulaÅŁabilirsiniz":4798,"ane":4799,"Ġzamanlarda":4800,"Ġoyunc":4801,"Ġdenetim":4802,"Ġalternatif":4803,"ĠOdasÄ±":4804,"ĠtarÄ±m":4805,"Ġ''":4806,"ĠTam":4807,"ĠBizim":4808,"Ġblog":4809,"GeÃ§":4810,"Ġyasal":4811,"erim":4812,"Ġnin":4813,"ĠbÃ¶lgede":4814,"Ġbiliyor":4815,"luluÄŁu":4816,"ĠÃĩar":4817,"larÄ±ndaki":4818,"Ġsaf":4819,"ĠÄ°liÅŁ":4820,"ĠMa":4821,"cisi":4822,"stit":4823,"ĠÄ°Ã§in":4824,"ĠâĢĿ":4825,"Ġtrafik":4826,"Ġtoplumsal":4827,"Ġyakalan":4828,"ĠkonuÅŁma":4829,"Ġkesim":4830,"leyici":4831,"Ġkullanmak":4832,"Ġkursu":4833,"kadaÅŁ":4834,"ĠKanunu":4835,"ĠThe":4836,"ĠTah":4837,"ĠinsanlarÄ±":4838,"Ġtoplant":4839,"ĠtaÅŁÄ±yan":4840,"diÄŁim":4841,"ĠbÃ¶lÃ¼mÃ¼":4842,"ĠMuham":4843,"Ġordu":4844,"ĠÃ§ocuklarÄ±n":4845,"ĠkaÃ§Ä±r":4846,"car":4847,"ĠÃ§alÄ±ÅŁtÄ±r":4848,"ĠÃ§evre":4849,"liÄŁinin":4850,"ĠyaÅŁamak":4851,"MM":4852,"ĠkÃ¶k":4853,"amik":4854,"Ġdemektir":4855,"ĠÃ¶zen":4856,"ĠfiyatÄ±":4857,"ĠSey":4858,"Ġsermay":4859,"Ġokun":4860,"Ġuzat":4861,"sev":4862,"Ġhakim":4863,"ĠbÃ¶lgesinde":4864,"tÃ¼rk":4865,"ĠayrÄ±ntÄ±":4866,"embe":4867,"35":4868,"ĠUzun":4869,"Ġediliyor":4870,"ĠFatih":4871,"alarÄ±ndan":4872,"ĠkiÅŁiye":4873,"ĠbÃ¼r":4874,"Ġdurdur":4875,"ĠhÃ¼k":4876,"lal":4877,"ĠedilmiÅŁtir":4878,"Ġbozuk":4879,"kir":4880,"Ä±klÄ±":4881,"29":4882,"Ġbulunur":4883,"manlÄ±k":4884,"ĠÃĸnc":4885,"ĠMÃ¼hendis":4886,"duÄŁumuz":4887,"Ġgr":4888,"tiketler":4889,"ĠOnun":4890,"ahtar":4891,"Ġbinlerce":4892,"ĠkÄ±ya":4893,"ĠkitabÄ±":4894,"ĠotobÃ¼s":4895,"esef":4896,"ĠÃ§alÄ±ÅŁÄ±yor":4897,"lima":4898,"ukat":4899,"Ġ70":4900,"ĠsÃ¼s":4901,"ĠYas":4902,"Ġâ":4903,"Ġvs":4904,"imizden":4905,"ĠduruÅŁ":4906,"dÄ±ÄŁÄ±na":4907,"45":4908,"ESÄ°":4909,"Ġdepo":4910,"ĠdeÄŁeri":4911,"ĠsanatÃ§Ä±":4912,"ĠalÄ±ndÄ±":4913,"Ġidi":4914,"Ġadr":4915,"100":4916,"red":4917,"ĠteÅŁkil":4918,"Ġsonuna":4919,"mÄ±z":4920,"Ġyapabilir":4921,"Av":4922,"Ġticari":4923,"Ġhassas":4924,"ĠÄ°brahim":4925,"ĠgÃ¶rÃ¼len":4926,"!!":4927,"ĠÃĩaÄŁ":4928,"Ġdizi":4929,"ĠsaÄŁlam":4930,"dip":4931,"Ġfi":4932,"irketi":4933,"Ä°Åŀ":4934,"ĠKomisyon":4935,"ĠyÄ±llar":4936,"Ġsistemleri":4937,"Ġdis":4938,"ĠÃ¶t":4939,"ayÄ±m":4940,"Ġilgilen":4941,"ĠWeb":4942,"lari":4943,"ĠHep":4944,"ĠOtel":4945,"ĠdolayÄ±sÄ±yla":4946,"ĠÃ§alÄ±ÅŁmasÄ±":4947,"Ġdekor":4948,"Ġbahset":4949,"Ġmahkem":4950,"altÄ±na":4951,"ĠgÃ¶rÃ¼nt":4952,"ĠSav":4953,"Ġismi":4954,"Ġhepsi":4955,"ĠdemiÅŁ":4956,"ĠbÃ¶lge":4957,"gre":4958,"ĠCen":4959,"ĠBÃ¼tÃ¼n":4960,"ordin":4961,"ĠpopÃ¼ler":4962,"Ġelektronik":4963,"etiyle":4964,"Ġ;":4965,"ĠyaÅŁay":4966,"ĠboÄŁ":4967,"Ġyapabilirsiniz":4968,"Ġmahk":4969,"Ġaktiv":4970,"Ġyalan":4971,"ator":4972,"Ä±ydÄ±":4973,"Ġincelem":4974,"ETÃĸ":4975,"kon":4976,"akkabÄ±":4977,"Ġitibariyle":4978,"ĠgÃ¼cÃ¼":4979,"ĠHatta":4980,"ĠPKK":4981,"droid":4982,"ĠPartisi":4983,"Ġharit":4984,"Ġref":4985,"Ġsunul":4986,"mamasÄ±":4987,"do":4988,"ĠiÅŁin":4989,"Ġbilgilendir":4990,"Ġmetre":4991,"ĠMahkem":4992,"ĠbahÃ§":4993,"uyucu":4994,"Ġakadem":4995,"ĠAdana":4996,"ĠHastanesi":4997,"ÄŁur":4998,"ĠyapÄ±mÄ±":4999,"Ä°l":5000,"Ġalmaya":5001,"emli":5002,"ĠÃ¶ngÃ¶r":5003,"mis":5004,"Ġgem":5005,"ĠFransa":5006,"ĠSp":5007,"rÃ¼k":5008,"2016":5009,"Ġayn":5010,"ĠalÄ±nmasÄ±":5011,"ĠFenerbahÃ§e":5012,"ĠDolay":5013,"lanmÄ±ÅŁtÄ±r":5014,"lerimizin":5015,"ĠsaÄŁlÄ±yor":5016,"adeniz":5017,"ĠdesteÄŁi":5018,"liye":5019,"Ġrenkli":5020,"ĠolacaÄŁÄ±nÄ±":5021,"tanÄ±n":5022,"ikat":5023,"ĠbarÄ±ÅŁ":5024,"Ġunsur":5025,"ĠKanunun":5026,"Ġdemir":5027,"kol":5028,"Ġservisi":5029,"omp":5030,"Ġbedel":5031,"ĠÅŁark":5032,"Ġkoruma":5033,"ĠSe":5034,"ĠÃ¼retic":5035,"ĠfÄ±k":5036,"ĠvÃ¼cud":5037,"Ġtehdit":5038,"bil":5039,"Ġeb":5040,"ĠolmaktadÄ±r":5041,"Ġdiler":5042,"ĠkÄ±sÄ±m":5043,"ĠhÄ±zla":5044,"ĠettiÄŁini":5045,"Allah":5046,"ĠKit":5047,"ĠolmalÄ±dÄ±r":5048,"Ġfaydalan":5049,"ĠMus":5050,"Ġterk":5051,"ĠSÄ±nav":5052,"Ġetkilen":5053,"ĠuygulamasÄ±":5054,"ĠBelediy":5055,"ĠpiÅŁir":5056,"ĠBatÄ±":5057,":)":5058,"ĠkadÄ±nlar":5059,"kÄ±r":5060,"Ġbom":5061,"mos":5062,"kur":5063,"ĠÄ°ÅŁlet":5064,"Ġ90":5065,"Ġtoz":5066,"ly":5067,"Ġbirer":5068,"ciler":5069,"ĠEkonom":5070,"ĠCev":5071,"Ġkriz":5072,"ĠAL":5073,"otel":5074,"Ġvurgu":5075,"Ä±lÄ±ÄŁÄ±":5076,"Ġfayda":5077,"anakk":5078,"lanÄ±yor":5079,"ĠaklÄ±":5080,"ĠÅŀirket":5081,"ĠdolaÅŁ":5082,"ĠAbd":5083,"rama":5084,"ock":5085,"ĠimkanÄ±":5086,"ĠÃ¼niversite":5087,"Ġsebebi":5088,"eÄŁe":5089,"Ġuyum":5090,"ĠOf":5091,"ĠPlan":5092,"Ġorganizasyon":5093,"Ġboya":5094,"ĠÃ¶ncelikle":5095,"Ġprojesi":5096,"ĠeÅŁi":5097,"Ġkayded":5098,"bon":5099,"ĠilÃ§e":5100,"ĠhÄ±r":5101,"Ġpet":5102,"duklarÄ±":5103,"ĠHiÃ§":5104,"ĠKaymak":5105,"eya":5106,"emizi":5107,"Ġzorunlu":5108,"Ġ45":5109,"rag":5110,"ĠHayat":5111,"05":5112,"lemeye":5113,"Ġfonksiyon":5114,"ĠsÃ¶ylen":5115,"Ġbenzeri":5116,"ĠHÃ¼seyin":5117,"Ġdurumlarda":5118,"sar":5119,"Ġbirbirinden":5120,"Ġdeng":5121,"ĠbilinÃ§":5122,"yasal":5123,"ĠDÃ¼ÅŁ":5124,"ĠMey":5125,"Ġtakdirde":5126,"ĠistiyorsanÄ±z":5127,"arbak":5128,"amam":5129,"EV":5130,"ĠaÃ§Ä±lÄ±ÅŁ":5131,"Ġtarihleri":5132,"ĠÅŁaÅŁÄ±r":5133,"ĠKuzey":5134,"Bil":5135,"land":5136,"errah":5137,"ĠSa":5138,"Ġkendilerini":5139,"sef":5140,"eyip":5141,"Ġyerli":5142,"Ġsevin":5143,"ĠNasÄ±l":5144,"ĠsÃ¼ren":5145,"anÄ±z":5146,"âĢĵ":5147,"ĠGalatasaray":5148,"aÄŁÄ±n":5149,"ĠHukuk":5150,"ĠPat":5151,"ĠdaÄŁÄ±t":5152,"diÄŁiniz":5153,"ĠGÃ¼nÃ¼":5154,"ĠÃĸmer":5155,"ebilmek":5156,"Ġsakin":5157,"Daha":5158,"Ġsahib":5159,"anti":5160,"ĠBek":5161,"CI":5162,"anakkale":5163,"Ġilave":5164,"ĠgeldiÄŁi":5165,"ĠkarÅŁÄ±lÄ±k":5166,"usunun":5167,"ĠhayatÄ±":5168,"makla":5169,"erji":5170,"layabilirsiniz":5171,"ment":5172,"Ġbence":5173,"ĠbakÄ±mÄ±ndan":5174,"ĠsonuÃ§larÄ±":5175,"Ġsabit":5176,"Ġmuhal":5177,"ĠÅŁim":5178,"ĠGru":5179,"Ġederken":5180,"ĠNak":5181,"ĠSit":5182,"Ġalg":5183,"eliÄŁi":5184,"Ġithal":5185,"ĠBunlar":5186,"ĠEmniyet":5187,"ĠfaktÃ¶r":5188,"ĠyÃ¶nlendir":5189,"Ġsunuyor":5190,"Ġsizler":5191,"ĠgÃ¶zlem":5192,"ĠaÃ§Ä±lan":5193,"Ev":5194,"kel":5195,"ary":5196,"Ġyenil":5197,"ĠEÄŁitimi":5198,"ĠyumuÅŁ":5199,"ileceÄŁini":5200,"ezerv":5201,"sinde":5202,"ayasa":5203,"BugÃ¼n":5204,"gah":5205,"ori":5206,"liliÄŁi":5207,"ĠSig":5208,"ĠAltÄ±n":5209,"Ġye":5210,"imden":5211,"ĠFeder":5212,"Ġiyice":5213,"ĠyaÅŁadÄ±ÄŁÄ±":5214,"fil":5215,"ĠArtÄ±k":5216,"deb":5217,"va":5218,"ĠBoz":5219,"Ġgelece":5220,"SK":5221,"tÄ±cÄ±":5222,"ĠhÃ¼cr":5223,"Ġtepki":5224,"ĠIs":5225,"ĠTeÅŁ":5226,"lamÄ±ÅŁ":5227,"eyh":5228,"undaki":5229,"Ġfatur":5230,"ĠKoca":5231,"ĠYok":5232,"tansiy":5233,"Ġistiyoruz":5234,"ĠKonya":5235,"Ãĸzel":5236,"ĠyarÄ±":5237,"cret":5238,"Ġsam":5239,"ĠDÃ¼ny":5240,"ĠKomut":5241,"eyerek":5242,"Ġkalma":5243,"ĠiÅŁler":5244,"laÅŁÄ±k":5245,"TL":5246,"kim":5247,"Ġanlama":5248,"ert":5249,"Ġkonak":5250,"ĠiliÅŁki":5251,"ilecektir":5252,"ĠparÃ§asÄ±":5253,"arbakÄ±r":5254,"mit":5255,"ĠmaÄŁaz":5256,"ĠgÃ¶rÃ¼nÃ¼m":5257,"Ġkamp":5258,"EÄŁer":5259,"uluÄŁ":5260,"Ne":5261,"Ġturizm":5262,"!âĢĿ":5263,"Ġaj":5264,"rop":5265,"paÅŁa":5266,"ĠmuhteÅŁem":5267,"our":5268,"masyon":5269,"Ġkoru":5270,"ĠPeki":5271,"Ġvermeye":5272,"istin":5273,"ĠÅŀampiyon":5274,"Ġlir":5275,"75":5276,"Ġmens":5277,"antep":5278,"ĠiliÅŁkiler":5279,"ÃľN":5280,"ĠgÃ¼ndem":5281,"emeÄŁi":5282,"Ġelb":5283,"Es":5284,"Ġkomut":5285,"Etiketler":5286,"ĠBilgi":5287,"ulacak":5288,"Ġtit":5289,"ĠTÄ±p":5290,"ĠÄ°nternet":5291,"ĠCem":5292,"ĠTarÄ±m":5293,"ĠGer":5294,"Ġakl":5295,"witter":5296,"Ã¼lmesi":5297,"inda":5298,"ĠhazÄ±rlÄ±k":5299,"Ġsanayi":5300,"ack":5301,"ĠbirleÅŁtir":5302,"ĠKÄ±lÄ±Ã§":5303,"ĠoyunlarÄ±":5304,"ĠEd":5305,"IL":5306,"ĠaldÄ±m":5307,"Ä°lk":5308,"ĠTurizm":5309,"UM":5310,"enizi":5311,"ĠÃ§eki":5312,"ĠÃ¼yeleri":5313,"EB":5314,"Ġmodeli":5315,"isa":5316,"Ġbirini":5317,"Ġdemokras":5318,"ima":5319,"Ġnoktada":5320,"tic":5321,"kal":5322,"ĠZaman":5323,"Ġkulak":5324,"ĠQ":5325,"ity":5326,"Ġbesin":5327,"Ġyenilik":5328,"Ø§":5329,"tren":5330,"ĠilginÃ§":5331,"mesinde":5332,"cÄ±k":5333,"Ġgelip":5334,"eter":5335,"ĠbaÅŁkanÄ±":5336,"Ġbilimsel":5337,"ĠÃ¶ÄŁrencilerin":5338,"Ã¶rÃ¼":5339,"ĠBÃ¶lg":5340,"Ġverilir":5341,"ĠmÃ¼l":5342,"ĠarkadaÅŁlar":5343,"ĠamaÃ§lÄ±":5344,"Ġsigort":5345,"sul":5346,"Ġkolayca":5347,"demir":5348,"Ġmus":5349,"Ġindirim":5350,"muz":5351,"ĠiÅŁÃ§i":5352,"andar":5353,"ĠgeÃ§tiÄŁimiz":5354,"Ġust":5355,"Ġiade":5356,"65":5357,"ĠolduÄŁunuz":5358,"Ġfutbolcu":5359,"tÄ±n":5360,"ĠtaÅŁÄ±m":5361,"ĠaÅŁaÄŁÄ±da":5362,"yaj":5363,"ĠGrup":5364,"ĠkaynaÄŁÄ±":5365,"Ġbuz":5366,"Ġku":5367,"ĠgÄ±da":5368,"ĠiP":5369,"Ġkurs":5370,"abileceÄŁi":5371,"ĠSÃ¼per":5372,"Ġten":5373,"ĠgeÃ§er":5374,"Ġrestor":5375,"Ġvermektedir":5376,"ĠSaat":5377,"ĠÃĸÄŁren":5378,"ĠseÃ§en":5379,"Ġkere":5380,"Ġbeb":5381,"Ġkaydetti":5382,"SO":5383,"Ġburaya":5384,"ice":5385,"Ġbuyur":5386,"Ä±yÄ±z":5387,"Ã¼leyman":5388,"Tek":5389,"ĠyÃ¼zey":5390,"ayacak":5391,"alatya":5392,"Ġeh":5393,"ĠkaÅŁ":5394,"Ġadeta":5395,"oli":5396,"ĠbÃ¼yÃ¼m":5397,"ĠbiÃ§im":5398,"PS":5399,"ĠpaylaÅŁÄ±m":5400,"Ġbeklent":5401,"Ġsiteleri":5402,"ĠsarÄ±":5403,"Ġortamda":5404,"Ġmemur":5405,"Ã¼bÃ¼":5406,"masÄ±n":5407,"ĠDin":5408,"ĠyapÄ±sÄ±":5409,"enkul":5410,"Ġmekt":5411,"ĠDanÄ±ÅŁ":5412,"Ġ2009":5413,"ell":5414,"ĠMac":5415,"ĠFransÄ±z":5416,"Ġbl":5417,"iyel":5418,"Ä±nma":5419,"ĠSayfa":5420,"Ġtedbir":5421,"ĠaÅŁa":5422,"ĠGÃ¼neÅŁ":5423,"ĠSonuÃ§":5424,"Ġhissed":5425,"Ġtablo":5426,"Ġetki":5427,"kiÅŁehir":5428,"ĠolmalÄ±":5429,"ĠErz":5430,"33":5431,"melik":5432,"ektÃ¶rÃ¼":5433,"ĠtuÅŁ":5434,"Ä±lmasÄ±nÄ±":5435,"ÄŁinizi":5436,"ĠErkek":5437,"mm":5438,"ĠgÃ¶sterir":5439,"ĠFin":5440,"Ġkonser":5441,"ĠdÃ¶nemi":5442,"ĠkÃ¼ltÃ¼rel":5443,"ĠistediÄŁi":5444,"ĠyÄ±lÄ±ndan":5445,"Ġsevk":5446,"Ð¸":5447,"ilmez":5448,"oft":5449,"ĠkÄ±yafet":5450,"ĠteÅŁvik":5451,"ĠaÃ§Ä±dan":5452,"ebiliriz":5453,"cÄ±lÄ±ÄŁÄ±":5454,"TC":5455,"ĠyaÅŁlÄ±":5456,"ĠdaÄŁÄ±":5457,"Ġyarg":5458,"ĠgÃ¶steriyor":5459,"Ġekipleri":5460,"div":5461,"osya":5462,"Ġusul":5463,"abilen":5464,"Ġmahall":5465,"Kur":5466,"Ġsinir":5467,"Ġtemizlik":5468,"ĠyaptÄ±klarÄ±":5469,"ileÅŁtir":5470,"lantÄ±":5471,"var":5472,"ĠBab":5473,"ĠaÄŁrÄ±":5474,"ĠgÃ¶zaltÄ±na":5475,"Ġsanki":5476,"Ġmakam":5477,"ĠyÃ¼zÃ¼nden":5478,"Ġisterseniz":5479,"Ġyolcu":5480,"Ä±lmaktadÄ±r":5481,"olog":5482,"ĠoranÄ±nda":5483,"ĠKiÅŁ":5484,"Ġkullanan":5485,"ĠcoÄŁraf":5486,"2015":5487,"ĠYen":5488,"Ġsunan":5489,"afer":5490,"Ġport":5491,"ĠkarÅŁÄ±lan":5492,"Ġkanser":5493,"Ġpotansiy":5494,"Ġba":5495,"Ġsaha":5496,"ĠkÃ¼t":5497,"ĠÃ§ekti":5498,"ĠyÃ¼rÃ¼r":5499,"Ġyoluyla":5500,"ĠLe":5501,"ĠFÄ±r":5502,"lÄ±ÄŁÄ±nÄ±n":5503,"ĠÃľÃ§":5504,"ĠoÄŁlu":5505,"ĠhastalÄ±ÄŁ":5506,"Ã§uk":5507,"alesef":5508,"Ġvitam":5509,"ĠMuhammed":5510,"ĠMic":5511,"isiklet":5512,"Ġgenelinde":5513,"leki":5514,"ck":5515,"OK":5516,"ĠHÃ¼kÃ¼m":5517,"Ġofis":5518,"Ġdarbe":5519,"lÄ±dÄ±r":5520,"Ġkilomet":5521,"yalÄ±":5522,"ĠYah":5523,"ĠyargÄ±":5524,"ĠyaklaÅŁÄ±m":5525,"ĠAc":5526,"Ġyetkili":5527,"ĠTarihi":5528,"ĠkÃ¶pek":5529,"ĠMen":5530,"ĠgÃ¶l":5531,"ĠHast":5532,"Ä°nsan":5533,"Ġgrubu":5534,"Ġizlen":5535,"ĠBakan":5536,"ĠPaÅŁa":5537,"ĠÃĩelik":5538,"lor":5539,"lerken":5540,"Ġrefer":5541,"ĠkayÄ±p":5542,"Ä±ldÄ±ÄŁÄ±nda":5543,"ray":5544,"Ġsorunun":5545,"Top":5546,"ĠÅŁef":5547,"mÃ¼ÅŁtÃ¼r":5548,"ĠBilim":5549,"ĠÄ°h":5550,"Ġha":5551,"Ġettim":5552,"ĠbugÃ¼ne":5553,"Ġyerden":5554,"ĠDolayÄ±sÄ±yla":5555,"oo":5556,"ĠdÃ¼zelt":5557,"Ġumut":5558,"Ġbitk":5559,"likler":5560,"itir":5561,"Ġbirinin":5562,"AV":5563,"ekteyiz":5564,"ĠBalÄ±k":5565,"ĠyayÄ±nlanan":5566,"Ġkuma":5567,"ull":5568,"ĠBahÃ§":5569,"ruf":5570,"ĠFacebook":5571,"ĠkonuÅŁan":5572,"tib":5573,"ry":5574,"rafi":5575,"Sen":5576,"irv":5577,"vekil":5578,"Ġ2008":5579,"ĠNew":5580,"Ġdini":5581,"EC":5582,"ĠÄ°let":5583,"ĠYeÅŁil":5584,"tacak":5585,"Ġsebebiyle":5586,"Ġbulabilirsiniz":5587,"ĠaÄŁz":5588,"Ġalak":5589,"Ġbilgiye":5590,"ĠKil":5591,"\",":5592,"ahh":5593,"ĠÃ§aÄŁÄ±r":5594,"ĠÃĩÄ±k":5595,"ĠBakanlÄ±ÄŁ":5596,"nan":5597,"Ġedilecek":5598,"01":5599,"yÄ±m":5600,"Kon":5601,"Ġelbette":5602,"Ġmaddesi":5603,"Ġaltyap":5604,"ĠSil":5605,"onun":5606,"ĠKart":5607,"Ġmutfak":5608,"ĠgÃ¶revi":5609,"Ġwww":5610,"Ġbirbirine":5611,"ĠÅŁehr":5612,"Ġkurumsal":5613,"Ġmaddi":5614,"Ġbeklem":5615,"ĠendiÅŁ":5616,"lerimize":5617,"ĠÃ¼stÃ¼ne":5618,"madÄ±ÄŁÄ±":5619,"ĠÄ±":5620,"ĠgÃ¶rÃ¼r":5621,"ĠCuma":5622,"Ġideal":5623,"alandÄ±r":5624,"ĠdÃ¼ÅŁen":5625,"ĠzamanÄ±":5626,"OB":5627,"ĠbirleÅŁ":5628,"ĠBÃ¶lÃ¼mÃ¼":5629,"siyet":5630,"Ġinsanlara":5631,"mesiyle":5632,"ivas":5633,"odrum":5634,"Ãĩok":5635,"Ġaraba":5636,"ĠyansÄ±":5637,"Ġsayede":5638,"Ġniyet":5639,"ĠgeliÅŁmeler":5640,"ĠRamazan":5641,"mede":5642,"Ġdijital":5643,"enn":5644,"Ġufak":5645,"Ġtamamlan":5646,"ĠuÃ§uÅŁ":5647,"insel":5648,"otik":5649,"ĠmÃ¼hendis":5650,"Ġnefes":5651,"ĠetmiÅŁtir":5652,"Ġï¿½":5653,"ĠÄ°kinci":5654,"Ġulusal":5655,"Ġbiridir":5656,"ĠPort":5657,"Ġherkese":5658,"ĠYapÄ±lan":5659,"elek":5660,"ĠkadÄ±nÄ±n":5661,"ĠLigi":5662,"ris":5663,"ĠgÃ¼nÃ¼mÃ¼z":5664,"ĠKons":5665,"ĠgereÄŁi":5666,"Ġdip":5667,"IK":5668,"Ġto":5669,"ĠalbÃ¼m":5670,"ĠPark":5671,"alarla":5672,"lÃ¼ÄŁe":5673,"vel":5674,"DA":5675,"Yap":5676,"ĠkarÅŁÄ±laÅŁtÄ±r":5677,"ĠkavuÅŁ":5678,"ĠGenÃ§lik":5679,"ĠbaÅŁlayacak":5680,"ĠgÃ¶k":5681,"MA":5682,"ĠgÃ¼ne":5683,"ĠYÄ±ldÄ±z":5684,"ĠkartÄ±":5685,"Ġbulmak":5686,"Ġbeyan":5687,"Ġtakv":5688,"ĠtÄ±p":5689,"kÄ±rÄ±":5690,"layabilir":5691,"pe":5692,"ĠinsanÄ±":5693,"ĠbÃ¼nyesinde":5694,"Ġanlatan":5695,"pple":5696,"urk":5697,"ĠbÃ¶ylece":5698,"ĠStr":5699,"Ġtabii":5700,"ĠesnasÄ±nda":5701,"ĠyarÄ±n":5702,"umartesi":5703,"Ġkonuk":5704,"ĠtanÄ±tÄ±m":5705,"ilmesini":5706,"ĠJap":5707,"Ġlink":5708,"ĠMon":5709,"ĠsorunlarÄ±":5710,"ĠgÃ¶ÄŁ":5711,"Ġbask":5712,"Ġboyu":5713,"ĠMHP":5714,"landa":5715,"olar":5716,"teri":5717,"ĠyanÄ±na":5718,"ĠKut":5719,"ĠfaydalÄ±":5720,"Ġondan":5721,"ĠyapÄ±n":5722,"Ġmac":5723,"ilip":5724,"Bak":5725,"ĠkadÄ±nlarÄ±n":5726,"ĠÃ¼lkemizde":5727,"âĢ¢":5728,"ĠÃ¼retimi":5729,"ĠRum":5730,"orb":5731,"Ġkapasit":5732,"Ä±lacaÄŁÄ±":5733,"Ġmevcuttur":5734,"Ġbelediy":5735,"Ġmevzu":5736,"Ġop":5737,"Ġyedek":5738,"Ankara":5739,"Ġokuma":5740,"isyen":5741,"Ġkuzey":5742,"Ġgalib":5743,"gÃ¼":5744,"ĠHazÄ±r":5745,"ĠÅŀube":5746,"ĠolasÄ±":5747,"Ġadalet":5748,"ĠgÃ¼r":5749,"Ġpr":5750,"ĠaraÅŁtÄ±rmalar":5751,"ĠdeÄŁin":5752,"ĠHizmetleri":5753,"ĠKurumu":5754,"ĠalÄ±narak":5755,"Ġedebiyat":5756,"yol":5757,"fÄ±r":5758,"Ġmetin":5759,"Ġyedi":5760,"ĠKup":5761,"ÅŁap":5762,"asÄ±ndaki":5763,"Ġanal":5764,"ĠMem":5765,"ĠiÅŁleri":5766,"Ġkimlik":5767,"ĠCeza":5768,"Ã¼mrÃ¼k":5769,"ÅŁiv":5770,"Ġzek":5771,"Ġtutan":5772,"99":5773,"ĠÃĸdÃ¼l":5774,"Ġgidip":5775,"ĠFer":5776,"veren":5777,"illa":5778,"Merhaba":5779,"zi":5780,"Ek":5781,"ĠkalmÄ±ÅŁ":5782,"Ġob":5783,"Bel":5784,"ĠyÃ¼kselt":5785,"Ġaran":5786,"Ġkeyifli":5787,"ĠiÅŁbirliÄŁi":5788,"ĠÃĸÄŁrenc":5789,"ĠgÃ¶rdÃ¼k":5790,"ena":5791,"Ġnas":5792,"44":5793,"duÄŁunuz":5794,"Ġistif":5795,"Ã¼str":5796,"Ġyenilen":5797,"usuz":5798,"Ġistihdam":5799,"Ġgidiyor":5800,"Ġburadan":5801,"Ä°D":5802,"ĠhatÄ±rlat":5803,"ĠKurt":5804,"ĠLisesi":5805,"ĠmÃ¼r":5806,"www":5807,"Ġmoda":5808,"ĠkarÅŁÄ±ya":5809,"bel":5810,"Ġkup":5811,"ĠyaÅŁadÄ±ÄŁ":5812,"duÄŁum":5813,"Ġdepr":5814,"Ġsevgil":5815,"Ã¼ldÃ¼":5816,"Ġbelirlenen":5817,"Ġvir":5818,"Ġkahraman":5819,"ĠmÃ¼dahale":5820,"ral":5821,"ami":5822,"ĠolduklarÄ±nÄ±":5823,"Ġfalan":5824,"amaya":5825,"Ġkalite":5826,"Ã§Ä±k":5827,"ĠkaÃ§Ä±n":5828,"Ġserg":5829,"tek":5830,"ĠbÃ¶lÃ¼mÃ¼nde":5831,"ĠÃ§aÄŁr":5832,"tuÄŁ":5833,"ĠsektÃ¶rÃ¼nde":5834,"eydi":5835,"Ġmanz":5836,"ĠÄ±r":5837,"amÄ±ÅŁ":5838,"Ñģ":5839,"elisiniz":5840,"ĠanlamÄ±":5841,"dÄ±lar":5842,"estival":5843,"ĠBoy":5844,"Ġfabrik":5845,"los":5846,"dÄ±ÄŁÄ±ndan":5847,"ĠbarÄ±ndÄ±r":5848,"Ġdava":5849,"emeyen":5850,"out":5851,"Ġpratik":5852,"bek":5853,"ĠÃĩalÄ±ÅŁma":5854,"Ġyerlerde":5855,"ĠadlandÄ±r":5856,"Ġedilebilir":5857,"sÄ±zÄ±n":5858,"eceksiniz":5859,"Ġfiziksel":5860,"Ġmutluluk":5861,"ĠHerk":5862,"leyerek":5863,"kent":5864,"atistik":5865,"ĠSÃ¼leyman":5866,"09":5867,"irim":5868,".[":5869,"Ġacil":5870,"iciler":5871,"ĠaracÄ±lÄ±ÄŁÄ±yla":5872,"ĠGrubu":5873,"ĠHaberleri":5874,"ildiÄŁini":5875,"ĠgÃ¶sterdi":5876,"Ġplak":5877,"ĠyÃ¼rÃ¼yÃ¼ÅŁ":5878,"Ġ197":5879,"Ġ300":5880,"Ġgenelde":5881,"addesi":5882,"Ġmimar":5883,"ĠkanÄ±t":5884,"ĠgerektiÄŁi":5885,"ĠKamu":5886,"ĠyÃ¼kÃ¼m":5887,"ansiyon":5888,"urta":5889,"ĠÃĸl":5890,"ĠEnstit":5891,"ĠgeÃ§ici":5892,"gÃ¼r":5893,"anet":5894,"Ġolmayacak":5895,"mr":5896,"diklerini":5897,"Ġseyir":5898,"Ġbilet":5899,"ĠbaÅŁlangÄ±Ã§":5900,"Ġmeydan":5901,"Ġkullanma":5902,"Siz":5903,"ĠÃ¶nde":5904,"ĠbazÄ±larÄ±":5905,"liy":5906,"Ġyav":5907,"03":5908,"ĠGerek":5909,"asi":5910,"Ä°z":5911,"ĠyakÄ±ndan":5912,"rom":5913,"ĠaykÄ±rÄ±":5914,"Ġmakal":5915,"ĠAj":5916,"ĠCih":5917,"gat":5918,"ĠÃ§Ä±kacak":5919,"lerdi":5920,"muyor":5921,"Ġvererek":5922,"ĠgÃ¶rÃ¼ÅŁmeler":5923,"lÄ±ÄŁÄ±nda":5924,"ĠolacaÄŁÄ±":5925,"ĠuyarÄ±":5926,"Ġgitmek":5927,"Ã¼ce":5928,"Ġkimi":5929,"Ġverilmesi":5930,"and":5931,"Ġnesil":5932,"iÅŁik":5933,"ĠBirleÅŁ":5934,"les":5935,"ĠWindows":5936,"ĠgÃ¼ndeme":5937,"ĠFar":5938,"Ġest":5939,"ÄŁimi":5940,"Ġdoy":5941,"Ġyoktu":5942,"mekten":5943,"ĠyapÄ±lab":5944,"Ġhapis":5945,"tayÄ±z":5946,"ĠedildiÄŁi":5947,"ĠbaÄŁÄ±r":5948,"Ġduruma":5949,"ĠhaklarÄ±":5950,"ĠhalkÄ±n":5951,"Ġfazlas":5952,"ĠÃ¶lÃ§Ã¼de":5953,"ĠKaradeniz":5954,"lerindeki":5955,"unma":5956,"ĠkalÄ±r":5957,"ĠYa":5958,"Ġnakliyat":5959,"ĠulaÅŁÄ±m":5960,"ĠyarÄ±m":5961,"Ġbilen":5962,"ilmesine":5963,"ĠÃĸÄŁretim":5964,"ĠTun":5965,"ĠgÃ¼Ã§lendir":5966,"ĠkÄ±zÄ±":5967,"Ġrakip":5968,"ÅŁu":5969,"TÃľ":5970,"ĠÅŁunlarÄ±":5971,"US":5972,"Ġtaraftar":5973,"ĠulaÅŁtÄ±r":5974,"lus":5975,"ĠmaÃ§Ä±":5976,"ĠFutbol":5977,"Ġedilmektedir":5978,"okol":5979,"Ġbaba":5980,"ĠProgramÄ±":5981,"ĠsÃ¼rÃ¼cÃ¼":5982,"Ġdenet":5983,"Ġkapan":5984,"diniz":5985,"gulan":5986,"31":5987,"Ġbiy":5988,"EO":5989,"ĠÄ°span":5990,"Ġekibi":5991,"ĠaralÄ±k":5992,"Ġrej":5993,"ĠReh":5994,"02":5995,"ĠtakÄ±mÄ±":5996,"giliz":5997,"ĠHakkÄ±nda":5998,"Ġ36":5999,"Ġgerekti":6000,"andarma":6001,".âĢĻ":6002,"usuf":6003,"ĠvarlÄ±k":6004,"Ġdedik":6005,"Ġkonularda":6006,"ĠbÃ¼yÃ¼":6007,"Ã½r":6008,"lÃ¢m":6009,"stagram":6010,"Ġtanesi":6011,"ĠAmerikan":6012,"ĠBe":6013,"ĠtÃ¼rÃ¼":6014,"Ġhab":6015,"ĠÄ°ÅŁleri":6016,"ĠMÄ±sÄ±r":6017,"ĠBundan":6018,"rens":6019,"ĠalanlarÄ±":6020,"ĠEnd":6021,"Ġmalzeme":6022,"2014":6023,"Ġsertif":6024,"ĠDestek":6025,"likte":6026,"Ġrezerv":6027,"ĠAna":6028,"ĠDoÃ§":6029,"Ġsergil":6030,"ĠKaynak":6031,"ĠAR":6032,"EY":6033,"ho":6034,"deri":6035,"ĠkolaylaÅŁtÄ±r":6036,"ĠyangÄ±n":6037,"Ġkoc":6038,"ĠGar":6039,"Ġtedavisi":6040,"32":6041,"ĠbaÄŁlant":6042,"Ġyerler":6043,"ĠyapÄ±ldÄ±ÄŁÄ±":6044,"Ã¢y":6045,"ilerinden":6046,"Ġmaden":6047,"Ġoldum":6048,"ĠaralarÄ±nda":6049,"Ġkusur":6050,"ĠUlusal":6051,"dÃ¼ÄŁÃ¼nÃ¼":6052,"tÄ±ÄŁÄ±mÄ±z":6053,"Ġkiralama":6054,"ĠhalÄ±":6055,"Ġkoltuk":6056,"Ġdevrim":6057,"orno":6058,"Ġzeytin":6059,"ĠgÃ¶rÃ¼nÃ¼yor":6060,"ĠDik":6061,"diye":6062,"ie":6063,"ĠAslÄ±nda":6064,"Ġkorumak":6065,"rip":6066,"ĠCar":6067,"Ġfinal":6068,"elal":6069,"ĠdÃ¶nÃ¼ÅŁÃ¼m":6070,"OM":6071,"ferans":6072,"ĠFETÃĸ":6073,"ĠyÃ¶ntemi":6074,"mediÄŁi":6075,"ĠÃ¶ncesinde":6076,"ĠayrÄ±l":6077,"aÄŁÄ±nÄ±":6078,"Ġkaps":6079,"ĠÅŁeyin":6080,"Ġkred":6081,"Ġuyumlu":6082,"Ġlok":6083,"ĠArab":6084,"Ġoynay":6085,"ĠkÃ¼resel":6086,"ĠFet":6087,"ĠsÃ¶zleri":6088,"maktÄ±r":6089,"Ġklasik":6090,"ĠÃ§ocuÄŁun":6091,"ediÄŁiniz":6092,"utma":6093,"ĠgÃ¼nÃ¼mÃ¼zde":6094,"ĠyaÅŁadÄ±k":6095,"ĠfirmasÄ±":6096,"Ġyolunda":6097,"Ã¼ye":6098,"Ġsevgi":6099,"Ġalanlar":6100,"ĠalÄ±nacak":6101,"ump":6102,"Ġyolda":6103,"ĠVakfÄ±":6104,"Ġincelen":6105,"34":6106,"ĠAdÄ±":6107,"06":6108,"ĠgÃ¼nler":6109,"Ġharek":6110,"ĠTemiz":6111,"08":6112,"ĠgerekÃ§":6113,"Ġep":6114,"ydÄ±":6115,"Ġfar":6116,"Ġkara":6117,"ĠayakkabÄ±":6118,"Ġmay":6119,"ĠÄ°letiÅŁim":6120,"Ġbelgesi":6121,"ĠVan":6122,"lÄ±kta":6123,"36":6124,"Ä±sal":6125,"ĠOÄŁ":6126,"iyede":6127,"ĠkazanÃ§":6128,"ĠMu":6129,"ĠkalÄ±cÄ±":6130,"ĠKarar":6131,"ĠcivarÄ±nda":6132,"ĠKendi":6133,"Ġmaruz":6134,"ÌĪ":6135,"org":6136,"malarÄ±n":6137,"Ġbelirtildi":6138,"Ġyiyecek":6139,"ĠkatÄ±":6140,"ĠolmadÄ±":6141,"ĠdÃ¼ÅŁÃ¼nÃ¼l":6142,"ADDE":6143,"uluyor":6144,"Ġdilek":6145,"Ġmm":6146,"ĠÅŁirketi":6147,"ĠyaptÄ±m":6148,"ann":6149,"07":6150,"Ġkalab":6151,"imle":6152,"ĠfirmamÄ±z":6153,"ĠYÃ¶netimi":6154,"ĠMÃ¼dÃ¼rlÃ¼ÄŁ":6155,"ĠGaz":6156,"layacak":6157,"ĠYurt":6158,"ĠmaaÅŁ":6159,"ĠkaÄŁÄ±t":6160,"Ġanahtar":6161,"ĠyÃ¶nÃ¼nde":6162,"Ġkalb":6163,"ĠbabasÄ±":6164,"melerin":6165,"Ġtaban":6166,"Ġkonfor":6167,"lemesi":6168,"pat":6169,"amÄ±yor":6170,"ĠyÃ¶r":6171,"Ġani":6172,"ĠÃľcret":6173,"ĠÄ°d":6174,"Ġyitir":6175,"ĠmÃ¼mkÃ¼ndÃ¼r":6176,"ĠProjesi":6177,"ĠÃ¼stÃ¼nde":6178,"Ġrahmet":6179,"TÃ¼m":6180,"kor":6181,"ĠeÄŁlenceli":6182,"Ġbet":6183,"elle":6184,"Ġorman":6185,"ĠdÃ¼zeyde":6186,"ĠalÄ±nÄ±r":6187,"ress":6188,"ĠbaÅŁlÄ±klÄ±":6189,"parator":6190,"EF":6191,"??":6192,"Ġdiyet":6193,"Ġifadelerini":6194,"ĠAkdeniz":6195,"adir":6196,"veya":6197,"ĠbÃ¼tÃ§":6198,"ĠArt":6199,"zat":6200,"ĠsonuÃ§lar":6201,"atÄ±n":6202,"Ġkimyasal":6203,"ĠeÅŁya":6204,"soy":6205,"Ġevden":6206,"ÑĤ":6207,"Ġgeleneksel":6208,"Ġsunulan":6209,"ĠOrgan":6210,"ĠBÃ¶lge":6211,"ĠGÃ¶n":6212,"ĠMobil":6213,"ĠEx":6214,"cektir":6215,"Ġgarant":6216,"melidir":6217,"yeni":6218,"Ġdevletin":6219,"eyse":6220,"Ġtasarruf":6221,"ĠolmayÄ±":6222,"Ġdakikada":6223,"ĠBeyaz":6224,"ĠgÃ¶rÃ¼ntÃ¼l":6225,"ĠgÃ¼nÃ¼n":6226,"ĠKav":6227,"ĠKoÃ§":6228,"satÄ±":6229,"laz":6230,"Ġegz":6231,"Ġkiral":6232,"Ä±sÄ±t":6233,"Ġvad":6234,"ĠyaÄŁmur":6235,"ĠkÄ±v":6236,"ĠKamp":6237,"ĠhanÄ±m":6238,"arik":6239,"itler":6240,"Ġka":6241,"ĠdÃ¼ÅŁtÃ¼":6242,"eks":6243,"ĠKent":6244,"ona":6245,"Ġderecede":6246,"igit":6247,"Ġkalem":6248,"Ġelinde":6249,"Ġverim":6250,"ĠMeslek":6251,"Ġhali":6252,"ĠgerÃ§ekleÅŁen":6253,"azartesi":6254,"Ã¢m":6255,"55":6256,"Uz":6257,"ube":6258,"Ġlig":6259,"Ġokur":6260,"04":6261,"Ġbez":6262,"Ġgerekse":6263,"Ġesnaf":6264,"isiz":6265,"uman":6266,"ĠÃĩevre":6267,"ĠVat":6268,"ĠÃ¶nÃ¼mÃ¼zdeki":6269,"ĠgÃ¼nden":6270,"aklÄ±":6271,"ĠÄ°smail":6272,"ĠOrdu":6273,"Ä±nan":6274,"ĠcezasÄ±":6275,"ĠAN":6276,"ĠZaten":6277,"ood":6278,"ĠPr":6279,"Ġacaba":6280,"ĠFark":6281,"ĠiÅŁlev":6282,"ĠolduÄŁum":6283,"Ġseven":6284,"dÄ±ÅŁ":6285,"Ġkimsenin":6286,"Ġmuhab":6287,"ĠgÃ¼ney":6288,"ĠÃ§aÄŁrÄ±":6289,"ĠÃ§alÄ±ÅŁmalarÄ±nÄ±":6290,"eral":6291,"ĠBelki":6292,"ĠÅŀahin":6293,"Ġkitl":6294,"ĠÄ°nÅŁaat":6295,"Ġuyku":6296,"Ġhata":6297,"dÃ¼n":6298,"ĠsanÄ±rÄ±m":6299,"Ġstat":6300,"BMM":6301,"irli":6302,"Ġmetal":6303,"yu":6304,"Ġevlilik":6305,"ĠHayvan":6306,"ĠDoÄŁan":6307,"Ġbulama":6308,"ĠbaÄŁÄ±ÅŁ":6309,"ĠÃ§Ä±kmÄ±ÅŁ":6310,"Ġkenar":6311,"ĠrÃ¼z":6312,"ĠhayÄ±rlÄ±":6313,"Ġolmay":6314,"Ġitiraz":6315,"ĠAsya":6316,"Ġsevg":6317,"Ġgurur":6318,"Ġgayet":6319,"osk":6320,"Ġkazanan":6321,"cÄ±larÄ±n":6322,"Ġdarb":6323,"orat":6324,"Ġkomisyon":6325,"Ġ..":6326,"Ġolunca":6327,"ĠsÄ±vÄ±":6328,"vuru":6329,"ĠDÃ¼zen":6330,"ĠEscort":6331,"ĠkÃ¶pr":6332,"ediÄŁini":6333,"Ġdan":6334,"adÄ±n":6335,"ĠSitesi":6336,"Ġhalen":6337,"ĠSok":6338,"landÄ±ÄŁÄ±":6339,"ĠeÄŁit":6340,"Ġadresi":6341,"Ġhadis":6342,"39":6343,"ĠSistemi":6344,"debiyat":6345,"ĠeriÅŁim":6346,"Ġgayret":6347,"ileÅŁ":6348,"Ġbireysel":6349,"Ġgetirmek":6350,"ĠElektrik":6351,"ĠÅŀen":6352,"mel":6353,"anÄ±k":6354,"Ġbulunmak":6355,"ĠMersin":6356,"ĠÂ·":6357,"Ġverimli":6358,"asÄ±z":6359,"ĠyazÄ±k":6360,"Ġmetrek":6361,"tÄ±klarÄ±":6362,"Ġistan":6363,"ĠyapÄ±p":6364,"Ġgazetec":6365,"Ġesk":6366,"Ġhisse":6367,"ĠgÃ¼venliÄŁi":6368,"ĠArkadaÅŁ":6369,"ĠgeliÅŁmiÅŁ":6370,"ĠÃ§elik":6371,"Ġbahsed":6372,"ĠtasarÄ±mÄ±":6373,"ĠbaÅŁlamÄ±ÅŁ":6374,"umhurbaÅŁkanÄ±":6375,"adÄ±m":6376,"Ġdenk":6377,"ĠÃ§Ã¶":6378,"Ġtiyatro":6379,"ĠEuro":6380,"Ã¼ks":6381,"ĠanÄ±nda":6382,"ĠServisi":6383,"Ama":6384,"Ġederiz":6385,"ĠadayÄ±":6386,"Ġdiyebilir":6387,"ĠDemok":6388,"ĠÃ¼m":6389,"tÄ±lar":6390,"Oy":6391,"ang":6392,"Ġnetic":6393,"AyrÄ±ca":6394,"elendir":6395,"lav":6396,"ĠmÃ¼s":6397,"ĠUygulama":6398,"mamak":6399,"Ä±ldÄ±ÄŁÄ±nÄ±":6400,"Ġmensup":6401,"Ä±yÄ±m":6402,"ĠsÃ¼reÃ§te":6403,"ĠsÃ¼reli":6404,"ĠAndroid":6405,"sesuar":6406,"ĠkulÃ¼p":6407,"ĠmaÄŁdur":6408,"otos":6409,"elerek":6410,"Ġsizleri":6411,"araj":6412,"ĠsÃ¼redir":6413,"Ġkorku":6414,"yiz":6415,"raÃ§":6416,"Ġpah":6417,"ĠÃľyesi":6418,"ĠÃĩanakkale":6419,"ĠDiyarbakÄ±r":6420,"ĠhastalÄ±ÄŁÄ±":6421,"jen":6422,"lanacak":6423,"Ġtali":6424,"ĠSes":6425,"ĠGÃ¶rev":6426,"ĠSem":6427,"Ġgecik":6428,"eker":6429,"meyecek":6430,"Ġdalg":6431,"ĠSavaÅŁÄ±":6432,"Ġyetersiz":6433,"ĠkullandÄ±ÄŁÄ±":6434,"ĠFu":6435,"Ġtoplumun":6436,"meyin":6437,"danÄ±":6438,"ĠkÄ±ymet":6439,"Ġsuretiyle":6440,"ĠÃ¼lkeler":6441,"ĠÃ§ocuklarÄ±":6442,"ĠnoktasÄ±":6443,"ĠkullanÄ±lmasÄ±":6444,"akarya":6445,"elli":6446,"Ġzorluk":6447,"Ã¼rken":6448,"Ġsorunlar":6449,"Ġoynan":6450,"ook":6451,"oter":6452,"ĠnÃ¼fus":6453,"Ġ32":6454,"ĠkarÅŁÄ±lÄ±ÄŁ":6455,"ĠiÅŁt":6456,"ĠzamanÄ±nda":6457,"ĠgÃ¶m":6458,"ĠsÃ¼rece":6459,"DÃ¼nya":6460,"ko":6461,"Yaz":6462,"ĠÃ§alÄ±ÅŁmak":6463,"ĠsaÄŁlÄ±ÄŁÄ±":6464,"ĠÃ§atÄ±ÅŁ":6465,"ĠyapmanÄ±z":6466,"ĠyoÄŁ":6467,"ĠgÃ¼z":6468,"Ġtelefonu":6469,"Ð½":6470,"ĠAraÃ§":6471,"Ġzamanlar":6472,"):":6473,"ĠMalatya":6474,"Ãĩocuk":6475,"ibe":6476,"Ġhayran":6477,"Ġker":6478,"dava":6479,"ĠdayalÄ±":6480,"ĠodasÄ±":6481,"ĠolaÄŁan":6482,"ĠTR":6483,"Ġparmak":6484,"sav":6485,"ÑĢ":6486,"ect":6487,"ebi":6488,"ĠÃľzer":6489,"ĠÃĩek":6490,"Ġkullanabilirsiniz":6491,"ĠTelefon":6492,"ĠfarkÄ±":6493,"Ġtap":6494,"ĠYaÄŁ":6495,"Ġkendimi":6496,"Ġpu":6497,"Ġ2007":6498,"Ġgittik":6499,"Ã¢t":6500,"ĠfarkÄ±nda":6501,"leyin":6502,"Ġistanbul":6503,"ĠiÅŁgal":6504,"ĠdÃ¼ÅŁÃ¼nce":6505,"Ġmiktarda":6506,"Ġsigorta":6507,"Ġzemin":6508,"iti":6509,"ĠyapÄ±lÄ±yor":6510,"ĠÃ¶rgÃ¼tÃ¼":6511,"ĠkumaÅŁ":6512,"ĠKulÃ¼bÃ¼":6513,"ĠBilgisayar":6514,"ick":6515,"Ġartan":6516,"alimanÄ±":6517,"38":6518,"OÄŀ":6519,"Ġgeril":6520,"muÅŁtu":6521,"SB":6522,"ĠMÃ¼ÅŁt":6523,"Gel":6524,"ĠAbdullah":6525,"Ġpanel":6526,"Ġrekabet":6527,"ĠRabb":6528,"tein":6529,"Ġdikkatli":6530,"Ġicin":6531,"ĠOnlar":6532,"ĠyansÄ±t":6533,"ĠÃ§Ã¶k":6534,"Ġrehber":6535,"mey":6536,"Ġverme":6537,"Ġcas":6538,"ĠÃ¶ncelik":6539,"Ġbilgisi":6540,"Ã§u":6541,"malarÄ±na":6542,"ĠkullanÄ±labilir":6543,"malÄ±sÄ±nÄ±z":6544,"Ġ34":6545,"radan":6546,"ĠOrman":6547,"ĠsÄ±nÄ±rlÄ±":6548,"Ġalanlarda":6549,"ĠTurk":6550,"ĠNeden":6551,"Ġbeyin":6552,"Ġmeyv":6553,"ceÄŁi":6554,"ĠyÄ±llardÄ±r":6555,"we":6556,"ĠuygulamalarÄ±":6557,"ketbol":6558,"ĠhalkÄ±":6559,"Ġolabilirsiniz":6560,"Ġsporcu":6561,"On":6562,"dun":6563,"lÄ±ca":6564,"ĠAfrika":6565,"Ġmesle":6566,"__":6567,"ĠBoÄŁ":6568,"ÃľRK":6569,"ider":6570,"Ã§isi":6571,"ĠÃ§ekici":6572,"Ġtok":6573,"ÅŁtÄ±r":6574,"ĠkÄ±sÄ±t":6575,"Ġistis":6576,"Ġtarihinden":6577,"memesi":6578,"Ġihtimal":6579,"ĠÃ¼creti":6580,"ĠinanÃ§":6581,"ĠGerÃ§ek":6582,"Ġmeyve":6583,"Ġavukat":6584,"ĠEskiÅŁehir":6585,"Ġmuay":6586,"ĠÃ¼rÃ¼nlerin":6587,"ĠyÃ¶nel":6588,"fik":6589,"ĠnumaralÄ±":6590,"Ġtutul":6591,"balaj":6592,"ug":6593,".'":6594,"Ġbina":6595,"ĠTut":6596,"Ġdenir":6597,"ĠAnn":6598,"OT":6599,"larÄ±mÄ±":6600,"ĠMadde":6601,"ĠaltÄ±nÄ±":6602,"Tar":6603,"Ġyetenek":6604,"ĠEge":6605,"ĠolmamasÄ±":6606,"Ġ2000":6607,"ding":6608,"ĠYÃ¼r":6609,"ĠSekret":6610,"ilerle":6611,"Ã©":6612,"ĠEvet":6613,"ĠteÅŁekkÃ¼rler":6614,"yken":6615,"37":6616,"YÄ±l":6617,"uyum":6618,"ĠyaptÄ±ÄŁÄ±mÄ±z":6619,"Ġtipi":6620,"Ä±yorsanÄ±z":6621,"estivali":6622,"ĠdeÄŁildi":6623,"ĠbÃ¼yÃ¼me":6624,"ĠhariÃ§":6625,"des":6626,"ĠseÃ§enekleri":6627,"ĠcÃ¼ml":6628,"ĠsÄ±fÄ±r":6629,"ĠiPhone":6630,"ĠatÄ±k":6631,"ĠMez":6632,"umuzun":6633,"Ad":6634,"ĠGaziantep":6635,"ĠRad":6636,"Ġekmek":6637,"nuv":6638,"ĠdÃ¶":6639,"ĠkÃ¢":6640,"ife":6641,"Ġkarma":6642,"Ġiman":6643,"laÃ§":6644,"Ġgelmesi":6645,"Ġkilit":6646,"199":6647,"ĠterÃ¶rist":6648,"AC":6649,"ĠÃĩift":6650,"Ġsinema":6651,"Ġyolculuk":6652,"ates":6653,"ĠdÃ¼ÄŁÃ¼n":6654,"era":6655,"iplin":6656,"diy":6657,"Ġcami":6658,"ĠalmasÄ±":6659,"ĠsÃ¶zÃ¼":6660,"Ġharf":6661,"ĠMÃ¼zik":6662,"ãģĤãģĤãģĤãģĤãģĤãģĤãģĤãģĤ":6663,"ĠEb":6664,"ĠanÄ±":6665,"Ġmuhtem":6666,"Ġsebeple":6667,"ĠbaÅŁÄ±":6668,"ÅŁamba":6669,"Ġdernek":6670,"ĠDon":6671,"II":6672,"Ġtazmin":6673,"uÄŁla":6674,"Ġedilerek":6675,"Ġtopr":6676,"Ġalabilir":6677,"Ġ55":6678,"ĠyÄ±lÄ±nÄ±n":6679,"ĠdonanÄ±m":6680,"ĠBayan":6681,"Ã¼kle":6682,"ilerde":6683,"Sev":6684,"Ġyeten":6685,"uncu":6686,"ĠKuvvet":6687,"ĠaÅŁama":6688,"Ġgelince":6689,"mu":6690,"alog":6691,"ĠBÃ¶lgesi":6692,"ette":6693,"Ġbizlere":6694,"riyet":6695,"ĠDep":6696,"ĠSarÄ±":6697,"LÄ°":6698,"Ġhayatta":6699,"ĠTasarÄ±m":6700,"Ġmini":6701,"Ġkelime":6702,"tifak":6703,"ĠtÃ¼ketim":6704,"Ġuygulanan":6705,"paz":6706,"Ġprojeler":6707,"olat":6708,"ĠYÃ¶netmeli":6709,"ĠÃ§ey":6710,"BÃ¼yÃ¼k":6711,"Ì§":6712,"ava":6713,"anlarÄ±n":6714,"ĠgeldiÄŁini":6715,"ĠYusuf":6716,"ĠYatÄ±rÄ±m":6717,"ĠaÄŁÄ±z":6718,"ĠEnerji":6719,"ĠÅŁahÄ±s":6720,"ĠTesis":6721,"larken":6722,"ĠApple":6723,"Ġsa":6724,"LERÄ°":6725,"ĠsÃ¼per":6726,"laÅŁtÄ±ÄŁ":6727,"ebilen":6728,"Ġ48":6729,"ĠadamÄ±":6730,"ĠToplum":6731,"Ġ150":6732,"ĠdÃ¼k":6733,"ĠYapÄ±":6734,"Ġfelsef":6735,"ĠsÄ±rt":6736,"ĠbulunmasÄ±":6737,"ÃĸÄŁr":6738,"Ġtemas":6739,"Ġmir":6740,"ayas":6741,"larÄ±nÄ±za":6742,"ĠsÄ±z":6743,"LU":6744,"Ġsavunma":6745,"Ġselam":6746,"Ġmuhaf":6747,"Ġgelmektedir":6748,"Åŀu":6749,"ĠdayanÄ±klÄ±":6750,"ĠazÄ±ndan":6751,"Ġmakyaj":6752,"ĠTemel":6753,"ĠgÃ¼zellik":6754,"latma":6755,"DoÄŁ":6756,"ĠgÃ¶stermektedir":6757,"bank":6758,"ĠĠĠĠ":6759,"ĠBunlarÄ±n":6760,"ĠFotoÄŁraf":6761,"ĠgÃ¼nah":6762,"ĠbÄ±":6763,"66":6764,"Ġsizlerle":6765,"ĠdeÄŁerlendirme":6766,"ĠAda":6767,"Ġsunum":6768,"Ġhusus":6769,"menizi":6770,"Ġantren":6771,"ĠMahkemesi":6772,"lemiÅŁ":6773,"Ġkendinizi":6774,"mara":6775,"ĠÃ§alÄ±ÅŁÄ±r":6776,"leyecek":6777,"ĠDÄ±ÅŁiÅŁleri":6778,"ĠÃ¼retilen":6779,"ĠTal":6780,"Ġtaraftan":6781,"ĠgÃ¶zÃ¼k":6782,"Ġevlen":6783,"ĠAdam":6784,"ĠhaklÄ±":6785,"Ä±d":6786,"ĠsÃ¼n":6787,"ĠÄ°ÅŁlem":6788,"unuzun":6789,"ĠKÃ¼t":6790,"ende":6791,"Ġlog":6792,"slan":6793,"ĠAile":6794,"ĠsÃ¶zleÅŁme":6795,"ĠyapÄ±lmaktadÄ±r":6796,"Ancak":6797,"Ġhavuz":6798,"ĠMeclisi":6799,"Ġzinc":6800,"ĠSatÄ±ÅŁ":6801,"ĠkaydÄ±":6802,"ĠKaf":6803,"Ġsaatlerinde":6804,"acÄ±k":6805,"Ġbeslenme":6806,"ĠCon":6807,"lÃ½":6808,"IS":6809,"Ġolamaz":6810,"ĠgÃ¶rdÃ¼m":6811,"ĠmÃ¼n":6812,"Ġhasar":6813,"Ãĸnc":6814,"Ġmeclis":6815,"Ġpetrol":6816,"Ġkeyf":6817,"Hal":6818,"Ġmali":6819,"ĠbÃ¶yl":6820,"pa":6821,"Ġkamera":6822,"rimenkul":6823,"oun":6824,"Ġcenaz":6825,"ĠsunmaktadÄ±r":6826,"ĠrahatlÄ±kla":6827,"Ġhediy":6828,"Ġinc":6829,"ĠDÃ¶nem":6830,"lanarak":6831,"unuza":6832,"ĠKarÅŁ":6833,"umhuriyet":6834,"leket":6835,"ĠVol":6836,"ĠbaÅŁladÄ±m":6837,"avi":6838,"Ġmasraf":6839,"ĠoluÅŁur":6840,"abilmektedir":6841,"ĠyukarÄ±da":6842,"ĠRek":6843,"ÅŁembe":6844,"ĠplanÄ±":6845,"ĠakÄ±ÅŁ":6846,"ĠyÃ¶netmen":6847,"Ġmedyum":6848,"Ġsessiz":6849,"ĠKaÃ§":6850,"sh":6851,"ĠÄ°t":6852,"ĠbaktÄ±ÄŁ":6853,"Ġfet":6854,"ĠsatÄ±ÅŁa":6855,"ĠHik":6856,"ĠulaÅŁmak":6857,"ĠÄ°talya":6858,"iyetini":6859,"Ä°Ã§":6860,"ĠGÃ¶rÃ¼n":6861,"gÃ¼t":6862,"ĠbaÄŁÄ±mlÄ±":6863,"ĠyÃ¶nde":6864,"ebilm":6865,"ĠanlattÄ±":6866,"azen":6867,"Ġolmaktan":6868,"Ġemekli":6869,"Ey":6870,"ĠAvust":6871,"Ġharekete":6872,"ĠiyileÅŁtir":6873,"lup":6874,"ĠiÅŁyer":6875,"orun":6876,"abilmesi":6877,"Ġmaalesef":6878,"ĠÃ¼stÃ¼":6879,"2013":6880,"Ġarayan":6881,"Ġsigara":6882,"ĠÃ¶ÄŁrencileri":6883,"Ùİ":6884,"ĠKarab":6885,"Ġprim":6886,"doÄŁ":6887,"Ġdili":6888,"LE":6889,"Ġmezar":6890,"Ġnem":6891,"Ã¼lÃ¼r":6892,"Ġverici":6893,"ĠiÃ§inden":6894,"Ġrengi":6895,"ĠÃ¶zgÃ¼rlÃ¼k":6896,"ĠTabi":6897,"Ġmakinesi":6898,"ĠyaratÄ±cÄ±":6899,"Ġayda":6900,"sis":6901,"uÅŁturucu":6902,"Â»":6903,"Ä°H":6904,"Ġkaybol":6905,"46":6906,"ĠGÄ±da":6907,"ĠyÄ±llarÄ±":6908,"Ġmor":6909,"GÃ¶r":6910,"ĠTeknoloji":6911,"alel":6912,"ester":6913,"tih":6914,"Ġbonus":6915,"Ġettiler":6916,"ÅŁe":6917,"oper":6918,"Ġsendik":6919,"ulmaz":6920,"ĠÃ§ekim":6921,"ĠsÄ±kÄ±":6922,"tesi":6923,"idi":6924,"ĠgÃ¶rÃ¼yoruz":6925,"ĠaÃ§ma":6926,"ĠÄ°sv":6927,"Ġvurgula":6928,"kun":6929,"Ġdosya":6930,"Genel":6931,"Ġ38":6932,"Ġhaberleri":6933,"Ġyumurta":6934,"ĠMesel":6935,"Ġvade":6936,"Ãĥ":6937,"ĠkaÃ§ak":6938,"ĠÃ§ekiyor":6939,"lukla":6940,"Ġmalzemeleri":6941,"indistan":6942,"mini":6943,"Ġturist":6944,"irin":6945,"amuk":6946,"Ġyur":6947,"bahar":6948,"48":6949,"ĠPas":6950,"ĠkiralÄ±k":6951,"ĠhÃ¼km":6952,"Ġmilletvekili":6953,"GS":6954,"TR":6955,"ĠFen":6956,"ĠoluÅŁturan":6957,"Ġparlak":6958,"kul":6959,"ĠÃ§alÄ±ÅŁmaya":6960,"ĠVali":6961,"ĠHÄ±r":6962,"ukur":6963,"ĠHotel":6964,"daroÄŁlu":6965,"Ġ65":6966,"ĠBayramÄ±":6967,"beri":6968,"ĠSez":6969,"ĠRapor":6970,"ĠSun":6971,"Ġbuldu":6972,"ĠkarÅŁÄ±mÄ±za":6973,"ĠZira":6974,"ĠarasÄ±ndan":6975,"Ġkahve":6976,"priz":6977,"Ġbileti":6978,"Ġodas":6979,"ĠÅŁeyleri":6980,"ĠgeÃ§iyor":6981,"Ġ05":6982,"Ġoyunun":6983,"ĠvasÄ±":6984,"ĠSivas":6985,"ĠOto":6986,"ĠrÃ¶":6987,"ĠResmi":6988,"ĠÃ§ocuÄŁu":6989,"ĠOysa":6990,"Ġmavi":6991,"ĠNaz":6992,"tematik":6993,"ĠTrump":6994,"Ġversiyon":6995,"ĠbirÅŁey":6996,"ĠFilistin":6997,"ĠÄ°mam":6998,"ĠProje":6999,"Ġalama":7000,"medik":7001,"?\"":7002,"ĠsÃ¼recinde":7003,"Ġderi":7004,"itika":7005,"isindeki":7006,"ĠfÄ±kr":7007,"ĠiÅŁletme":7008,"ayÄ±t":7009,"Evet":7010,"LAN":7011,"ĠKen":7012,"zan":7013,"ĠDaÄŁ":7014,"ĠmaÃ§Ä±nda":7015,"Ġemniyet":7016,"abi":7017,"ĠolayÄ±":7018,"larÄ±nÄ±zÄ±n":7019,"Ġanti":7020,"Ġpen":7021,"Ġbeklenen":7022,"Ġtev":7023,"raz":7024,"ĠÃ§ik":7025,"laj":7026,"laya":7027,"ĠyapmasÄ±":7028,"ĠTanrÄ±":7029,"emem":7030,"uÅŁu":7031,"ĠEdebiyat":7032,"esir":7033,"Ġbisiklet":7034,"ĠyapÄ±yoruz":7035,"YA":7036,"lerinize":7037,"ĠsÃ¶ylemek":7038,"kiralama":7039,"Ġderken":7040,"ĠHÄ±z":7041,"ĠsoruÅŁturma":7042,"ĠMaÃ§":7043,"ĠulaÅŁtÄ±":7044,"ĠkazandÄ±":7045,"Ġmikro":7046,"zem":7047,"Ġvah":7048,"ox":7049,"Ġlan":7050,"Ġsilin":7051,"San":7052,"ĠToplam":7053,"lerdeki":7054,"ĠdÃ¶viz":7055,"CHP":7056,"ĠHes":7057,"ĠattÄ±":7058,"ĠolduÄŁunda":7059,"ĠtaÅŁÄ±mak":7060,"ĠDar":7061,"ERS":7062,"ĠolmalarÄ±":7063,"Kay":7064,"ĠMakin":7065,"ĠKarak":7066,"Ġhekim":7067,"Ġyaprak":7068,"ĠLisans":7069,"Ä±bbi":7070,"ĠTÃľ":7071,"ĠKomisyonu":7072,"ĠnumarasÄ±":7073,"anlÄ±ur":7074,"ĠPerson":7075,"ayol":7076,"Ġihal":7077,"UK":7078,"ĠdÃ¼zenlediÄŁi":7079,"Ġmontaj":7080,"Ġalana":7081,"Ġsanay":7082,"LARI":7083,"Ã¶ly":7084,"Ġsaatleri":7085,"ĠDE":7086,"aa":7087,"Ġdeprem":7088,"Ġyerleri":7089,"ĠServis":7090,"ĠiletiÅŁime":7091,"ĠKupasÄ±":7092,"ĠâĢ¢":7093,"Ġteor":7094,"Ġmerkezinde":7095,"ĠimkÃ¢n":7096,"ĠdÃ¼ÅŁÃ¼ÅŁ":7097,"ektif":7098,"ĠÃ¶mr":7099,"ĠAT":7100,"Ġkons":7101,"ĠalÄ±cÄ±":7102,"cÄ±nÄ±n":7103,"Ġolmasa":7104,"ee":7105,"ĠarasÄ±na":7106,"itif":7107,"melerini":7108,"denin":7109,"ĠFederasyonu":7110,"Ġsonsuz":7111,"ĠYarÄ±ÅŁ":7112,"ĠPolis":7113,"ji":7114,"Ġdi":7115,"ĠâĢĻ":7116,"Ã¼yorum":7117,"aÄŁÄ±na":7118,"ĠmiktarÄ±":7119,"ĠbÃ¶lÃ¼n":7120,"Ġkaybetti":7121,"Ġinceleme":7122,"Ġveriler":7123,"Ġsisteminin":7124,"th":7125,"Ġaraz":7126,"Ġbakan":7127,"Ġgelerek":7128,"ĠkarÅŁÄ±n":7129,"Ġistedim":7130,"ĠPan":7131,"Ġkargo":7132,"ĠyumuÅŁak":7133,"Ġolama":7134,"Ġikram":7135,"ĠPet":7136,"ĠdÃ¼zenleme":7137,"ĠÃ¶nemi":7138,"Ġmasa":7139,"ĠCaddesi":7140,"----":7141,"Ġbanyo":7142,"ĠSonr":7143,"ĠYunanistan":7144,"imizle":7145,"ĠFik":7146,"Ġfuar":7147,"duktan":7148,"ĠBet":7149,"Ġakr":7150,"IZ":7151,"Ġtoh":7152,"ĠmantÄ±k":7153,"ĠkaÅŁÄ±":7154,"ĠilÃ§esi":7155,"ĠÄ°b":7156,"ĠdÃ¼r":7157,"ecik":7158,"ĠilanÄ±":7159,"ĠkÃ¼Ã§":7160,"BaÅŁk":7161,"ĠgÃ¶ÄŁÃ¼s":7162,"Ġmilletvekil":7163,"ĠNec":7164,"ĠBaÅŁbak":7165,"cÃ¼k":7166,"Ġbelge":7167,"ĠgelmiÅŁtir":7168,"ĠÅŁekli":7169,"manÄ±za":7170,"ĠHakan":7171,"tikten":7172,"Ġbitki":7173,"Ġkariyer":7174,"ĠsunduÄŁu":7175,"daÄŁÄ±":7176,"ĠÃ¼rÃ¼nÃ¼n":7177,"eleriyle":7178,"ĠStan":7179,"Ġpotansiyel":7180,"iyaret":7181,"ĠÅŁÃ¼k":7182,"Ġtepk":7183,"Ġsayg":7184,"ĠTÃ¼r":7185,"Ġ09":7186,"mad":7187,"Ġimzalan":7188,"Ġnih":7189,"andev":7190,"ĠolmanÄ±n":7191,"Ġgaranti":7192,"ĠÃ¼yelik":7193,"ĠGÃ¼Ã§":7194,"ĠKÃ¶yÃ¼":7195,"ĠðŁĻ":7196,"ĠTeb":7197,"LÃľ":7198,"ĠBÃ¼l":7199,"ãĥ":7200,"ĠCumartesi":7201,"Ul":7202,"ĠBaÅŁkanlÄ±ÄŁ":7203,"ĠseÃ§imi":7204,"Ġtamir":7205,"ĠKes":7206,"mesinden":7207,"Ġhalka":7208,"ĠÃ¶rt":7209,"ebil":7210,"Ġoranda":7211,"At":7212,"desi":7213,"Ġhatt":7214,"ĠfirmalarÄ±":7215,"ĠyapmayÄ±":7216,"ĠAÅŁaÄŁÄ±":7217,"Ġkodu":7218,"Ãľlk":7219,"ĠHemen":7220,"lamayÄ±":7221,"ÄŁimizi":7222,"ĠaylarÄ±nda":7223,"Ã¼nce":7224,"ĠSiyas":7225,"Ġisterim":7226,"ilmelidir":7227,"ĠkatÄ±ldÄ±ÄŁÄ±":7228,"47":7229,"ĠedeceÄŁiz":7230,"ĠkahvaltÄ±":7231,"ĠSaÃ§":7232,"ĠalgÄ±":7233,"Ġdenem":7234,"uvalet":7235,"ĠkeÅŁf":7236,"Ġbeslen":7237,"ĠPay":7238,"ĠTakÄ±m":7239,"Ġsever":7240,"liyat":7241,"ĠÅŁehrin":7242,"eceÄŁim":7243,"lanmaktadÄ±r":7244,"Ġyel":7245,"ĠLim":7246,"ole":7247,"ĠKocaeli":7248,"ĠKontrol":7249,"Ġettikleri":7250,"ĠUzman":7251,"Ġ37":7252,"Ġdans":7253,"Ġmuk":7254,"Ġ400":7255,"ÅŁi":7256,"Ä°ST":7257,"ĠÅŁifr":7258,"lob":7259,"ĠsÃ¶":7260,"abiliriz":7261,"ĠModel":7262,"uyordu":7263,"umuzu":7264,"Ġpencer":7265,"Ġbekleniyor":7266,"ill":7267,"bÃ¼s":7268,"Ġkemik":7269,"Ġtl":7270,"Ġonunla":7271,"api":7272,"ĠfÄ±rsatÄ±":7273,"ĠadÄ±yla":7274,"Ah":7275,"Ġdua":7276,"ĠEtkin":7277,"vin":7278,"ĠTanÄ±":7279,"ive":7280,"Ġsitesinde":7281,"ĠdeÄŁiÅŁikliÄŁi":7282,"ĠÄ±ÅŁÄ±ÄŁ":7283,"ĠSÄ±":7284,"ĠÄ°ndir":7285,"Ġ75":7286,"SaÄŁ":7287,"ĠPsik":7288,"Ġalkol":7289,"iner":7290,"Ġdemokratik":7291,"Ġente":7292,"Ġniteli":7293,"ĠduyarlÄ±":7294,"Ġsaati":7295,"ĠMimar":7296,"ĠDuy":7297,"Ġ$":7298,"Ġves":7299,"gari":7300,"ĠhakkÄ±nÄ±":7301,"unlar":7302,"OP":7303,"Ġtarifi":7304,"ĠÃľstelik":7305,"ĠyÄ±la":7306,"Ġenfeksiyon":7307,"Ġsermaye":7308,"Ġsahne":7309,"ĠKayseri":7310,"Ã§ek":7311,"liyoruz":7312,"Ġverilecek":7313,"ĠBodrum":7314,"IÅŀ":7315,"ĠMe":7316,"Ġanlar":7317,"ĠkalÄ±p":7318,"ĠNet":7319,"Ġbilmiyorum":7320,"abilirler":7321,"Ġoyunlar":7322,"ndeki":7323,"ruk":7324,"ĠOku":7325,"ĠTBMM":7326,"Ġonur":7327,"espor":7328,"ĠsabÄ±r":7329,"ĠÃĸZ":7330,"ĠeÅŁliÄŁinde":7331,"Ä±lmak":7332,"Ġsitemiz":7333,"amÄ±zda":7334,"ĠTabii":7335,"ĠÃĸyle":7336,"Kal":7337,"Ġevet":7338,"ĠFestivali":7339,"ĠKÄ±sa":7340,"Ġolabilecek":7341,"Ġpsikolojik":7342,"ĠNer":7343,"Ġicra":7344,"tre":7345,"ĠKredi":7346,"Ġsunmak":7347,"ĠyÃ¼zlerce":7348,"ĠgÃ¶rdÃ¼":7349,"Ġdamar":7350,"Ġmevsim":7351,"ĠÅŁunu":7352,"ĠÃĩay":7353,"ĠaracÄ±n":7354,"ĠoluÅŁum":7355,"Ã¼yÃ¼":7356,"BÃ¶l":7357,"ĠarÅŁiv":7358,"AÅŁ":7359,"ĠÄ°r":7360,"ĠgeldiÄŁinde":7361,"Ġpazarlama":7362,"Ġvel":7363,"ezil":7364,"ĠMat":7365,"ĠGal":7366,"tip":7367,"lab":7368,"Ġ2006":7369,"Ġ196":7370,"Ġcerrah":7371,"ĠyaÄŁÄ±":7372,"ĠÅŁeye":7373,"ĠArdÄ±ndan":7374,"Ġkonuyu":7375,"ĠEc":7376,"lasman":7377,"Ġkalitesi":7378,"ĠarkadaÅŁÄ±":7379,"ĠÃ¶mÃ¼r":7380,"MS":7381,"Åŀimdi":7382,"leÅŁtirme":7383,"ĠEnstitÃ¼sÃ¼":7384,"Ġisteyenler":7385,"ĠbirliÄŁi":7386,"ĠAnayasa":7387,"Ġerkekler":7388,"ĠgÃ¶rÃ¼lÃ¼r":7389,"Ġetmez":7390,"has":7391,"yaspor":7392,"Ġpeygamber":7393,"udak":7394,"ĠhayatÄ±n":7395,"isar":7396,"ky":7397,"Ġmail":7398,"ĠkullanÄ±larak":7399,"aÄŁÄ±nÄ±n":7400,"Ġ2019":7401,"Ġidari":7402,"Ġgeb":7403,"Ã¼man":7404,"Ġtablet":7405,"Ġvatan":7406,"Ġevinde":7407,"ĠkaÅŁÄ±ÄŁÄ±":7408,"ĠDoktor":7409,"Ġetken":7410,"Ġec":7411,"ĠgÃ¶revl":7412,"Ġkurmak":7413,"Ġekipman":7414,"cÄ±larÄ±":7415,"utan":7416,"ĠkullanÄ±cÄ±lar":7417,"Ġgeride":7418,"ĠParis":7419,"ĠTwitter":7420,"Ġklima":7421,"ĠÄ°slÃ¢m":7422,"ME":7423,"ĠgÃ¶rÃ¼nce":7424,"akal":7425,"Ġsom":7426,"rosoft":7427,"Ġbulan":7428,"Ġsorular":7429,"ĠÄ±sÄ±t":7430,"Ġolaylar":7431,"emedi":7432,"Ä±yorsunuz":7433,"ĠOrt":7434,"linik":7435,"Ġseyret":7436,"ĠbaÅŁkanlÄ±ÄŁ":7437,"Ġsanal":7438,"Ã§Ä±lÄ±k":7439,"Ġbozul":7440,"imini":7441,"ĠGazete":7442,"Ġyasa":7443,"ĠSoru":7444,"Ð¾Ð":7445,"ĠÄ°le":7446,"Ġzirv":7447,"Ġakademik":7448,"Ġval":7449,"Ġkaza":7450,"cÃ¼sÃ¼":7451,"ĠÅŁartlarÄ±":7452,"ĠkararlÄ±":7453,"Ġbunlara":7454,"ĠTok":7455,"ĠgeniÅŁlet":7456,"ĠYav":7457,"ĠÄ°lÃ§":7458,"Ġtehlikeli":7459,"Ġbahar":7460,"AÄŀ":7461,"ĠÃ¶ÄŁrencilere":7462,"ikalÄ±":7463,"ÙĦ":7464,"Ãľn":7465,"ĠahÅŁap":7466,"eÄŁine":7467,"Ã¼phan":7468,"ĠalmÄ±ÅŁtÄ±r":7469,"rist":7470,"Ġbilgilere":7471,"ĠdÄ±ÅŁÄ±na":7472,"ĠÃ¼s":7473,"Ġengelli":7474,"ĠDaire":7475,"ĠkÃ¶p":7476,"ĠKuÅŁ":7477,"ĠkaranlÄ±k":7478,"Ġseviyorum":7479,"ĠcanlandÄ±r":7480,"ĠmaÃ§ta":7481,"Ġdoku":7482,"Ġhitap":7483,"ĠbakÄ±n":7484,"ĠbaÅŁlama":7485,"Ġgrafik":7486,"leyece":7487,"Ġprotokol":7488,"ĠØ":7489,"ĠErzurum":7490,"ĠkiÅŁiyi":7491,"Ġmuhalef":7492,"amaÅŁ":7493,"Ä°zmir":7494,"anta":7495,"ãĤ":7496,"suzluk":7497,"ĠBununla":7498,"dÄ±ÅŁÄ±":7499,"ĠÃ¶zet":7500,"ĠOp":7501,"ĠÃ§eÅŁ":7502,"emeyece":7503,"obot":7504,"ĠOlay":7505,"laÅŁtÄ±rma":7506,"anlÄ±urfa":7507,"Ġverdim":7508,"gÃ¼l":7509,"lÄ±lar":7510,"Ġarzu":7511,"ĠkÄ±rÄ±k":7512,"Ġegemen":7513,"Ġinf":7514,"dil":7515,"Ġedici":7516,"ĠKral":7517,"ĠiÅŁlemler":7518,"ĠkayÄ±tlÄ±":7519,"ĠhatÄ±rla":7520,"ĠalÄ±rken":7521,"ĠPiyas":7522,"ĠtÃ¶r":7523,"ĠTeknoloj":7524,"ĠnÃ¶":7525,"diven":7526,"Ġahlak":7527,"Ġsesi":7528,"ebilmesi":7529,"ĠÅŁair":7530,"ledim":7531,"ĠÃ§izgi":7532,"Ġris":7533,"leyip":7534,"Ġpeyn":7535,"ĠOrtak":7536,"ĠuyarÄ±nca":7537,"iraat":7538,"ĠVide":7539,"ĠaldÄ±k":7540,"Ġmekaniz":7541,"yaz":7542,"ĠgÃ¶revlendir":7543,"ĠÃĸzgÃ¼r":7544,"Ġirade":7545,"ĠkullanÄ±lmaktadÄ±r":7546,"Ġeklem":7547,"dÃ¶n":7548,"AF":7549,"Ä±nd":7550,"ĠiÅŁletim":7551,"ĠgÃ¶rdÃ¼ÄŁÃ¼":7552,"ĠtanÄ±k":7553,"Ä±ÅŁlÄ±":7554,"Ġ!":7555,"ĠOda":7556,"ĠÃ§Ä±karÄ±":7557,"emiyor":7558,"Ġkutu":7559,"maat":7560,"ĠsayÄ±sÄ±nÄ±n":7561,"Tr":7562,"Ġtay":7563,"ĠEmek":7564,"dÄ±rma":7565,"amÄ±n":7566,"layÄ±nÄ±z":7567,"ĠolmuÅŁtu":7568,"ĠTaraf":7569,"ĠNev":7570,"ĠgetirdiÄŁi":7571,"YaÅŁ":7572,"Ã¼rriyet":7573,"ebileceÄŁi":7574,"Ã§Ä±n":7575,"ĠÃ§alÄ±ÅŁmalarÄ±na":7576,"Ġizlem":7577,"lerimi":7578,"biy":7579,"ach":7580,"Ġetmeyi":7581,"ph":7582,"Ġilah":7583,"sever":7584,"leniyor":7585,"Ġkoleksiyon":7586,"Ġdaire":7587,"kas":7588,"igiturk":7589,"Yar":7590,"Ġdiyorum":7591,"lanabilir":7592,"Ä±lav":7593,"Ġplana":7594,"Ġnesn":7595,"ĠÃ¶lÃ¼":7596,"Ġdurumun":7597,"abak":7598,"ĠanlamlÄ±":7599,"2012":7600,"ĠMaÄŁ":7601,"led":7602,"Ġailen":7603,"Ġkonular":7604,"Ġsevgili":7605,"ĠvatandaÅŁlar":7606,"Ġvizyon":7607,"ĠkatkÄ±da":7608,"Madde":7609,"Bunun":7610,"ĠdÃ¼ÅŁÃ¼nÃ¼r":7611,"Ġbildirdi":7612,"ĠOrhan":7613,"ĠsaÄŁlanmasÄ±":7614,"ĠÃ¶ÄŁrenmek":7615,"yurt":7616,"ĠÃĸrgÃ¼t":7617,"Ã»l":7618,"ĠÃĩÃ¶z":7619,"Ġyorgun":7620,"liÄŁiyle":7621,"posta":7622,"Ġaktivit":7623,"stil":7624,"lÄ±ktan":7625,"ĠHanÄ±m":7626,"ĠsÃ¼rÃ¼yor":7627,"Ġno":7628,"epe":7629,"Dr":7630,"ondra":7631,"ĠÃ§ekir":7632,"49":7633,"Ġmit":7634,"Ġkategorisinde":7635,"ĠAÄŁÄ±r":7636,".(":7637,"Ġgib":7638,"ĠAÅŁk":7639,"eceÄŁiniz":7640,"ĠAkadem":7641,"ĠzararlÄ±":7642,"ĠkÃ¶r":7643,"ĠKaymakam":7644,"ld":7645,"Ġbenden":7646,"xy":7647,"Ġmanevi":7648,"Ġbirine":7649,"ĠbileÅŁ":7650,"ĠRenk":7651,"aÄŁÄ±nda":7652,"Ġelbis":7653,"ĠkalabalÄ±k":7654,"Ġprens":7655,"Ġbacak":7656,"ĠTav":7657,"Ġkalacak":7658,"tral":7659,"ĠsÄ±nÄ±rlarÄ±":7660,"ĠgÃ¶zden":7661,"ĠsÃ¼rpriz":7662,"ĠbÃ¶lgeye":7663,"ĠsektÃ¶rÃ¼":7664,"Ġtescil":7665,"Ġseri":7666,"lamalÄ±":7667,"ĠgeliÅŁen":7668,"ĠnoktasÄ±nda":7669,"ĠgerÃ§ekleÅŁti":7670,"Avrupa":7671,"ĠsatÄ±ÅŁÄ±":7672,"ebilmektedir":7673,"onik":7674,"ĠMÃ¼cad":7675,"ĠHey":7676,"gÄ±t":7677,"ight":7678,"ĠverilmiÅŁtir":7679,"Ġdenilen":7680,"Ġyuvar":7681,"ĠBana":7682,"ura":7683,"ĠdoÄŁan":7684,"Ġ33":7685,"Ġmasaj":7686,"ĠaraÃ§larÄ±":7687,"ĠbaÅŁladÄ±ÄŁÄ±":7688,"Ġbulur":7689,"ĠgÃ¼nleri":7690,"ĠmÃ¼lk":7691,"Ä£":7692,"ĠÃ¶rneÄŁi":7693,"Ġgereksin":7694,"oru":7695,"Ġaksine":7696,"Ġ01":7697,"ĠgÃ¶stermek":7698,"tÄ±ktan":7699,"ektaÅŁ":7700,"ĠkaybÄ±":7701,"ĠEmre":7702,"ĠTiyatro":7703,"artman":7704,"Ġkoordin":7705,"Ġokumak":7706,"lit":7707,"Ġevren":7708,"use":7709,"ĠDoÄŁal":7710,"bas":7711,"ĠDoÄŁru":7712,"ĠkÄ±yas":7713,"ĠKarÅŁÄ±":7714,"ĠRoman":7715,"Ġ250":7716,"ĠAdalet":7717,"ĠÅŀim":7718,"ĠLa":7719,"ĠÅŁehri":7720,"ĠarkasÄ±nda":7721,"ĠRoma":7722,"ASI":7723,"Ġefsan":7724,"Ġailesi":7725,"TK":7726,"dÄ±nÄ±z":7727,"yasÄ±":7728,"Ġetkiley":7729,"Ġkamyon":7730,"Ġsembol":7731,"Ġlek":7732,"lon":7733,"Ġenflasyon":7734,"laÅŁmasÄ±":7735,"ĠÅŀehit":7736,"esince":7737,"Ġinsana":7738,"Ã¼ya":7739,"ĠðŁĻĤ":7740,"ĠÄ±n":7741,"ĠdÃ¶nemin":7742,"Ġikin":7743,"ĠÃĩarÅŁamba":7744,"ĠpahalÄ±":7745,"Ġhaftada":7746,"Ve":7747,"ĠaÃ§an":7748,"ĠMetin":7749,"ste":7750,"Ġyah":7751,"ĠlÃ¼ks":7752,"otiv":7753,"Ġnez":7754,"Ġhorm":7755,"Bah":7756,"ĠyapÄ±labilir":7757,"ijinal":7758,"Bey":7759,"ĠÄ±rk":7760,"Ġbeklet":7761,"hab":7762,"ĠalanÄ±na":7763,"Ġlideri":7764,"Ġmater":7765,"Ġistatistik":7766,"mec":7767,"ĠÃĩak":7768,"ĠkÄ±smÄ±nda":7769,"iÅŁe":7770,"kenti":7771,"ĠeÅŁlik":7772,"Ġaksesuar":7773,"ĠsÃ¶zler":7774,"Ġtalimat":7775,"Yak":7776,"lÄ±yoruz":7777,"gresi":7778,"Ġdekorasyon":7779,"ĠÃ¼lkelerin":7780,"ĠYork":7781,"Ġannesi":7782,"avuÅŁ":7783,"ĠBahÃ§eli":7784,"Ġolmuyor":7785,"name":7786,"Ġeleman":7787,"ĠyÃ¼rÃ¼rlÃ¼ÄŁe":7788,"imet":7789,"Ġkoruy":7790,"ĠBarÄ±ÅŁ":7791,"ĠprogramlarÄ±":7792,"ĠyapÄ±lmÄ±ÅŁtÄ±r":7793,"Ġolmakla":7794,"ĠÃĸÄŁrenci":7795,"ĠbÃ¼yÃ¼y":7796,"Ġcesaret":7797,"Ġfinansal":7798,"ĠÃ§Ä±kmasÄ±":7799,"Ä±lmaya":7800,"Ġhip":7801,"ĠdoÄŁa":7802,"maÄŁ":7803,"ĠÅŁirketin":7804,"Ġkarbon":7805,"ĠalakalÄ±":7806,"ĠhemÅŁ":7807,"Ġriv":7808,"ĠPazartesi":7809,"Ġdevreye":7810,"Ġekonomi":7811,"Ġkamuoy":7812,"str":7813,"amÄ±nÄ±":7814,"Ġhizmetler":7815,"Ġbiliyorum":7816,"Ġistenen":7817,"Ġasit":7818,"ĠYazar":7819,"ome":7820,"Ġbekleyen":7821,"Ã¢l":7822,"ĠdeÄŁilim":7823,"Ġtutum":7824,"ĠsÃ¼rÃ¼m":7825,"ĠtarafÄ±nda":7826,"ĠTemsil":7827,"ĠettiÄŁiniz":7828,"Ġtedarik":7829,"ĠKÄ±lÄ±Ã§daroÄŁlu":7830,"ĠkÄ±smÄ±nÄ±":7831,"ĠÃ§atÄ±":7832,"ĠdÃ¶nemlerde":7833,"Ġokum":7834,"Ġvefat":7835,"ĠÃ§Ä±kÄ±p":7836,"Ġhaberi":7837,"ĠyÄ±lÄ±na":7838,"ĠKaya":7839,"ĠDairesi":7840,"ĠdeÄŁerleri":7841,"Ġkilometre":7842,"Ġimar":7843,"Ġkurban":7844,"Ġdelil":7845,"ĠbÃ¼yÃ¼t":7846,"ERÄ°":7847,"Ġnumara":7848,"itasyon":7849,"Ġkanat":7850,"ĠgÃ¶rÃ¼lmektedir":7851,"ĠÃ§Ä±ktÄ±ÄŁÄ±":7852,"ĠsorularÄ±":7853,"gini":7854,"ĠÃ§or":7855,"ĠkiÅŁilere":7856,"ĠMotor":7857,"ĠBakÄ±m":7858,"ĠDek":7859,"Ġradyo":7860,"ĠrahatsÄ±zlÄ±k":7861,"Ġestetik":7862,"Ġihale":7863,"ĠaÅŁkÄ±n":7864,"Ġfestival":7865,"âĢĻâĢĻ":7866,"ĠGÃ¶ster":7867,"Ġzamanla":7868,"Ġbizimle":7869,"yim":7870,"ĠyaÅŁÄ±yor":7871,"ĠbuluÅŁtur":7872,"ĠÃĸnce":7873,"ĠSorum":7874,"Ġkalmak":7875,"ĠbaÄŁlam":7876,"Ġkaybeden":7877,"ĠSakarya":7878,"Ġbuton":7879,"Ġsof":7880,"oks":7881,"edeniyet":7882,"ĠOkulu":7883,"ĠkullanÄ±lab":7884,"ĠGelen":7885,"ĠgeliÅŁme":7886,"Ġteker":7887,"esto":7888,"ĠNot":7889,"ĠhayatÄ±na":7890,"ĠaÃ§tÄ±":7891,"poz":7892,"ĠBM":7893,"ĠFinans":7894,"mes":7895,"Ġmahalle":7896,"ĠGiriÅŁ":7897,"Ġkafa":7898,"ĠHDP":7899,"Ġayakta":7900,"kaya":7901,"talyan":7902,"Ġizlemek":7903,"ĠolduÄŁunun":7904,"gilizce":7905,"Ġkov":7906,"ayÄ±p":7907,"acaÄŁÄ±mÄ±z":7908,"Ġporno":7909,"top":7910,"SY":7911,"ĠgÃ¶sterdiÄŁi":7912,"Ġgram":7913,"ĠÃ¶ÄŁrenildi":7914,"simum":7915,"Ġduygusal":7916,"ĠÃĩiÃ§ek":7917,"Ġtebrik":7918,"elif":7919,"ĠtarzÄ±":7920,"ĠSoy":7921,"ĠIÅŁÄ±k":7922,"Ġoynanan":7923,"ĠÄ°Åŀ":7924,"ĠsÃ¼rÃ¼k":7925,"ĠYemek":7926,"Ġverg":7927,"Ġsahil":7928,"eyebilirsiniz":7929,"Ġpiyasaya":7930,"ĠayrÄ±ntÄ±lÄ±":7931,"Ġdiplo":7932,"ĠkontrolÃ¼":7933,"ĠalÄ±mÄ±":7934,"Ġiklim":7935,"lub":7936,"DP":7937,"ĠSayf":7938,"ĠÃ§apÄ±nda":7939,"ĠyaptÄ±ÄŁÄ±nÄ±":7940,"Ġdemokrasi":7941,"ĠdoÄŁur":7942,"ded":7943,"ĠKore":7944,"Ġbizzat":7945,"ĠdÃ¼zgÃ¼n":7946,"ĠyayÄ±mlanan":7947,"Ġ39":7948,"ĠdÄ±ÅŁÄ±ndaki":7949,"Ġ2005":7950,"Ġimalat":7951,"laÅŁtÄ±k":7952,"ĠaÃ§Ä±ÄŁ":7953,"Ġtaksit":7954,"Ġtavsiy":7955,"Ã¼yoruz":7956,"ĠaÃ§Ä±klamasÄ±":7957,"ĠYabancÄ±":7958,"Ġegzersiz":7959,"ĠKonu":7960,"Ġzul":7961,"ĠJandarma":7962,"Ġbiliyoruz":7963,"ĠbakalÄ±m":7964,"Ä°ÅŁte":7965,"ĠniÅŁ":7966,"ĠOper":7967,"Ġevine":7968,"Ġmim":7969,"Ġortada":7970,"ĠNit":7971,"ĠendÃ¼str":7972,"Ġmektup":7973,"Ġevin":7974,"ilt":7975,"Ġetkileri":7976,"lamalarÄ±":7977,"ĠkarÅŁÄ±lÄ±klÄ±":7978,"Ġzehir":7979,"ĠÃ§abuk":7980,"Ġkendisinin":7981,"Ä°C":7982,"cusu":7983,"Ġslog":7984,"ĠÄ°lgili":7985,"ĠaltÄ±ndaki":7986,"ĠbaÅŁarÄ±sÄ±z":7987,"ĠkapsamlÄ±":7988,"iyeli":7989,"Ġolsay":7990,"Ġmemleket":7991,"ĠKahraman":7992,"ail":7993,"ĠkaldÄ±ÄŁÄ±":7994,"tÄ±lÄ±":7995,"Ġtarihine":7996,"Ġseksi":7997,"Ġmaddesinin":7998,"ĠÃ§ocuklara":7999,"ĠkulÃ¼b":8000,"Ġkoku":8001,"Ñĸ":8002,"Ġkriter":8003,"ĠaÃ§Ä±kÃ§a":8004,"Ġkatk":8005,"Ġfilmin":8006,"Ġdevir":8007,"TA":8008,"Ġkrem":8009,"Ġbulab":8010,"endim":8011,"ĠaÃ§Ä±ldÄ±":8012,"ĠgÃ¶revini":8013,"Å¸":8014,"Ġtaze":8015,"Ġsunar":8016,"Ġetiket":8017,"ĠgÃ¶revli":8018,"Ġgiyim":8019,"ĠDergisi":8020,"Ġgeriye":8021,"Ġceph":8022,"ĠsÃ¶yler":8023,"Ġbr":8024,"gazi":8025,"Ġolgun":8026,"ĠsaÄŁlamaktadÄ±r":8027,"ĠsÃ¶n":8028,"Ġprotein":8029,"Ġgeldik":8030,"Ser":8031,"ĠÄ°lÃ§esi":8032,"lendiÄŁi":8033,"Ġkendileri":8034,"ĠGazetesi":8035,"ĠyargÄ±lan":8036,"Ã¼kleer":8037,"Ä°V":8038,"Ġplastik":8039,"ĠUÄŁur":8040,"ĠyÃ¼rÃ¼tÃ¼len":8041,"Kat":8042,"Ġyerlere":8043,"tadoÄŁu":8044,"ĠÃ§el":8045,"Ã§ilik":8046,"ĠdÃ¼zenlendi":8047,"Ã¼ÄŁÃ¼n":8048,"Ġbomb":8049,"Ġcinayet":8050,"ĠDiz":8051,"ĠanlatÄ±yor":8052,"ĠyolculuÄŁ":8053,"enize":8054,"Ġbizler":8055,"Benim":8056,"ĠtamamÄ±":8057,"ĠgeliÅŁtirme":8058,"Haber":8059,"Ġorganize":8060,"usundaki":8061,"ĠMin":8062,"Ġevi":8063,"pÄ±nar":8064,"Ġderg":8065,"ĠBebek":8066,"Ġraporu":8067,"ĠfarklÄ±lÄ±k":8068,"Ġbildirildi":8069,"Ġmakine":8070,"Ñĥ":8071,"ica":8072,"ĠsÄ±kÄ±n":8073,"198":8074,"UT":8075,"Ġkg":8076,"Ġ08":8077,"mÄ±yorum":8078,"ĠRuh":8079,"ĠPerÅŁembe":8080,"malÄ±yÄ±z":8081,"ĠKonseyi":8082,"ĠÃ§ekin":8083,"Ġverilmektedir":8084,"ĠbÃ¶lÃ¼mde":8085,"ĠHavalimanÄ±":8086,"ĠamaÃ§la":8087,"ĠdÃ¼zenlenecek":8088,"ĠmÃ¼h":8089,"ĠMÃ¼hendisliÄŁi":8090,"ĠinÅŁallah":8091,"ĠpaylaÅŁtÄ±":8092,"ĠNum":8093,"Ġbenimle":8094,"ĠSol":8095,"ĠoluÅŁturmak":8096,"ĠAle":8097,"malara":8098,"ĠYorum":8099,"ĠdÃ¶r":8100,"yeri":8101,"Ġteknolojik":8102,"hay":8103,"ĠÃ¶rgÃ¼tÃ¼n":8104,"Ġlik":8105,"Ġuzan":8106,"ps":8107,"ts":8108,"ĠpayÄ±":8109,"ĠverilmiÅŁ":8110,"Ġederler":8111,"Ġuydu":8112,"Ġset":8113,"lÃ¼lÃ¼k":8114,"ĠÃ¶dey":8115,"ĠyollarÄ±":8116,"ĠakÄ±m":8117,"ĠyemeÄŁi":8118,"larÄ±mÄ±zla":8119,"lediÄŁiniz":8120,"Ġkek":8121,"Ġrezervasyon":8122,"ash":8123,"Ġtef":8124,"ĠdeÄŁiÅŁen":8125,"kray":8126,"zerbay":8127,"je":8128,"kap":8129,"kili":8130,"ĠKonut":8131,"Ã¢lÃ¢":8132,"ĠUygula":8133,"ĠFarklÄ±":8134,"Ġevr":8135,"anÄ±p":8136,"Kul":8137,"mus":8138,"ĠKÄ±zÄ±l":8139,"ĠiÃ§ecek":8140,"ayolu":8141,"ĠFaz":8142,"ĠÃ§izg":8143,"Ġduruyor":8144,"ĠBaÅŁvuru":8145,"ĠhakkÄ±ndaki":8146,"ĠgÃ¶rÃ¼le":8147,"ĠPen":8148,"ĠarkadaÅŁlarÄ±":8149,"Ġparalel":8150,"ĠGÃ¶l":8151,"own":8152,"Ä±kÃ¶y":8153,"ĠhaÅŁ":8154,"ĠKayÄ±t":8155,"Ġ02":8156,"ĠEngel":8157,"Ġimal":8158,"resyon":8159,"Ġbekliyoruz":8160,"oid":8161,"ĠÅŁarj":8162,"izli":8163,"Ġvadeli":8164,"sÃ¼":8165,"ĠbatÄ±":8166,"IT":8167,"ĠAlÄ±":8168,"Rus":8169,"Ġkonuya":8170,"odu":8171,"ĠKer":8172,"ĠMik":8173,"dirne":8174,"umuza":8175,"ĠÙ":8176,"Ġblok":8177,"ĠAD":8178,"Ġbirinc":8179,"Ġkabil":8180,"eciler":8181,"Ġtamamla":8182,"Ä±mÄ±zdan":8183,"ĠyakÄ±t":8184,"Ġfen":8185,"Ġmide":8186,"ĠÃ¼zeri":8187,"ĠMarmara":8188,"ĠLev":8189,"ĠtarafÄ±":8190,"ĠER":8191,"andevu":8192,"Ã¼ÄŁÃ¼":8193,"Ġbulma":8194,"ĠHac":8195,"Ġliste":8196,"ks":8197,"Ġusta":8198,"ĠbaÅŁlamÄ±ÅŁtÄ±r":8199,"Ġbitti":8200,"ĠÃ¶zgÃ¼":8201,"luÄŁa":8202,"Ġsistemin":8203,"ĠAp":8204,"Ġ47":8205,"ĠAil":8206,"ĠDal":8207,"ĠMÃ¼zesi":8208,"ÃĸR":8209,"ĠeÄŁlence":8210,"nÃ¼":8211,"ÃĸN":8212,"Ġsistemine":8213,"Ġimzal":8214,"Ġdondur":8215,"lant":8216,"Ġmahkeme":8217,"AÃ§Ä±k":8218,"CumhurbaÅŁkanÄ±":8219,"ĠSalÄ±":8220,"memek":8221,"ĠOnline":8222,"Ġvermesi":8223,"ĠKalkÄ±n":8224,"ĠÃ¼yeler":8225,"Ġinci":8226,"indan":8227,"Ġsizden":8228,"ĠinanÄ±lmaz":8229,"ĠyardÄ±mÄ±":8230,"Ġlab":8231,"ĠkonularÄ±":8232,"ĠuyuÅŁturucu":8233,"ĠSokak":8234,"Ġcennet":8235,"lÄ±yorum":8236,"isti":8237,"ĠHastalÄ±k":8238,"Ġlam":8239,"Ã½Ã¾":8240,"ĠgÃ¶rmÃ¼ÅŁ":8241,"yaÅŁ":8242,"ĠyÄ±kama":8243,"memiz":8244,"ĠtoplantÄ±sÄ±nda":8245,"Ġpolitika":8246,"ĠDi":8247,"Ġdiliyorum":8248,"ĠSÃ¶zleÅŁ":8249,"yaman":8250,"ĠKullanÄ±cÄ±":8251,"Ġgelec":8252,"Ġraf":8253,"Ġgidecek":8254,"Ã§Ä±sÄ±":8255,"ĠÃ§aba":8256,"ĠYaÅŁam":8257,"ĠÃ¶p":8258,"ĠÄ±srar":8259,"ohn":8260,"Ġfaaliyetleri":8261,"Ġro":8262,"ĠBirÃ§ok":8263,"ĠTerÃ¶r":8264,"amayan":8265,"Ġgetiriyor":8266,"gur":8267,"ĠbÃ¶lgesi":8268,"ĠMesela":8269,"Ä±ndÄ±k":8270,"Ġevrak":8271,"Ġprofil":8272,"lobal":8273,"ĠgÃ¼nÃ¼nde":8274,"ĠseÃ§eneÄŁi":8275,"iÅŁli":8276,"Ġfant":8277,"ĠBo":8278,"Ġbulut":8279,"lamada":8280,"olab":8281,"ĠeÅŁsiz":8282,"ĠGeliÅŁtir":8283,"Ġskor":8284,"ĠyakÄ±ÅŁ":8285,"tasÄ±":8286,"ahhÃ¼t":8287,"Ġreng":8288,"ĠgerÃ§ekleÅŁtirildi":8289,"Ġikisi":8290,"Ã¢b":8291,"Ġpak":8292,"ĠyazdÄ±ÄŁÄ±":8293,"Ġkazanmak":8294,"ĠAir":8295,"ĠÃ¶v":8296,"Ġdelik":8297,"acÄ±lÄ±k":8298,"Ġsad":8299,"atta":8300,"Ġlezzetli":8301,"ĠPek":8302,"tÃ¼rÃ¼":8303,"Ġuygulamaya":8304,"ĠGe":8305,"DV":8306,"ĠÃ¼lkemiz":8307,"ĠdÃ¶ndÃ¼":8308,"Ã§Ä±lar":8309,"Ġnaz":8310,"Ġgerekirse":8311,"luÄŁunu":8312,"ĠÅŁirketleri":8313,"Ġtey":8314,"ĠÅŁimdiden":8315,"ĠyapmaktadÄ±r":8316,"In":8317,"ĠÃ¼lkemizin":8318,"ĠyÃ¶ntemleri":8319,"Ġtahsil":8320,"ĠBirleÅŁik":8321,"ĠdediÄŁi":8322,"tÄ±ÄŁÄ±m":8323,"uda":8324,"Ġsiyasal":8325,"Ġkonferans":8326,"ersiniz":8327,"Ġsemin":8328,"ekom":8329,"Ġbedeli":8330,"Ġuzay":8331,"ĠtÃ¼ketic":8332,"Ġvic":8333,"ĠgÃ¼ndÃ¼z":8334,"Ġkampanya":8335,"vat":8336,"ĠolmasÄ±nÄ±n":8337,"ĠyaralandÄ±":8338,"Ġhamur":8339,"ĠiÃ§eriÄŁi":8340,"Ġneticesinde":8341,"Ãľr":8342,"irt":8343,"ĠgeÃ§irmek":8344,"ĠrÃ¼zgar":8345,"meyece":8346,"Ġbilinc":8347,"Ġikili":8348,"ĠkomÅŁu":8349,"ĠiÃ§erir":8350,"ĠbakÄ±mÄ±":8351,"ĠiliÅŁkileri":8352,"Muh":8353,"dÄ±kÃ§a":8354,"Ġtv":8355,"ÅŁek":8356,"ĠKazan":8357,"Ġcaz":8358,"mÄ±ÅŁtÄ±m":8359,"mece":8360,"ĠdÃ¼ÅŁÃ¼ndÃ¼ÄŁ":8361,"ĠDalÄ±":8362,"EP":8363,"ĠhesabÄ±":8364,"ĠiÃ§erisine":8365,"Ġhizmete":8366,"Ġibadet":8367,"ĠkeÅŁfet":8368,"engiz":8369,"Ġdoktora":8370,"Ġsistemini":8371,"Ġyeterince":8372,"ĠarkadaÅŁÄ±m":8373,"ĠsÄ±caklÄ±k":8374,"ĠGeÃ§en":8375,"ĠSch":8376,"ĠÃ§Ä±karak":8377,"ĠtoplantÄ±sÄ±":8378,"ĠnÄ±n":8379,"ĠValisi":8380,"Ġedecektir":8381,"Ġmedy":8382,"set":8383,"Ġbunlardan":8384,"Ġsizlerin":8385,"ĠkarÅŁÄ±sÄ±na":8386,"Ġocak":8387,"Ãĸr":8388,"Ġtabak":8389,"ĠÃ§alÄ±ÅŁÄ±yoruz":8390,"Ġdirekt":8391,"Ġkral":8392,"Ä±lacaktÄ±r":8393,"ĠSeÃ§im":8394,"ĠRas":8395,"ydi":8396,"Ġantik":8397,"Ġdinamik":8398,"ĠkatÄ±lÄ±mcÄ±":8399,"Ġgibidir":8400,"Ġelinden":8401,"ĠkÃ¼f":8402,"ĠHayÄ±r":8403,"ĠsÃ¼rÃ¼":8404,"Ġoraya":8405,"Ä±lÄ±ÅŁÄ±":8406,"Ġihlal":8407,"Ġatmos":8408,"ĠgÃ¶ze":8409,"ĠNakliyat":8410,"ĠTÃ¼k":8411,"Ã¼lerek":8412,"à¸":8413,"Ġsuyun":8414,"Ã¼yada":8415,"ĠkalÄ±yor":8416,"ĠhÃ¢l":8417,"lÃ¼ÄŁÃ¼nÃ¼":8418,"ĠSaÄŁlÄ±ÄŁÄ±":8419,"ĠHa":8420,"Ġsenar":8421,"Ġistasyon":8422,"inizden":8423,"Ġmateryal":8424,"Ġedenler":8425,"ĠÃ¼lkeye":8426,"ĠaÅŁamasÄ±nda":8427,"Ġlay":8428,"ĠKerim":8429,"ĠBasÄ±n":8430,"Ġboru":8431,"Ġlaf":8432,"ĠyerleÅŁim":8433,"ĠÃĸrnek":8434,"ĠalanlarÄ±nda":8435,"ĠbulunduÄŁunu":8436,"ex":8437,"42":8438,"Sel":8439,"ĠÃ¼lkelerde":8440,"Ġdizisi":8441,"mektir":8442,"ĠÃ§il":8443,"Ġetmeniz":8444,"95":8445,"ĠTor":8446,"Ġkonaklama":8447,"Ġbedava":8448,"lÃ®":8449,"ĠÃ§Ã¶p":8450,"dere":8451,"Ġbiber":8452,"ĠyaÅŁamÄ±nÄ±":8453,"Ġambalaj":8454,"Sam":8455,"ĠkaynaklarÄ±":8456,"zerbaycan":8457,"Ġlise":8458,"umuzda":8459,"Ġekst":8460,"Ä±ÅŁÄ±n":8461,"ĠKAR":8462,"TV":8463,"Ġ195":8464,"ĠÄ°nce":8465,"Ġolmazsa":8466,"Ġforum":8467,"ĠLondra":8468,"Ãħ":8469,"inler":8470,"Ġmerkezine":8471,"ĠYun":8472,"ĠsÃ¼rÃ¼c":8473,"Ġhepsini":8474,"Ġkonulu":8475,"Ġarkada":8476,"ĠkurulmuÅŁ":8477,"ĠHareket":8478,"ĠbÃ¼yÃ¼sÃ¼":8479,"Ġpost":8480,"Ġhukuki":8481,"Ġkoyun":8482,"ĠDaÄŁÄ±":8483,"ĠodaklÄ±":8484,"ĠYalnÄ±z":8485,"ĠettiÄŁimiz":8486,"ĠDenizli":8487,"ĠyardÄ±mÄ±yla":8488,"ĠÃ§Ä±r":8489,"Ġsunucu":8490,"Ġpozitif":8491,"ĠHindistan":8492,"ĠunutmayÄ±n":8493,"ĠNih":8494,"ĠkarÅŁÄ±lÄ±ÄŁÄ±":8495,"ĠOd":8496,"iÄŁeri":8497,"Mar":8498,"ĠkarÅŁÄ±lÄ±ÄŁÄ±nda":8499,"ĠPersonel":8500,"ĠÃ§ekmek":8501,"Ġokula":8502,"cik":8503,"tor":8504,"ĠiyileÅŁ":8505,"ĠistediÄŁini":8506,"Ġtopla":8507,"Ġherkesi":8508,"Ãĸzellikle":8509,"ebilirim":8510,"mates":8511,"Ġyolunu":8512,"Ġverdik":8513,"Ġanlamak":8514,"ml":8515,"Ġkapak":8516,"asebe":8517,"ĠBilimleri":8518,"ĠAnd":8519,"cell":8520,"ĠBaÅŁka":8521,"ĠdanÄ±ÅŁman":8522,"ĠanlaÅŁma":8523,"Par":8524,"ÄŀÄ°":8525,"Ġemir":8526,"Ġismini":8527,"Ġsertifik":8528,"Ã§ilerin":8529,"Ġbakar":8530,"ĠBÃ¼lent":8531,"ĠanlamÄ±nda":8532,"sey":8533,"ĠilanlarÄ±":8534,"Ġ1000":8535,"Ġayet":8536,"Ġseyr":8537,"Ġtren":8538,"ĠÃ§Ä±kma":8539,"erif":8540,"Kend":8541,"ĠPh":8542,"Ġdirek":8543,"ĠÃ§ak":8544,"Ġeline":8545,"ĠKÄ±y":8546,"YD":8547,"Ġtor":8548,"ĠadamÄ±n":8549,"Ġbizleri":8550,"ĠÃ¶nemlisi":8551,"Alman":8552,"ĠSavunma":8553,"amaÅŁÄ±r":8554,"ĠsatÄ±r":8555,"Ä±lÄ±rken":8556,"ĠÂ«":8557,"ĠalÄ±nmÄ±ÅŁ":8558,"ĠAV":8559,"Ġstres":8560,"Ġsahipleri":8561,"ĠYÃ¶netmelik":8562,"Ġyuv":8563,"ĠkolaylÄ±kla":8564,"ĠeÅŁyalar":8565,"ĠPlay":8566,"Ġforma":8567,"ĠgÃ¶rÃ¼ÅŁme":8568,"ĠSilah":8569,"ĠTC":8570,"ich":8571,"ĠyurtdÄ±ÅŁ":8572,"AA":8573,"masi":8574,"ĠBakanlÄ±k":8575,"ĠbaÅŁkenti":8576,"akin":8577,"ft":8578,"Ã§asÄ±":8579,"Ġ<":8580,"adÄ±ÄŁÄ±nÄ±z":8581,"Ġdisiplin":8582,"ĠalÄ±ÅŁkan":8583,"ure":8584,"Ġbelirgin":8585,"astik":8586,"Ġdaima":8587,"eÄŁini":8588,"ĠHe":8589,"Ġbayrak":8590,"ĠiÅŁini":8591,"ĠbaÅŁtan":8592,"Der":8593,"Ġsorunsuz":8594,"ux":8595,"emiyorum":8596,"43":8597,"ĠgÃ¶rebilirsiniz":8598,"Ġyumurt":8599,"ĠgeleceÄŁi":8600,"ĠÄ°spanya":8601,"jinal":8602,"Ġdediler":8603,"Ã¼rt":8604,"Ġ2004":8605,"ĠDeÄŁiÅŁik":8606,"Ġoradan":8607,"Ġmesleki":8608,"ĠbaÅŁlÄ±k":8609,"Ġ120":8610,"ĠKud":8611,"ĠÃ¶lÃ§Ã¼m":8612,"orit":8613,"Ġolurdu":8614,"po":8615,"ĠOtom":8616,"ĠolanÄ±":8617,"Ġtalebi":8618,"eyt":8619,"Ġgalibiyet":8620,"ĠÃ¶ÄŁrenme":8621,"Ġgetirir":8622,"ĠhaftalÄ±k":8623,"ĠdevamlÄ±":8624,"68":8625,"Ã¶nÃ¼":8626,"Ġ58":8627,"ubu":8628,"ĠCevap":8629,"Ã¢hil":8630,"ĠkÃ¶tÃ¼l":8631,"ĠyazÄ±yor":8632,"ĠGÃ¼mÃ¼ÅŁ":8633,"Ã¼lasyon":8634,"duÄŁunda":8635,"Ġbudur":8636,"Ġgirer":8637,"ĠetrafÄ±nda":8638,"brek":8639,"gn":8640,"Ġdeplasman":8641,"BUL":8642,"gut":8643,"kusuz":8644,"Ġsakat":8645,"dÃ¼ncÃ¼":8646,"ĠZeytin":8647,"Ġcevab":8648,"aport":8649,"udu":8650,"PG":8651,"ebileceÄŁiniz":8652,"ĠihraÃ§":8653,"Ġkoyu":8654,"Ã§ileri":8655,"asÄ±n":8656,"ĠtaÅŁÄ±yor":8657,"Ġteknolojisi":8658,"bat":8659,"ekili":8660,"ĠrÃ¼y":8661,"ĠKalkÄ±nma":8662,"ĠsÃ¶k":8663,"yat":8664,"Ä±mdan":8665,"Ġprojenin":8666,"ĠAmaÃ§":8667,"ĠgÃ¼cÃ¼nÃ¼":8668,"Ġdefter":8669,"Ġverileri":8670,"ebze":8671,"ĠGÃ¼ncel":8672,"Ġkurulum":8673,"ĠKoc":8674,"abrika":8675,"ĠpaylaÅŁmak":8676,"lazÄ±ÄŁ":8677,"lenerek":8678,"ĠÃ¶f":8679,"Ġdert":8680,"ĠhazÄ±rlanmÄ±ÅŁ":8681,"ilirken":8682,"Ġmatematik":8683,"ĠsatÄ±":8684,"ĠsahipliÄŁi":8685,"Ġdesen":8686,"ÄŁiyle":8687,"ĠgÃ¶v":8688,"Ġizni":8689,"ĠtÄ±klayÄ±n":8690,"ĠdÃ¶ÅŁ":8691,"Ġtohum":8692,"ĠÃľN":8693,"ĠkÃ¶ken":8694,"ĠhayatÄ±nda":8695,"Ġmanzar":8696,"ĠsanÄ±k":8697,"ĠÃ¶zellikler":8698,"Ġistikrar":8699,"ĠDevleti":8700,"Ġalet":8701,"ograf":8702,"Ä±sÄ±n":8703,"ĠbÃ¶lgenin":8704,"ĠzamandÄ±r":8705,"edikleri":8706,"uydu":8707,"Ġoyuncak":8708,"ikal":8709,"uyorlar":8710,"laÅŁÄ±m":8711,"ĠYay":8712,"Ġyoluna":8713,"ĠanlayÄ±ÅŁÄ±":8714,"Ġolurken":8715,"Ġetmem":8716,"caÄŁÄ±z":8717,"portaj":8718,"ĠyaralÄ±":8719,"Ä±llÄ±":8720,"sed":8721,"Ġajans":8722,"Ġyazan":8723,"Ġmesela":8724,"abilme":8725,"gÃ¶z":8726,"Ġmutf":8727,"KÄ±r":8728,"78":8729,"akistan":8730,"ĠbastÄ±r":8731,"Ġmaddeler":8732,"ĠForm":8733,"Ġkuy":8734,"andum":8735,"Ġ(%":8736,"Ã¼mÃ¼ze":8737,"unacak":8738,"EZ":8739,"Ġkoruyucu":8740,"Burada":8741,"das":8742,"ĠUlu":8743,"ĠDok":8744,"ĠPR":8745,"ĠMate":8746,"Ġlistesi":8747,"ĠÃ§alÄ±ÅŁtÄ±ÄŁÄ±":8748,"Ġsemt":8749,"Ġprojeleri":8750,"gim":8751,"atlÄ±":8752,"ĠdeÄŁiÅŁiklikler":8753,"utin":8754,"Ġmecbur":8755,"ĠzorundadÄ±r":8756,"Ä±nc":8757,"SÃ¶z":8758,"Ġkatli":8759,"ĠarÄ±z":8760,"ame":8761,"ĠsÃ¶ylemiÅŁ":8762,"ĠÃľret":8763,"Ã¼lmÃ¼ÅŁ":8764,"Ġkombin":8765,"Ã¼lÃ¼yor":8766,"Mil":8767,"ileceÄŁiniz":8768,"ĠgÃ¶zet":8769,"ĠHarek":8770,"landÄ±rÄ±cÄ±":8771,"liÄŁinden":8772,"ĠMek":8773,"ĠArabistan":8774,"isin":8775,"ĠKÃ¶r":8776,"DiÄŁer":8777,"Ġpir":8778,"ĠEfend":8779,"ĠTakÄ±mÄ±":8780,"alarÄ±yla":8781,"ĠolaylarÄ±":8782,"Ġakla":8783,"Ġlit":8784,"ĠsektÃ¶rÃ¼nÃ¼n":8785,"Ã§Ã¼":8786,"ĠfazlasÄ±":8787,"load":8788,"ĠOrtadoÄŁu":8789,"ĠaraÃ§lar":8790,"Ġlaborat":8791,"mekle":8792,"Ġidare":8793,"krayna":8794,"Ġkutsal":8795,"ĠcanÄ±m":8796,"GenÃ§":8797,"Ġseviyede":8798,"ĠHacÄ±":8799,"salar":8800,"HA":8801,"ĠyetiÅŁkin":8802,"danÄ±n":8803,"Ġdudak":8804,"Ġriski":8805,"ĠgereÄŁ":8806,"ĠyazarÄ±":8807,"ĠHalil":8808,"otosiklet":8809,"doÄŁu":8810,"tas":8811,"Ġbirlikt":8812,"abileceÄŁini":8813,"ĠyÄ±llarÄ±nda":8814,"ĠÃĸztÃ¼rk":8815,"ĠFi":8816,"Ġkadros":8817,"Ġhoca":8818,"Ġorijinal":8819,"ĠEmin":8820,"ĠolmasÄ±n":8821,"ĠÃľs":8822,"Ġsonradan":8823,"Ã¼min":8824,"ĠaÃ§Ä±klandÄ±":8825,"malarÄ±nÄ±n":8826,"eysel":8827,"amalarÄ±":8828,"41":8829,"ĠgÃ¶rme":8830,"ysa":8831,"Ġdersi":8832,"Ġsekiz":8833,"Ġkendime":8834,"2011":8835,"ĠManisa":8836,"ĠBeni":8837,"ĠdaÄŁÄ±tÄ±m":8838,"Ġkurdu":8839,"masÄ±dÄ±r":8840,"ĠMÃ¼slÃ¼m":8841,"ĠBirinci":8842,"Ġtuvalet":8843,"Ġomuz":8844,"uel":8845,"Ġbizden":8846,"ĠTedav":8847,"ĠPara":8848,"ĠYÄ±lÄ±":8849,"operatif":8850,"ĠayrÄ±m":8851,"Ä±yan":8852,"Ġ|--":8853,"Ġisimler":8854,"ĠgÃ¶nÃ¼llÃ¼":8855,"ĠAday":8856,"Ġetkiler":8857,"ÅŁak":8858,"ĠdeÄŁiÅŁken":8859,"Ġgemi":8860,"ĠDef":8861,"Ä±ÅŁÄ±klÄ±k":8862,"ĠyapÄ±larak":8863,"Ġmisiniz":8864,"Ã¼sÃ¼nÃ¼":8865,"ĠboÅŁan":8866,"ĠSn":8867,"Ġtutmak":8868,"ĠPa":8869,"))":8870,"Ġabon":8871,"Ġmedyada":8872,"aydÄ±":8873,"Ġ600":8874,"luÄŁun":8875,"ĠYavuz":8876,"ndaki":8877,"Ġduyar":8878,"ĠvatandaÅŁlarÄ±n":8879,"Ġbilgilerin":8880,"ĠDoÄŁum":8881,"Ġsus":8882,"ĠKoordin":8883,"yak":8884,"ĠÃ§ant":8885,"ĠhalkÄ±nÄ±n":8886,"Ġbulacak":8887,"Ġistenilen":8888,"ifi":8889,"ĠÅŁahit":8890,"Res":8891,"ĠSalonu":8892,"ĠmÃ¼zak":8893,"edektif":8894,"lip":8895,"Ġittifak":8896,"Ġihmal":8897,"ĠgeÃ§erek":8898,"ĠAkÄ±n":8899,"ĠtamamladÄ±":8900,"Uy":8901,"birliÄŁi":8902,"SD":8903,"ÄŁimde":8904,"Ġturnuv":8905,"iliÅŁ":8906,"Ġtrend":8907,"ĠaÄŁÄ±rlÄ±k":8908,"hiÅŁ":8909,"Ġkonse":8910,"ĠBeÅŁ":8911,"ĠZiyaret":8912,"Ġgereklidir":8913,"ĠDÃ¼nyanÄ±n":8914,"ÅŁet":8915,"Ġmilletin":8916,"KadÄ±n":8917,"iver":8918,"ĠyapacaÄŁÄ±":8919,"ĠÃĤ":8920,"iÃ§i":8921,"masÄ±z":8922,"esun":8923,"ĠÃ§Ä±kardÄ±":8924,"ĠetkileÅŁ":8925,"ĠMir":8926,"ildiÄŁinde":8927,"ĠtavÄ±r":8928,"ĠbÄ±Ã§ak":8929,"ĠgeliÅŁtirmek":8930,"Ġtazminat":8931,"Ġizleyen":8932,"ĠsÃ¶mÃ¼r":8933,"ĠÃĸde":8934,"Ġtutun":8935,"Ã¼nÃ¼r":8936,"madÄ±m":8937,"ĠanlatÄ±m":8938,"rit":8939,"Ġmaz":8940,"Ġoynamak":8941,"ĠAziz":8942,"ĠÃ¶tÃ¼rÃ¼":8943,"ĠbugÃ¼nkÃ¼":8944,"ĠortasÄ±nda":8945,"Ġfit":8946,"Ġbozukluk":8947,"ĠortamÄ±":8948,"Ġpiyasa":8949,"Ġcasino":8950,"Ġhakem":8951,"Ġnik":8952,"Ġsisteme":8953,"alaxy":8954,"ĠTÃ¼rkmen":8955,"eyince":8956,"ocuÄŁ":8957,"ĠkoÅŁullarÄ±":8958,"Ġtatmin":8959,"Ġvurgulayan":8960,"Ġasgari":8961,"ĠÃ§Ä±karmak":8962,"ĠÃ¶zgÃ¼n":8963,"sÃ¼n":8964,"yn":8965,"Ġzamana":8966,"Devlet":8967,"Ġbag":8968,"ĠBanka":8969,"Ġ2002":8970,"Ġreferans":8971,"Ġesnek":8972,"Ġbayanlar":8973,"Ã¼el":8974,"ĠaltyapÄ±":8975,"KAR":8976,"ANBUL":8977,"ĠÃ§evresinde":8978,"ĠBoÄŁaz":8979,"Ġsordu":8980,"ĠTim":8981,"ĠseÃ§ilen":8982,"Ġhttps":8983,"Ġlastik":8984,"iyorsunuz":8985,"opark":8986,"ĠSizin":8987,"ĠBÄ°L":8988,"Ġlen":8989,"Ġbardak":8990,"Ġnefret":8991,"Ġsunuyoruz":8992,"ĠSelÃ§uk":8993,"ĠSaray":8994,"ĠtÃ¼y":8995,"GB":8996,"ĠKÃ¶pr":8997,"Ġpilot":8998,"ĠÃľniversite":8999,"Ġeseri":9000,"ĠuygulanÄ±r":9001,"ĠyararlÄ±":9002,"anak":9003,"ĠRo":9004,"ĠSabah":9005,"ĠiÅŁletmeler":9006,"yolu":9007,"mediÄŁini":9008,"Ġtopluluk":9009,"Ġstok":9010,"Ä±nÄ±zdan":9011,"ĠyalÄ±":9012,"Ã¼ksek":9013,"Ġkullanmaya":9014,"Ġsamimi":9015,"ora":9016,"taÃ§":9017,"Ġkaybed":9018,"ĠMel":9019,"coin":9020,"Antalya":9021,"ĠhikÃ¢y":9022,"Ġkade":9023,"Ġemr":9024,"ĠoluÅŁturur":9025,"ĠbaÅŁÄ±ndan":9026,"ĠBazen":9027,"ĠÅŁeyden":9028,"Ġkaydeden":9029,"ĠzamanlÄ±":9030,"ĠÃ¶zÃ¼r":9031,"ĠÄ°mparator":9032,"ish":9033,"zaman":9034,"tiÄŁiniz":9035,"aÅŁkÄ±n":9036,"Ġsizinle":9037,"culuk":9038,"Ġdey":9039,"Ġmetr":9040,"ĠTh":9041,"ĠOla":9042,"ĠCanlÄ±":9043,"Ġobj":9044,"ĠKa":9045,"aseb":9046,"amalar":9047,"uluÅŁ":9048,"Ġziyade":9049,"Ġoyna":9050,"ĠÃ§Ã¶zÃ¼mÃ¼":9051,"ĠAla":9052,"cuk":9053,"ĠGÃ¼nlÃ¼k":9054,"ĠHangi":9055,"ĠitibarÄ±yla":9056,"Ġ46":9057,"ĠTrans":9058,"ĠmÃ¼te":9059,"ĠSamsung":9060,"Ġsaatte":9061,"del":9062,"ĠKem":9063,"ĠmarkasÄ±":9064,"ĠTip":9065,"Ġduran":9066,"ĠsÄ±radan":9067,"ĠHollanda":9068,"ĠkaÄŁÄ±":9069,"ĠÅŀubesi":9070,"Kan":9071,"ĠsaÄŁlay":9072,"ĠkorunmasÄ±":9073,"ĠBulgar":9074,"77":9075,"ĠCep":9076,"gelen":9077,"SP":9078,"Ġhid":9079,"ĠfÄ±":9080,"ĠmÃ¼st":9081,"Ġilerleyen":9082,"lÃ¼ÄŁÃ¼ne":9083,"lilerin":9084,"Ġplanda":9085,"ĠDiÅŁ":9086,"ĠolmasÄ±dÄ±r":9087,"Ġmaksimum":9088,"Ġzorlu":9089,"kÃ¢r":9090,"Ġimam":9091,"ĠboÅŁal":9092,"ĠtakÄ±mÄ±n":9093,"ĠBÃ¶yl":9094,"onlar":9095,"Ġtoplamda":9096,"Man":9097,"ĠMÃ¼cadele":9098,"Ġdilim":9099,"Ġisimleri":9100,"rd":9101,"ĠSaf":9102,"ĠÄ°ÅŁletme":9103,"ĠdolarlÄ±k":9104,"ĠâĢĺâĢĻ":9105,"ĠÃľretim":9106,"Ġvize":9107,"ĠgÃ¶reve":9108,"ĠCumhurbaÅŁkanlÄ±ÄŁÄ±":9109,"Ġvol":9110,"Ġgetirilen":9111,"ĠKitabÄ±":9112,"ĠolaÄŁanÃ¼stÃ¼":9113,"ĠKoruma":9114,"ĠsilahlÄ±":9115,"tihar":9116,"ĠHerkes":9117,"Deniz":9118,"ĠHoca":9119,"ĠÄ°L":9120,"ĠOnu":9121,"Ġkel":9122,"ĠcoÅŁ":9123,"ĠkaynaklÄ±":9124,"ladÄ±m":9125,"ĠJaponya":9126,"ĠÃ§Ã¶zÃ¼mler":9127,"Ġtopu":9128,"dolab":9129,"ĠgÃ¼v":9130,"Ġyoksul":9131,"Ġsag":9132,"uÅŁtuk":9133,"ĠdÃ¼nyayÄ±":9134,"ĠErmen":9135,"mik":9136,"Äł":9137,"ĠolacaÄŁÄ±z":9138,"gul":9139,"dirim":9140,"anya":9141,"yaÄŁ":9142,"Ġniye":9143,"Ter":9144,"ĠÃ§am":9145,"Su":9146,"ĠortamÄ±nda":9147,"ĠGol":9148,"Ġhareketi":9149,"Ġibaret":9150,"ĠneÅŁ":9151,"ĠDigiturk":9152,"itab":9153,"Ġzincir":9154,"ĠÃĩetin":9155,"ĠaÃ§Ä±klamalarda":9156,"Ġfiyatlar":9157,"ĠÃľl":9158,"Ġirtib":9159,"dinde":9160,"ĠbaÅŁlÄ±ÄŁÄ±":9161,"Ġsandal":9162,"Ġsayfada":9163,"Ġbeton":9164,"ĠPolitik":9165,"ĠgÃ¶sterilen":9166,"Ġkaynaklanan":9167,"amayacak":9168,"Ġoynayan":9169,"ĠhattÄ±":9170,"Ġgirip":9171,"Ġresimleri":9172,"rid":9173,"Ġdenize":9174,"ĠYoksa":9175,"TT":9176,"Ġplaj":9177,"Ġ2003":9178,"ĠCo":9179,"Ġmemnuniyet":9180,"Eski":9181,"Ġperde":9182,"ulma":9183,"ĠTeÅŁkil":9184,"ĠmÃ¼sa":9185,"Amer":9186,"uki":9187,"lidir":9188,"Ġminik":9189,"raÄŁÄ±":9190,"ĠanlatÄ±r":9191,"Ġbilgilerini":9192,"Ä°B":9193,"Ġevvel":9194,"ĠgeÃ§mek":9195,"ayn":9196,"dÄ±ÄŁÄ±nÄ±n":9197,"ĠSuudi":9198,"ĠÄ°talyan":9199,"Ġch":9200,"ĠmeÅŁhur":9201,"ĠonarÄ±m":9202,"Ġyavru":9203,"ĠÄ°nan":9204,"unum":9205,"ĠcevabÄ±":9206,"ĠEmir":9207,"ĠkÃ¼l":9208,"ĠolanlarÄ±n":9209,"ĠoluÅŁturduÄŁu":9210,"ĠSohbet":9211,"ĠdeÄŁiÅŁimi":9212,"ĠbaÅŁarÄ±lar":9213,"ĠoluÅŁturulan":9214,"Ðº":9215,"ĠÅŁok":9216,"!..":9217,"ĠiÅŁleme":9218,"ĠgÄ±d":9219,"ĠYakÄ±n":9220,"Ġmotiv":9221,"Ġhemde":9222,"ucusu":9223,"Ġorganik":9224,"ont":9225,"Ġbekliyorum":9226,"urdu":9227,"ellef":9228,"Ġteklifi":9229,"ĠyÄ±ldan":9230,"ĠdÃ¢hil":9231,"Ġdisk":9232,"ĠkÄ±saca":9233,"ĠToplantÄ±":9234,"amin":9235,"und":9236,"amÄ±yorum":9237,"Ġrobot":9238,"Spor":9239,"ĠStad":9240,"ĠAslan":9241,"Ġdevleti":9242,"BazÄ±":9243,"Ġverin":9244,"ĠKadÄ±nlar":9245,"lusu":9246,"ĠalmayÄ±":9247,"Ġkapsamda":9248,"Ġburun":9249,"ĠfirmalarÄ±n":9250,"ĠaldÄ±ÄŁÄ±nÄ±":9251,"ĠÄ°Ã§er":9252,"Ġmedeniyet":9253,"burg":9254,"Ġyetki":9255,"likten":9256,"Ġgirmek":9257,"Ġsergilen":9258,"OD":9259,"ĠkitaplarÄ±":9260,"ĠRob":9261,"esidir":9262,"iller":9263,"Ġsh":9264,"ĠhÄ±zlandÄ±r":9265,"Ġnereye":9266,"Ġdeneyimi":9267,"itÃ¶r":9268,"ĠaÅŁÄ±k":9269,"ĠSelim":9270,"Ġhakaret":9271,"ĠiÄŁ":9272,"ĠMedya":9273,"ĠgÃ¶rÃ¼nen":9274,"Ġberaberinde":9275,"ĠForum":9276,"ĠboÅŁluk":9277,"Ġcemaat":9278,"io":9279,"GK":9280,"ĠBÃ¼r":9281,"Osman":9282,"Ġuydur":9283,"Ġistemez":9284,"ĠUzmanÄ±":9285,"metik":9286,"Ġformat":9287,"Ġ49":9288,"Ġmalzemeler":9289,"ano":9290,"alarca":9291,"Ġard":9292,"ĠBayrak":9293,"ĠEN":9294,"cin":9295,"Ġmevzuat":9296,"Ġhayli":9297,"Ġnoktaya":9298,"ĠBaÅŁar":9299,"ĠDis":9300,"ĠÃ§Ä±kmak":9301,"hale":9302,"ĠAbdÃ¼l":9303,"dÄ±ÄŁÄ±nÄ±zda":9304,"Ġkoz":9305,"ĠolmasÄ±ndan":9306,"ĠYazÄ±":9307,"ĠGeliÅŁ":9308,"ĠÃ¼reten":9309,"ĠKadÄ±kÃ¶y":9310,"ĠDes":9311,"ĠtemizliÄŁi":9312,"ĠdÃ¶ner":9313,"Ã½nÃ½":9314,"Ġkedi":9315,"ĠkullanÄ±cÄ±larÄ±n":9316,"ÃĸK":9317,"Ġdepolama":9318,"Ġgiderken":9319,"Ġex":9320,"Ġkitaplar":9321,"Ġboyun":9322,"Ġrivayet":9323,"Ä±lmalÄ±dÄ±r":9324,"Ä±sÄ±ndaki":9325,"Ġistifa":9326,"hid":9327,"Ġduyurdu":9328,"ĠkÃ¶prÃ¼":9329,"Ġnam":9330,"SA":9331,"Ġtitiz":9332,"ĠSoÄŁ":9333,"yacaÄŁÄ±z":9334,"Ġpomp":9335,"lerinizin":9336,"ĠFor":9337,"Ġzem":9338,"ĠduyduÄŁu":9339,"ĠaldÄ±ÄŁÄ±mÄ±z":9340,"Ã½m":9341,"ÄŁrÄ±":9342,"ĠgirmiÅŁ":9343,"ĠÃĩank":9344,"Ġkritik":9345,"ĠiÅŁten":9346,"MAN":9347,"Ã¼lÃ¼k":9348,"ĠCom":9349,"Ġnolu":9350,"Ġikamet":9351,"Ġnakliye":9352,"ĠarayÄ±ÅŁ":9353,"ĠBos":9354,"Ġsizde":9355,"ĠvarlÄ±ÄŁÄ±":9356,"Ġhaberler":9357,"ĠÃĸncelikle":9358,"ĠErmeni":9359,"ĠÅŀekil":9360,"Ġ42":9361,"Ġkavg":9362,"Ġmerh":9363,"Ġdurumlar":9364,"ĠuÄŁur":9365,"Ġge":9366,"tÄ±klarÄ±nÄ±":9367,"ĠkadÄ±nÄ±":9368,"ĠdoÄŁrusu":9369,"ĠgerekÃ§esiyle":9370,"ĠEkonomi":9371,"Ġna":9372,"hats":9373,"Ġtarihten":9374,"igÃ¼r":9375,"mÃ¼yor":9376,"ĠÃľrÃ¼nleri":9377,"anÄ±zÄ±":9378,"ĠYukarÄ±":9379,"Ġonlarca":9380,"Ġtavuk":9381,"Ä°ki":9382,"ĠMo":9383,"dukÃ§a":9384,"ĠBÃ¼yÃ¼kel":9385,"Ġminim":9386,"Ġyazma":9387,"nav":9388,"ĠBilimler":9389,"ĠsÃ¼z":9390,"ĠAnne":9391,"Ġhamil":9392,"Ġvermeden":9393,"ĠoluÅŁturul":9394,"ĠgenÃ§ler":9395,"ĠJo":9396,"ĠSinan":9397,"Ä±lacaÄŁÄ±nÄ±":9398,"Ġheyet":9399,"ĠhaksÄ±z":9400,"unÃ§":9401,"ĠbÄ±rakÄ±n":9402,"Ġkonuyla":9403,"sÃ¶r":9404,"kut":9405,"ĠBunlardan":9406,"ĠihtiyaÃ§larÄ±nÄ±":9407,"ĠyarÄ±ÅŁma":9408,"DÃ¼ny":9409,"ĠÄ°liÅŁkin":9410,"ĠÄ°stik":9411,"ĠOb":9412,"uper":9413,"ence":9414,"Ġgittim":9415,"press":9416,"ĠHolding":9417,"Ġgazete":9418,"Ġiftar":9419,"ĠyÃ¼rÃ¼m":9420,"iyanet":9421,"rah":9422,"Ġolursunuz":9423,"Samsun":9424,"Ġdenen":9425,"ĠDayan":9426,"ĠSalih":9427,"ĠÃ§alÄ±ÅŁmalarÄ±n":9428,"IF":9429,"ĠaÃ§mak":9430,"Ġmusunuz":9431,"Sur":9432,"ĠparÃ§alarÄ±":9433,"Ġsinyal":9434,"ĠgidiÅŁ":9435,"ĠoranlarÄ±":9436,"Ġsaniye":9437,"ĠlayÄ±k":9438,"Ġpersoneli":9439,"ĠÃ¶ÄŁrencisi":9440,"ĠgÃ¶rÃ¼lÃ¼yor":9441,"larÄ±mÄ±zda":9442,"ĠÄ°lan":9443,"Ġtesisat":9444,"Ġoturum":9445,"Ġkendinize":9446,"Ġgirecek":9447,"ĠOÄŁuz":9448,"ĠyÃ¼zÃ¼":9449,"ĠBes":9450,"olos":9451,"ĠAcil":9452,"ĠgÃ¶nderilen":9453,"ĠKartal":9454,"Ãµ":9455,"rib":9456,"Ġediyorlar":9457,"ĠiÅŁit":9458,"ĠÃ§Ä±l":9459,"ĠBiy":9460,"tuÄŁu":9461,"Ġprotesto":9462,"Ġverip":9463,"ĠsÄ±nÄ±fÄ±":9464,"ĠinanÄ±yorum":9465,"ĠuyandÄ±r":9466,"ĠdoÄŁu":9467,"ĠboÄŁaz":9468,"Mal":9469,"ĠJohn":9470,"Ġdeli":9471,"ATO":9472,"ĠUÃ§":9473,"ebilirler":9474,"ĠÄ°laÃ§":9475,"Ġharca":9476,"tÄ±ÄŁÄ±nÄ±z":9477,"ĠyÃ¼kleme":9478,"ĠBiraz":9479,"fir":9480,"kÄ±ÅŁ":9481,"ĠsektÃ¶rde":9482,"Ġveriyoruz":9483,"ĠsÄ±klÄ±kla":9484,"ĠkullanÄ±r":9485,"Ġbununla":9486,"Ġima":9487,"ĠGÃ¶rÃ¼ÅŁ":9488,"Ġili":9489,"Ġstratejik":9490,"Ġdahilinde":9491,"ion":9492,"ĠParkÄ±":9493,"ĠaÄŁrÄ±sÄ±":9494,"Ġ@":9495,"ĠEdirne":9496,"Ġ00":9497,"ĠrÄ±z":9498,"Ġorganiz":9499,"Ġparsel":9500,"ĠYaklaÅŁÄ±k":9501,"ĠArslan":9502,"Ġithalat":9503,"azz":9504,"Ä±rt":9505,"ĠbÃ¼tÃ§e":9506,"Ġrady":9507,"Ġbirinde":9508,"ĠIÅŀ":9509,"ĠKadir":9510,"laÅŁan":9511,"ĠÄ°ht":9512,"ĠaÃ§Ä±klan":9513,"Ġfot":9514,"Ġkimseye":9515,"ĠbaÅŁladÄ±k":9516,"ĠHiÃ§bir":9517,"ĠBaba":9518,"lunun":9519,"ĠAzerbaycan":9520,"ĠdÃ¼kkan":9521,"ĠyapÄ±lacaktÄ±r":9522,"ĠuzaklaÅŁtÄ±r":9523,"ĠÃ§aÄŁdaÅŁ":9524,"ĠSayÄ±lÄ±":9525,"Ð»":9526,"Ġtarihlerinde":9527,"ĠÃ§alÄ±ÅŁtÄ±":9528,"ĠreÃ§":9529,"Ġilham":9530,"ĠolmanÄ±z":9531,"ĠSize":9532,");":9533,"afe":9534,"ĠtaahhÃ¼t":9535,"ĠÃ¶ykÃ¼":9536,"ĠCamii":9537,"ĠBalÄ±kesir":9538,"Ġfikr":9539,"ĠbasÄ±nÃ§":9540,"ĠgerÃ§eÄŁi":9541,"Ġkurumlar":9542,"ĠbaÅŁlay":9543,"ĠyazÄ±sÄ±":9544,"ĠgeÃ§tik":9545,"Ġstil":9546,"ĠhÄ±zÄ±":9547,"ĠKaÅŁ":9548,"ĠMaliye":9549,"work":9550,"ilmeye":9551,"Ġtutuklu":9552,"ĠSine":9553,"Ġmol":9554,"Ġme":9555,"Ġhastaneye":9556,"ĠvurguladÄ±":9557,"ĠayrÄ±lan":9558,"Ġmilyonlarca":9559,"ĠYÃ¼ksel":9560,"ĠkarmaÅŁÄ±k":9561,"ĠOtobÃ¼s":9562,"ĠZiraat":9563,"Ġtarihte":9564,"Ġbizde":9565,"Ġonlardan":9566,"Sosyal":9567,"Ġizledi":9568,"Ãĸncelikle":9569,"Ġgetirildi":9570,"ĠmesajÄ±":9571,"ĠsÃ¼resince":9572,"ĠvirÃ¼s":9573,"ĠistediÄŁim":9574,"ÃľL":9575,"maye":9576,"ĠÃĸrgÃ¼tÃ¼":9577,"adiÅŁ":9578,"ĠÃľcretsiz":9579,"ĠgÃ¼lÃ¼m":9580,"ĠfarkÄ±nd":9581,"Ġmarket":9582,"ĠEfendi":9583,"ĠtadÄ±nÄ±":9584,"abol":9585,"ĠyapÄ±yorum":9586,"MADDE":9587,"ĠKuvvetleri":9588,"âĢĿ.":9589,"ilerinde":9590,"ojistik":9591,"Ä°YE":9592,"ĠÃ¶rneÄŁin":9593,"ĠDetay":9594,"cal":9595,"SÄ°":9596,"ĠteÅŁkilat":9597,"ĠAlÄ±ÅŁ":9598,"ĠMeydanÄ±":9599,"ĠtartÄ±ÅŁma":9600,"ĠgerÃ§ekleÅŁtirdi":9601,"Ġsesli":9602,"ĠTez":9603,"Ġrandevu":9604,"ĠMahmut":9605,"ĠaÃ§Ä±l":9606,"Ġhastane":9607,"Ä±lmÄ±ÅŁtÄ±":9608,"laÅŁmÄ±ÅŁ":9609,"bit":9610,"Ġisminin":9611,"sp":9612,"rasi":9613,"urun":9614,"ĠyapÄ±ÅŁtÄ±r":9615,"Ġharic":9616,"ĠÃ§eÅŁitleri":9617,"Ġsuya":9618,"ĠdÃ¼ÅŁt":9619,"LÄ°K":9620,"evler":9621,"ĠdÃ¶ndÃ¼r":9622,"ech":9623,"larÄ±mÄ±zdan":9624,"ĠHaklarÄ±":9625,"saray":9626,"Ġtesti":9627,"ĠsayÄ±lÄ±r":9628,"ĠMicrosoft":9629,"ĠgÃ¼mrÃ¼k":9630,"ĠBolu":9631,"ĠÅŀanlÄ±urfa":9632,"Ġtarafta":9633,"ĠprogramÄ±na":9634,"Ġutan":9635,"ĠyarattÄ±ÄŁÄ±":9636,"Ġperiy":9637,"emeyecek":9638,"irdaÄŁ":9639,"caÄŁÄ±m":9640,"Ġlimon":9641,"ĠcezalandÄ±r":9642,"ĠZor":9643,"Ġyorumlar":9644,"ĠyaptÄ±ÄŁÄ±m":9645,"kale":9646,"ĠÃ§Ä±rp":9647,"Ġhic":9648,"ĠkÃ¶t":9649,"icil":9650,"uluÄŁu":9651,"Har":9652,"Ġgelmez":9653,"Ġdedektif":9654,"Haz":9655,"Ä±tma":9656,"NA":9657,"ĠattÄ±ÄŁÄ±":9658,"Ġbelirlendi":9659,"luÄŁunda":9660,"ĠDel":9661,"ĠSektÃ¶r":9662,"ĠyazdÄ±":9663,"ĠmÃ¼raca":9664,"eriler":9665,"ĠgirdiÄŁi":9666,"ith":9667,"ĠÅŁiirleri":9668,"ĠÃ¶nlemek":9669,"row":9670,"ĠsayÄ±sÄ±nÄ±":9671,"caÄŁÄ±na":9672,"ĠdÃ¼zel":9673,"Ä±lÄ±mÄ±":9674,"ĠSistemleri":9675,"EÄŁitim":9676,"Ä±cÄ±sÄ±":9677,"ÃľK":9678,"ĠyÃ¼klen":9679,"Ġkoca":9680,"Ġatmosfer":9681,"ĠkardeÅŁi":9682,"ĠkÄ±yÄ±":9683,"avÃ¼z":9684,"Ġdurumuna":9685,"Ġkula":9686,"Ġgergin":9687,"ĠbakÄ±ldÄ±ÄŁÄ±nda":9688,"encere":9689,"Ġikna":9690,"ĠaÄŁÄ±rlÄ±klÄ±":9691,"ĠfirmanÄ±n":9692,"ĠRektÃ¶r":9693,"ĠkullanÄ±c":9694,"Ġyerinden":9695,"ĠTrabzonspor":9696,"ĠNik":9697,"ĠgÃ¶zler":9698,"ĠSÃ¼t":9699,"ĠAteÅŁ":9700,"ĠKÄ±zÄ±":9701,"ĠyapÄ±ldÄ±ÄŁÄ±nÄ±":9702,"ĠÅŁansÄ±":9703,"Ġsomut":9704,"ĠtoplantÄ±da":9705,"ĠMuÄŁla":9706,"ĠSc":9707,"iliÄŁin":9708,"ĠMali":9709,"76":9710,"eten":9711,"ĠaldÄ±klarÄ±":9712,"ĠyaÄŁÄ±ÅŁ":9713,"ĠinsanlÄ±k":9714,"cunun":9715,"Ġpor":9716,"low":9717,"ĠkitabÄ±n":9718,"ecilik":9719,"Ġolabiliyor":9720,"umun":9721,"ĠbaÄŁlantÄ±sÄ±ndan":9722,"Em":9723,"ĠyaptÄ±ÄŁÄ±nÄ±z":9724,"madÄ±ÄŁÄ±nÄ±":9725,"Kim":9726,"Ġvicdan":9727,"Ġmuhafaza":9728,"Ġpis":9729,"omuz":9730,"ĠKonuÅŁ":9731,"sus":9732,"HK":9733,"ĠAjansÄ±":9734,"ĠyazÄ±n":9735,"ĠDan":9736,"ĠdÃ¼ÅŁÃ¼nen":9737,"ĠhastalÄ±klarÄ±":9738,"ĠgerÃ§ekleÅŁtirilecek":9739,"ĠMuhar":9740,"ĠyaÅŁa":9741,"Ġetmekte":9742,"ĠFuarÄ±":9743,"Milli":9744,"ĠGec":9745,"Ġkimin":9746,"Ġonlarla":9747,"Bay":9748,"Ġtemsilcisi":9749,"ĠMatematik":9750,"ĠKK":9751,"ĠDernek":9752,"ĠsÃ¶zcÃ¼k":9753,"ĠbardaÄŁÄ±":9754,"ĠOyunu":9755,"Ġbran":9756,"ĠyapacaÄŁÄ±z":9757,"amadÄ±":9758,"ÅŁtur":9759,"ongul":9760,"tÄ±p":9761,"Ġrekor":9762,"ĠuzmanÄ±":9763,"sizin":9764,"Ġtac":9765,"Has":9766,"ĠYaÅŁar":9767,"Ġtopar":9768,"ÃĩalÄ±ÅŁ":9769,"Ge":9770,"onsor":9771,"ĠTÃľRK":9772,"Ġleh":9773,"ĠKilis":9774,"ĠdÃ¼ÅŁer":9775,"ix":9776,"ĠÃĩeÅŁit":9777,"ĠdÃ¼nyasÄ±nda":9778,"ĠElektronik":9779,"saÄŁ":9780,"Ġhang":9781,"ĠoynadÄ±ÄŁÄ±":9782,"ĠyarÄ±sÄ±":9783,"Ġyapay":9784,"ĠBoÅŁ":9785,"losuz":9786,"onguldak":9787,"Ġgerektiren":9788,"ĠGece":9789,"ĠsÃ¶zlerine":9790,"Ġvitamini":9791,"ĠBol":9792,"mesin":9793,"ĠReklam":9794,"Ġgetirerek":9795,"ower":9796,"Ġburs":9797,"Ġhissettir":9798,"Ġkasab":9799,"LIK":9800,"ĠatÄ±lan":9801,"biz":9802,"Ġkesi":9803,"cam":9804,"ĠBaÅŁsav":9805,"ĠÅŀampiyonasÄ±":9806,"Ġhangisi":9807,"Bizim":9808,"oÃ§":9809,"klar":9810,"ĠTatil":9811,"ÄŁrul":9812,"ĠtÄ±bbi":9813,"ahil":9814,"Ġsahte":9815,"ĠÅŁiddetli":9816,"ĠKanal":9817,"Ġmenf":9818,"abah":9819,"Ġilgilendir":9820,"ĠiÅŁtir":9821,"âĢ¦âĢ¦":9822,"ĠkatlÄ±":9823,"ĠsayfasÄ±nda":9824,"ĠdiÄŁeri":9825,"Ġheykel":9826,"ĠEg":9827,"ĠÅŁeref":9828,"ĠTuz":9829,"ebir":9830,"ahya":9831,"SS":9832,"ĠolayÄ±n":9833,"ĠEK":9834,"Ġadresine":9835,"fÃ¶y":9836,"Ġedilmelidir":9837,"ĠNedir":9838,"Ġtrafi":9839,"Ġkarn":9840,"ĠÃ§alÄ±ÅŁÄ±rken":9841,"ĠprogramÄ±nda":9842,"Ġsosy":9843,"ĠGez":9844,"ĠvazgeÃ§ilmez":9845,"ĠihtiyacÄ±nÄ±z":9846,"Ġgecesi":9847,"ĠmÃ¼sabak":9848,"Ġkonusundaki":9849,"lÄ±ÄŁÄ±ndan":9850,"alarak":9851,"ĠEsas":9852,"lini":9853,"ĠMÃ¼st":9854,"53":9855,"ĠtÃ¼rkÃ§e":9856,"ĠkarÄ±ÅŁÄ±k":9857,"landÄ±rma":9858,"ĠOyunlarÄ±":9859,"ĠsorunlarÄ±n":9860,"halde":9861,"Uzun":9862,"ĠKuruluÅŁ":9863,"Ġvekil":9864,"Ġyeme":9865,"Ġmacer":9866,"ĠHazret":9867,"ĠdanÄ±ÅŁmanlÄ±k":9868,"ĠSÃ¼n":9869,"Ġhormon":9870,"ĠkonularÄ±nda":9871,"ĠSP":9872,"ĠisteÄŁi":9873,"ĠÃ¶zelliklerini":9874,"ĠMutfak":9875,"ĠHÃ¼kÃ¼met":9876,"ayarak":9877,"ĠKongresi":9878,"Ġispat":9879,"Ġgayrimenkul":9880,"Dem":9881,"LAM":9882,"dilik":9883,"Ġkablo":9884,"ĠilaÃ§lama":9885,"Ġopsiyon":9886,"ff":9887,"Ġbelgeler":9888,"ĠdÃ¼rÃ¼st":9889,"ĠVergi":9890,"ĠyaÅŁandÄ±":9891,"ĠgeÃ§iren":9892,"istler":9893,"Ġuzaktan":9894,"Ġila":9895,"Ġaley":9896,"Ġiktid":9897,"ĠTÄ±k":9898,"ĠVÃ¼c":9899,"ĠÃĩavuÅŁ":9900,"antol":9901,"ĠoluÅŁmaktadÄ±r":9902,"Ġdinlen":9903,"Ã¼ldÃ¼ÄŁÃ¼":9904,"ĠmaÄŁlup":9905,"Ġhaberine":9906,"UluslararasÄ±":9907,"IC":9908,"ĠÃ§oÄŁunlukla":9909,"icileri":9910,"olata":9911,"ĠSak":9912,"app":9913,"500":9914,"ĠcihazÄ±":9915,"Ġokuyan":9916,"ĠkuruluÅŁlarÄ±":9917,"Ġoyuna":9918,"Ġsarf":9919,"Ġsevdik":9920,"!\"":9921,"ĠsÃ¼rdÃ¼rÃ¼lebilir":9922,"ĠgeliÅŁimi":9923,"Ġkrizi":9924,"ĠyanlÄ±":9925,"Ġzik":9926,"The":9927,"Ġhil":9928,"ĠGay":9929,"Ġbelgeleri":9930,"ĠArda":9931,"ĠgÃ¼nÃ¼mÃ¼ze":9932,"ĠrÃ¶portaj":9933,"ĠAyr":9934,"acaksÄ±nÄ±z":9935,"Ġfikri":9936,"ĠaldÄ±ÄŁÄ±m":9937,"ĠGelir":9938,"mayla":9939,"ĠdÃ¶nemine":9940,"lack":9941,"Ġtemsilcileri":9942,"Ã¼mde":9943,"atÃ¶rÃ¼":9944,"Ġtavan":9945,"ĠsÃ¼nnet":9946,"ĠVatandaÅŁ":9947,"ĠMalzem":9948,"ĠÃ¼rÃ¼nlerini":9949,"ĠiÅŁveren":9950,"ĠaÃ§ar":9951,"Ġizleme":9952,"Ġchat":9953,"ĠGerÃ§ekten":9954,"icisi":9955,"ĠKudÃ¼s":9956,"ĠPlatform":9957,"ĠyayÄ±nlandÄ±":9958,"Ġgezi":9959,"Ġyir":9960,"Ġedilecektir":9961,"ĠmÃ¼zi":9962,"zir":9963,"ĠInstagram":9964,"Ġgarip":9965,"Ġgereksiz":9966,"ĠÅŁehirde":9967,"Ġalman":9968,"Ġdoz":9969,"Ġyoldan":9970,"ĠsÄ±nÄ±rsÄ±z":9971,"Ġsebze":9972,"Ġyaratan":9973,"alarÄ±mÄ±z":9974,"Kap":9975,"ĠdÃ¶nÃ¼m":9976,"GeÃ§tiÄŁimiz":9977,"Ġvitamin":9978,"ĠseÃ§in":9979,"Ġdet":9980,"Ġetkileyen":9981,"ĠdevamÄ±":9982,"ÅŁun":9983,"aracak":9984,"ĠdediÄŁimiz":9985,"ÄŁday":9986,"Ġveril":9987,"ĠÄ°sa":9988,"lenmiÅŁtir":9989,"ĠverdiÄŁimiz":9990,"imine":9991,"ĠsÃ¼rdÃ¼":9992,"ĠiliÅŁkisi":9993,"Ġhizmetlerini":9994,"Ġserisi":9995,"amil":9996,"ĠhafÄ±z":9997,"Ġsorgu":9998,"Ġoldug":9999,"tiy":10000,"ĠDak":10001,"Ã¢nÄ±":10002,"Ġkeyfini":10003,"LEM":10004,"medim":10005,"ĠKUR":10006,"ĠKalite":10007,"Ġrestoran":10008,"inizle":10009,"ĠBon":10010,"ĠÅŁirketler":10011,"ĠsaÄŁladÄ±ÄŁÄ±":10012,"leÅŁmiÅŁ":10013,"Ġelini":10014,"ĠQu":10015,"Ġsade":10016,"Ġhareketli":10017,"ĠDol":10018,"Bursa":10019,"ĠBelgesi":10020,"ĠTa":10021,"ticaret":10022,"ĠvarmÄ±ÅŁ":10023,"ĠmÃ¼thiÅŁ":10024,"ĠMor":10025,"ĠaracÄ±lÄ±ÄŁÄ±":10026,"val":10027,"ĠsatÄ±lÄ±k":10028,"Ġyazmak":10029,"69":10030,"ĠgeliÅŁtirilen":10031,"Hz":10032,"ĠÃ¶nemini":10033,"Tarih":10034,"Ġmuhalefet":10035,"atlar":10036,"57":10037,"ĠMÃ¼ÅŁteri":10038,"ĠVen":10039,"ĠÃ¶rnekleri":10040,"ĠList":10041,"Ġkuvvetli":10042,"ĠverdiÄŁini":10043,"hisar":10044,"Ġ41":10045,"Ġtarihe":10046,"ofÃ¶r":10047,"Ġtoplanan":10048,"ĠGalaxy":10049,"Ġmesl":10050,"ĠOnur":10051,"ĠtÄ±kanÄ±k":10052,"Ġsex":10053,"ĠiÃ§erisindeki":10054,"Ġailenin":10055,"Ġsevilen":10056,"ĠyÃ¼kselen":10057,"ĠsaÄŁlayacaktÄ±r":10058,"Ġokuyucu":10059,"Ġtarihinin":10060,"erg":10061,"AynÄ±":10062,"Ġdevre":10063,"Ġcar":10064,"Ä±ÄŁÄ±":10065,"ĠUkrayna":10066,"ĠEve":10067,"ĠcÃ¼mle":10068,"ĠtÃ¼p":10069,"ĠVideo":10070,"ĠAnal":10071,"ĠhastanÄ±n":10072,"ĠSayÄ±":10073,"Ġdeneyimli":10074,"Ġintik":10075,"Ġresmen":10076,"ĠÃ¶ÄŁle":10077,"Ġmotoru":10078,"ĠÃ¶len":10079,"ĠGÃ¼nde":10080,"ĠyaÄŁlÄ±":10081,"Ġmilliyet":10082,"Ġolursak":10083,"ĠyÃ¶nlÃ¼":10084,"ĠÃľnlÃ¼":10085,"ĠulaÅŁan":10086,"ĠBÄ°R":10087,"ĠbaÅŁa":10088,"Ġcinsiyet":10089,"eveyn":10090,"Ġelbise":10091,"ĠGÃ¼nÃ¼mÃ¼zde":10092,"ĠKoz":10093,"ĠkullanÄ±yor":10094,"Ġmuc":10095,"osunu":10096,"ĠCol":10097,"ĠuygulanmasÄ±":10098,"Ġ06":10099,"Ġaittir":10100,"ĠKuran":10101,"ĠeÄŁlenc":10102,"Ġverebilir":10103,"akende":10104,"ĠKiÅŁi":10105,"Ġvarsay":10106,"Ġsec":10107,"ĠÅŁÃ¼pheli":10108,"ĠUr":10109,"ÂŁ":10110,"Ġankara":10111,"faiye":10112,"BÃ¼tÃ¼n":10113,"ĠbaÅŁarÄ±yla":10114,"omb":10115,"Ġdola":10116,"Ġhedefi":10117,"aklar":10118,"ald":10119,"ĠÃĸdÃ¼lÃ¼":10120,"Ġmat":10121,"ĠperformansÄ±":10122,"Ġaleyh":10123,"Ġoturma":10124,"Ġsis":10125,"olojisi":10126,"ivan":10127,"BA":10128,"ebileceÄŁini":10129,"Ġdeg":10130,")âĢĻ":10131,"Ġdeneme":10132,"Ġbilmek":10133,"Ġmel":10134,"ĠSim":10135,"Ġmaddenin":10136,"ĠsÄ±navÄ±":10137,"ĠyÃ¼kseldi":10138,"obi":10139,"lÃ¼ÄŁÃ¼nde":10140,"leÅŁen":10141,"2010":10142,"Ã¼mÃ¼zÃ¼n":10143,"Ġantrenman":10144,"Ġcezaev":10145,"Ġposta":10146,"Ġgebelik":10147,"amda":10148,"barat":10149,"ĠÅŁÃ¶":10150,"feri":10151,"ĠÅŀeker":10152,"Ġolurlar":10153,"ĠÃ¶nder":10154,"Ġfatura":10155,"Ġhur":10156,"eÄŁinin":10157,"Ġkendimizi":10158,"ĠÃ¼lkeleri":10159,"oni":10160,"astam":10161,"isim":10162,"ĠyÄ±llarÄ±n":10163,"ĠTelekom":10164,"ĠHafta":10165,"ĠolsaydÄ±":10166,"ĠgeÃ§ecek":10167,"ĠhÃ¢lÃ¢":10168,"Ġgazeteci":10169,"GeÃ§en":10170,"ĠsÄ±fat":10171,"Ä°TESÄ°":10172,"ĠtaÅŁÄ±nmaz":10173,"Ġolgu":10174,"Ã¼ntÃ¼":10175,"Ġuzanan":10176,"iyorsanÄ±z":10177,"ĠDavut":10178,"ĠÅŀiir":10179,"ĠyÃ¶netici":10180,"gÃ¶l":10181,"Ġbildirim":10182,"ĠgÃ¶rÃ¼ntÃ¼len":10183,"ceÄŁim":10184,"82":10185,"Ġdolara":10186,"Ġmerkezli":10187,"ĠyeryÃ¼z":10188,"ĠKardeÅŁ":10189,"ĠAfyon":10190,"ĠÄ°daresi":10191,"BB":10192,"ĠÃ¶yk":10193,"urya":10194,"Ġentegre":10195,"ĠdÃ¼nyadaki":10196,"Ġhikaye":10197,"ĠTuran":10198,"Ġ44":10199,"ĠsÃ¼rdÃ¼ren":10200,"ĠgeliÅŁmeleri":10201,"ĠÃ¼zÃ¼l":10202,"Ġbirbirlerine":10203,"ĠgeÃ§irdi":10204,"etli":10205,"ĠkÃ¼ltÃ¼rÃ¼":10206,"Ġnereden":10207,"Ġoksi":10208,"ĠStar":10209,"ĠPla":10210,"Ġkanaat":10211,"ĠyaÅŁamÄ±ÅŁ":10212,"Ġsaptan":10213,"67":10214,"ĠmÃ¼j":10215,"lerimizde":10216,"ĠSiyah":10217,"Ġzorlan":10218,"ĠKÄ±ÅŁ":10219,"Ġmetrekare":10220,"Ġboyutu":10221,"Ġoyuncusu":10222,"ĠbÃ¶lgelerde":10223,"Ġkurucu":10224,"ĠgitmiÅŁ":10225,"Ġinanc":10226,"ita":10227,"ĠmÃ¼ÅŁ":10228,"ĠÃĩam":10229,"ĠSendik":10230,"luyor":10231,"ĠbaÄŁlÄ±dÄ±r":10232,"ĠkullanÄ±ldÄ±ÄŁÄ±":10233,"ĠNitekim":10234,"iyo":10235,"Ġproblemi":10236,"Ġmiras":10237,"Ġvesile":10238,"ĠOnlarÄ±n":10239,"ĠAdnan":10240,"iriz":10241,"ason":10242,"ĠiÃ§e":10243,"Ġyi":10244,"ĠUygun":10245,"ĠoruÃ§":10246,"ĠÃ¼yelerinin":10247,"maraÅŁ":10248,"melerine":10249,"Ġhepimiz":10250,"ĠanÄ±m":10251,"Ġparla":10252,"Ġkaplama":10253,"Ã¼minyum":10254,"zen":10255,"ĠbÃ¶lÃ¼mÃ¼nÃ¼":10256,"ĠyapÄ±ÅŁ":10257,"ĠDub":10258,"Ġ03":10259,"Ġzafer":10260,"Ġgev":10261,"ĠÃ¶ÄŁrencinin":10262,"Ã§in":10263,"ĠartmasÄ±":10264,"Ġekleyin":10265,"ĠGB":10266,"acasÄ±":10267,"Ġkararlar":10268,"ĠsavaÅŁÄ±":10269,"berg":10270,"ĠoluÅŁuyor":10271,"ID":10272,"ĠgeÃ§tiÄŁi":10273,"ĠOlan":10274,"ceÄŁiz":10275,"ĠsÄ±ral":10276,"aÄŁÄ±ndan":10277,"ĠGeri":10278,"Ġerdi":10279,"Ġstaj":10280,"Ġoyunda":10281,"Ġsitede":10282,"ĠnÃ¼kleer":10283,"ĠSÄ±k":10284,"ĠEkonomik":10285,"St":10286,"85":10287,"larÄ±dÄ±r":10288,"ĠfÄ±rÄ±n":10289,"ĠKaraman":10290,"Ä±plak":10291,"ĠkatÄ±lmak":10292,"ĠCengiz":10293,"ĠAksi":10294,"ĠodalarÄ±":10295,"Ġmobilya":10296,"Ġmadal":10297,"Ġnitelikli":10298,"ĠIÅŀÄ°D":10299,"Ġmaddesinde":10300,"ĠdÃ¼nyasÄ±nÄ±n":10301,"Ab":10302,"lash":10303,"habalar":10304,"Ġfrag":10305,"ĠtÄ±rman":10306,"ĠBaÅŁak":10307,"adiÅŁah":10308,"ĠSÄ±nÄ±r":10309,"ĠkÄ±lav":10310,"ĠÄ°nsanlar":10311,"ĠCihaz":10312,"ĠDirektÃ¶rÃ¼":10313,"Ġisyan":10314,"Ġdonat":10315,"Ã¼mÃ¼zÃ¼":10316,"ĠcÃ¼z":10317,"Ã¢yet":10318,"ĠÃ§iÄŁ":10319,"beyaz":10320,"ÃľZ":10321,"Ġislam":10322,"ĠdÃ¼":10323,"yaÄŁÄ±":10324,"Ġyang":10325,"elerimiz":10326,"Tur":10327,"ĠVad":10328,"ĠetkinliÄŁi":10329,"ĠkatÄ±lÄ±mÄ±yla":10330,"Ġmaddeleri":10331,"ym":10332,"Ġformu":10333,"EÅŀ":10334,"Ä°VERS":10335,"emedim":10336,"ĠsorumluluÄŁ":10337,"Ġilim":10338,"acaÄŁÄ±na":10339,"ĠKapÄ±":10340,"Ġgezeg":10341,"ĠgÃ¶rÃ¼ldÃ¼":10342,"amÄ±zÄ±":10343,"ĠaÅŁamada":10344,"emektedir":10345,"Ġoyuncular":10346,"ĠsigortalÄ±":10347,"ĠdÃ¼zenledi":10348,"Ġtespiti":10349,"emde":10350,"Ġdomates":10351,"mÃ®":10352,"ĠyorumlarÄ±":10353,"larÄ±nÄ±zda":10354,"tikleri":10355,"lerimizden":10356,"ĠbÄ±rakÄ±p":10357,"ĠDevamÄ±":10358,"Ġrot":10359,"ĠedildiÄŁini":10360,"ĠLab":10361,"ĠAlbay":10362,"ĠZar":10363,"Ġseviyesi":10364,"grama":10365,"miyorum":10366,"ĠrazÄ±":10367,"alanÄ±":10368,"ĠkarÄ±n":10369,"faf":10370,"ĠsektÃ¶rÃ¼n":10371,"ĠkullanÄ±n":10372,"GE":10373,"ĠgÃ¼mÃ¼ÅŁ":10374,"ijyen":10375,"Ġgun":10376,"ĠTest":10377,"Ġkalitesini":10378,"Ġsalonu":10379,"ĠDurum":10380,"Ġpik":10381,"ĠÄ°N":10382,"Ã¼sÃ¼nde":10383,"IP":10384,"Ġruhsat":10385,"Ġadresinden":10386,"Ġakrab":10387,"ahattin":10388,"ĠdÃ¶nÃ¼k":10389,"ĠgÃ¶rÃ¼nÃ¼r":10390,"duklarÄ±nÄ±":10391,"ĠÃľzerine":10392,"aklarÄ±":10393,"ÙĨ":10394,"ullarÄ±":10395,"ĠÃ¶rgÃ¼":10396,"ĠmeÅŁru":10397,"mayacaktÄ±r":10398,"Ġgelebilir":10399,"usa":10400,"ĠToto":10401,"Ġmuayene":10402,"Ġ07":10403,"ĠyaptÄ±rÄ±m":10404,"ĠherÅŁey":10405,"ĠKomutanlÄ±ÄŁÄ±":10406,"ĠKDV":10407,"tisiz":10408,"Af":10409,"Ġkoydu":10410,"ĠgÃ¶Ã§men":10411,"Ġsantral":10412,"Ġkader":10413,"Ġetsin":10414,"ĠMÃ¼n":10415,"sinden":10416,"ĠhÃ¼kÃ¼mleri":10417,"ĠsevdiÄŁim":10418,"ĠbÃ¶lgedeki":10419,"Ġdk":10420,"ames":10421,"ĠBirlik":10422,"ĠHedef":10423,"ĠÄ°mar":10424,"ersek":10425,"abildi":10426,"Ġyetkilileri":10427,"Yine":10428,"sk":10429,"ĠvarlÄ±ÄŁÄ±nÄ±":10430,"amanÄ±n":10431,"ĠparÃ§alar":10432,"ĠkurulmasÄ±":10433,"vis":10434,"buki":10435,"Ġmask":10436,"pro":10437,"Ġdalga":10438,"tiÄŁim":10439,"eda":10440,"ĠimkansÄ±z":10441,"Â°":10442,"over":10443,"ÄŁa":10444,"ĠaÃ§tÄ±ÄŁÄ±":10445,"ĠÃľNÄ°VERS":10446,"peryal":10447,"Ġsitemizde":10448,"Ġpaz":10449,"Ana":10450,"Ġetmeden":10451,"malarda":10452,"Ġdeyip":10453,"ĠtÄ±klayarak":10454,"ĠyapacaÄŁÄ±nÄ±z":10455,"ĠmÃ¼kellef":10456,"ĠtÄ±pkÄ±":10457,"Fir":10458,"ĠCumhurbaÅŁkan":10459,"Ġdegil":10460,"ĠdoÄŁdu":10461,"abey":10462,"ĠkÄ±zar":10463,"Ġtutk":10464,"Ġzorla":10465,"Ġkaleme":10466,"ĠsÃ¶zlerini":10467,"ĠBalkan":10468,"Ġtetik":10469,"ĠhayatÄ±nÄ±n":10470,"Ġsep":10471,"Mes":10472,"ilmesinin":10473,"Ġgelecekte":10474,"ĠKesin":10475,"ĠyÃ¼ks":10476,"Ä±rnak":10477,"ĠHatay":10478,"dy":10479,"ĠElazÄ±ÄŁ":10480,"BaÅŁbakan":10481,"ĠÃ¶ldÃ¼":10482,"ĠKel":10483,"orld":10484,"ĠDa":10485,"ĠbÃ¶cek":10486,"ĠÃ¶ÄŁrenim":10487,"Ġsaatlik":10488,"Ġfiltr":10489,"ua":10490,"Ġag":10491,"Ġtabir":10492,"ĠihtiyaÃ§larÄ±":10493,"ĠNormal":10494,"Ġcerrahi":10495,"ĠTablo":10496,"ĠTÃ¼rkler":10497,"ĠfazlasÄ±yla":10498,"Ġetkisini":10499,"ĠayÄ±nÄ±n":10500,"Ġ52":10501,"ĠdÃ¶nen":10502,"ĠÃ§alÄ±ÅŁmalarÄ±nÄ±n":10503,"ĠiÃ§ten":10504,"ĠSeb":10505,"incan":10506,"ĠolabileceÄŁini":10507,"Ġdiyebiliriz":10508,"ĠiÅŁlemlerini":10509,"Ġyerin":10510,"avv":10511,"ĠMis":10512,"ÃĸZ":10513,"mÄ±ÅŁlar":10514,"ĠMahal":10515,"ĠoÄŁlum":10516,"Ġmuhtar":10517,"Ġerkeklerin":10518,"Ġbakmak":10519,"YukarÄ±":10520,"EFA":10521,"Ġmerdiven":10522,"arac":10523,"ĠbaÅŁlayarak":10524,"Ã¼nÃ¼zÃ¼":10525,"Ġmaliyeti":10526,"ĠtecrÃ¼be":10527,"ĠdetaylarÄ±":10528,"ĠartÄ±ÅŁÄ±":10529,"ĠdeÄŁilse":10530,"ĠDost":10531,"Ġbalkon":10532,"Ġdostu":10533,"Kam":10534,"ilmiÅŁti":10535,"ĠÅŁartlar":10536,"Sar":10537,"ĠÅŁirketlerin":10538,"ayÄ±cÄ±":10539,"uÅŁtuÄŁ":10540,"ĠBrezil":10541,"ĠgereÄŁince":10542,"ĠdeÄŁerler":10543,"tÄ±ÄŁÄ±nda":10544,"Ġtoptan":10545,"ĠToprak":10546,"ĠarkadaÅŁlÄ±k":10547,"onomik":10548,"ĠSekreteri":10549,"ĠyapÄ±ya":10550,"ileriyle":10551,"ĠFull":10552,"ĠkadÄ±na":10553,"ĠMilletler":10554,"Ġgirerek":10555,"Ġeyalet":10556,"GerÃ§":10557,"ĠkÃ¶ylÃ¼":10558,"ĠilaÃ§lar":10559,"ĠfotoÄŁraflarÄ±":10560,"ĠElbette":10561,"ĠgerÃ§ekleÅŁtirdiÄŁi":10562,"ĠTaÅŁÄ±ma":10563,"De":10564,"baÄŁ":10565,"ĠSÄ±cak":10566,"Ġihtimali":10567,"ĠÃĸnemli":10568,"Ġikiye":10569,"Ġekstra":10570,"lantÄ±sÄ±":10571,"ehr":10572,"ĠtasarlanmÄ±ÅŁ":10573,"Ã¼stri":10574,"ĠResim":10575,"ĠÄ°liÅŁkiler":10576,"ĠKÄ±rmÄ±zÄ±":10577,"Ġsenaryo":10578,"ĠTep":10579,"ĠBi":10580,"ĠyayÄ±nlan":10581,"ĠbÃ¶lgesel":10582,"ĠkurduÄŁu":10583,"Ġva":10584,"ĠkÃ¼p":10585,"Ġvergisi":10586,"ĠanlamÄ±yla":10587,"ranÄ±":10588,"ciÄŁer":10589,"eÅŁme":10590,"ĠdÃ¶rdÃ¼ncÃ¼":10591,"Ġizliyor":10592,"Ġanket":10593,"Ġsatan":10594,"Ġseviyesine":10595,"Ġ64":10596,"ĠatÃ¶ly":10597,"outube":10598,"ĠkÄ±smÄ±na":10599,"Ġbulgu":10600,"ĠOL":10601,"Ġrica":10602,"ĠbaÅŁrol":10603,"Ã§uklu":10604,"ĠKaymakamÄ±":10605,"ĠhazÄ±rladÄ±ÄŁÄ±":10606,"ĠkuruluÅŁu":10607,"59":10608,"Ġistedikleri":10609,"Ġcon":10610,"ĠBelediyespor":10611,"mosyon":10612,"ĠkiÅŁiden":10613,"ĠhÃ¼kÃ¼meti":10614,"ĠkullanÄ±ma":10615,"ĠyÃ¼kseliÅŁ":10616,"Ġnazar":10617,"ĠPC":10618,"Ġlif":10619,"piyat":10620,"ĠyÃ¼klÃ¼":10621,"Ġlev":10622,"dunuz":10623,"ĠBa":10624,"ĠGeÃ§miÅŁ":10625,"ĠkullanÄ±lacak":10626,"ĠdavasÄ±":10627,"Ġyemin":10628,"Ġbot":10629,"DÃ¼nyanÄ±n":10630,"Ġekledi":10631,"Ġelektrikli":10632,"tra":10633,"YÃ¼ksek":10634,"alik":10635,"Ġortala":10636,"uÅŁtum":10637,"ĠÄ°Ãĩ":10638,"Ã¼nc":10639,"ĠarttÄ±":10640,"Ġboyutlu":10641,"ĠdirektÃ¶r":10642,"Ġnis":10643,"ĠMADDE":10644,"ĠaydÄ±nlat":10645,"Ġpeynir":10646,"Ġreferandum":10647,"Ġmuhtemelen":10648,"Ġbilgilendirme":10649,"ĠBize":10650,"lasÄ±":10651,"Ġadaylar":10652,"ĠbÃ¶brek":10653,"iyordum":10654,"ĠStratej":10655,"ĠHÄ±zlÄ±":10656,"Ġsitesinden":10657,"ĠÃĸte":10658,"eÄŁiyle":10659,"Ġeksiksiz":10660,"Ġkira":10661,"ational":10662,"ĠVakÄ±f":10663,"ÄŁince":10664,"ARI":10665,"Ġtoplama":10666,"Ġetkinlikleri":10667,"ĠYAP":10668,"ĠÃĩat":10669,"Ġizmir":10670,"Ġpap":10671,"Ġdurumunu":10672,"Ġhastalar":10673,"ĠBakanlar":10674,"Ġyolun":10675,"ĠHesap":10676,"ĠiÅŁken":10677,"ĠaldÄ±ÄŁÄ±nÄ±z":10678,"ĠartÄ±yor":10679,"ĠemeÄŁi":10680,"ĠolacaksÄ±nÄ±z":10681,"ĠÃ§Ã¼r":10682,"ĠolabileceÄŁi":10683,"BÃ¶yle":10684,"ĠEvren":10685,"Ġseminer":10686,"ĠFiyatlarÄ±":10687,"td":10688,"Ġ2001":10689,"Ġvas":10690,"ĠÄ°Ã§iÅŁleri":10691,"parta":10692,"UZ":10693,"ĠkalmasÄ±":10694,"ĠJapon":10695,"Ġilerlem":10696,"Ġtahsis":10697,"Ġfilmleri":10698,"ĠayrÄ±ldÄ±":10699,"Ã§elik":10700,"ĠProt":10701,"ĠBelg":10702,"aci":10703,"64":10704,"ĠMesleki":10705,"iÃ§in":10706,"ĠvasÄ±t":10707,"ĠÄ°nÅŁallah":10708,"Ġmineral":10709,"ocam":10710,"kÃ¼dar":10711,"ĠkoltuÄŁ":10712,"ĠkardeÅŁim":10713,"ĠnoktalarÄ±":10714,"hak":10715,"ĠSuÃ§":10716,"Ġkanseri":10717,"Ã¼zÃ¼n":10718,"elin":10719,"ografi":10720,"Ġbaraj":10721,"ĠCin":10722,"ilde":10723,"AslÄ±nda":10724,"Ġsorgulama":10725,"bÃ¼r":10726,"ĠdoÄŁalgaz":10727,"yalar":10728,"Ġokulu":10729,"enizin":10730,"Ġliman":10731,"Ġnadir":10732,"sede":10733,"Ġemanet":10734,"Ġolas":10735,"ï¿½ï¿½ï¿½":10736,"ĠaÃ§Ä±lmasÄ±":10737,"ĠetmiÅŁti":10738,"Ġadli":10739,"elikop":10740,"Ġmezunu":10741,"ĠkÄ±lÄ±":10742,"OC":10743,"58":10744,"Ã¢s":10745,"Ġmasal":10746,"ĠCerrah":10747,"Ġmelek":10748,"ĠSigorta":10749,"menize":10750,"ĠkÄ±zÄ±n":10751,"ĠÃ§alÄ±ÅŁmalara":10752,"ĠÅŀer":10753,"Herk":10754,"Ä°SÄ°":10755,"ĠseviÅŁ":10756,"ĠayrÄ±c":10757,"ĠuzaklaÅŁ":10758,"arda":10759,"Ġbirimi":10760,"ĠFÄ±rat":10761,"Ġhel":10762,"ĠmÃ¼lt":10763,"ĠyapmÄ±ÅŁtÄ±r":10764,"masya":10765,"ĠyazÄ±lan":10766,"Ġoynat":10767,"Ġked":10768,"ĠgeÃ§irdiÄŁi":10769,"ington":10770,"oban":10771,"ĠboÅŁalt":10772,"ĠsÄ±kÃ§a":10773,"dedi":10774,"iliÄŁinden":10775,"ĠkurallarÄ±":10776,"ĠgÃ¶stergesi":10777,"ĠbaktÄ±ÄŁÄ±mÄ±zda":10778,"Ġasans":10779,"aciÄŁer":10780,"ĠsÃ¶zlÃ¼":10781,"ĠÃ§alÄ±ÅŁanlarÄ±":10782,"ĠEÄŁ":10783,"Ġoturan":10784,"Ġkelimeler":10785,"dÄ±ÄŁÄ±n":10786,"ĠmekÃ¢n":10787,"ĠKKTC":10788,"ĠgÃ¼ncellem":10789,"ĠparayÄ±":10790,"ĠvermiÅŁtir":10791,"ĠpoÅŁ":10792,"Ġsiteler":10793,"http":10794,"ĠÃľNÄ°VERSÄ°TESÄ°":10795,"ĠartÄ±rmak":10796,"ĠdÃ¼nyasÄ±":10797,"ĠbaÅŁlamak":10798,"ArkadaÅŁ":10799,"ĠZeyn":10800,"ĠTrafik":10801,"Ġbulunmayan":10802,"ĠkÃ¶yÃ¼":10803,"ĠTv":10804,"Ġgeldim":10805,"ĠbaÅŁlandÄ±":10806,"Ġfes":10807,"ĠFon":10808,"Ġanlatmak":10809,"âĢĭ":10810,"kif":10811,"Ġbilmeyen":10812,"Ġmidir":10813,"ĠaklÄ±ma":10814,"akkak":10815,"ĠsÃ¼rÃ¼ÅŁ":10816,"ĠettiÄŁim":10817,"kender":10818,"Ġbelirlenir":10819,"ĠJe":10820,"ĠyaÅŁar":10821,"Ġesir":10822,"ĠIP":10823,"Ġ57":10824,"ĠbÄ±raktÄ±":10825,"Ġhayv":10826,"Ġbilgiyi":10827,"Ġmevki":10828,"Ġgetirilmesi":10829,"Ġnihayet":10830,"amÄ±zÄ±n":10831,"Ġgelsin":10832,"ĠkatÄ±lma":10833,"ĠbaÅŁvurusu":10834,"eneral":10835,"!)":10836,"ĠtÃ¼ketici":10837,"Ġtrav":10838,"Ġedilemez":10839,"ĠbahÃ§e":10840,"Ġatmak":10841,"ĠâĨ":10842,"Okul":10843,"Rusya":10844,"Ġtitr":10845,"ĠtecavÃ¼z":10846,"ĠgenÃ§lerin":10847,"takÄ±m":10848,"Ġpatron":10849,"amÄ±za":10850,"Ġmezh":10851,"Ġetmeleri":10852,"cim":10853,"ĠyazÄ±lmÄ±ÅŁ":10854,"Ġbelirlenmesi":10855,"ĠkazÄ±":10856,"Ġdikkati":10857,"Ġmotosiklet":10858,"Ġendek":10859,"Ġverdikleri":10860,"ela":10861,"ĠÃ§if":10862,"Ġkendisinden":10863,"Ġettiklerini":10864,"ĠÃ§Ä±ÄŁ":10865,"raj":10866,"ĠgÃ¼ndÃ¼r":10867,"ĠbaÅŁlatÄ±lan":10868,"Ġmimari":10869,"ĠherÅŁ":10870,"ĠÃ¼ste":10871,"ĠFuar":10872,"Ġbekledi":10873,"Ġkonforlu":10874,"astamonu":10875,"ĠyÃ¶neticileri":10876,"Ġetkisiyle":10877,"Ġduyulan":10878,"ĠaÅŁÄ±":10879,"ĠBasketbol":10880,"ĠBaÅŁkanÄ±mÄ±z":10881,"ĠkaÃ§Ä±nÄ±lmaz":10882,"epyeni":10883,"cular":10884,"TS":10885,"ĠbilinÃ§li":10886,"ĠtÄ±klayÄ±nÄ±z":10887,"ĠGÃ¼mrÃ¼k":10888,"Ġilgisi":10889,"lanmaz":10890,"Ġnelerdir":10891,"Ġ54":10892,"ÄŁÄ±n":10893,"ĠTerc":10894,"ĠsatÄ±lan":10895,"Ġtencer":10896,"ĠÃ§ekerek":10897,"ever":10898,"ĠKanununun":10899,"ĠÃ¶ncelikli":10900,"ĠhÃ¢kim":10901,"ĠhaklarÄ±nÄ±":10902,"ĠAdet":10903,"ĠgÃ¶zÃ¼":10904,"Ġevlat":10905,"Ã¼cel":10906,"lerince":10907,"ĠCas":10908,"Ġsir":10909,"ĠMardin":10910,"dirme":10911,"ĠkÃ¶ÅŁe":10912,"ularak":10913,"Ġbakter":10914,"Ġfull":10915,"ĠTEK":10916,"sc":10917,"ĠAlp":10918,"mÃ¼ÅŁtÃ¼":10919,"ĠÃĩiz":10920,"Ġliraya":10921,"ĠÃ§amaÅŁÄ±r":10922,"Cumhuriyet":10923,"ĠYerel":10924,"Ġtarihsel":10925,"ĠsevdiÄŁi":10926,"ĠhÃ¼cre":10927,"Ġby":10928,"Ġpatates":10929,"Tak":10930,"ĠyaÅŁadÄ±":10931,"ĠmenÃ¼":10932,"Ġkurucusu":10933,"ĠÃĸlÃ§":10934,"ĠAY":10935,"ĠGit":10936,"Ġyapabilecek":10937,"Ġeti":10938,"ida":10939,"ĠÃ§ekilen":10940,"ĠÃ¶ncÃ¼":10941,"ĠTev":10942,"ĠCey":10943,"Ġanlata":10944,"eliyiz":10945,"ĠyapÄ±landÄ±r":10946,"ĠÄ°ncel":10947,"Ġepey":10948,"ĠÃĸy":10949,"Ġetek":10950,"osun":10951,"ĠadÄ±mlar":10952,"Ġgene":10953,"Ġzira":10954,"avan":10955,"âĢ¦âĢĿ":10956,"ĠfakÃ¼lt":10957,"Ġdog":10958,"ĠKitab":10959,"ĠdeÄŁiÅŁtirmek":10960,"ĠalÄ±ndÄ±ÄŁÄ±":10961,"ĠdeÄŁerini":10962,"ĠdirenÃ§":10963,"lamanÄ±n":10964,"ĠmÃ¼slÃ¼man":10965,"ĠÃ¼retici":10966,"lenmektedir":10967,"izmi":10968,"Ġveriliyor":10969,"TM":10970,"oot":10971,"ĠÃ¼lkeyi":10972,"ĠCemal":10973,"Ġbest":10974,"nci":10975,"ĠEng":10976,"ĠMusa":10977,"Ġartar":10978,"Ġhaliyle":10979,"Ã¼ÄŁÃ¼nÃ¼":10980,"idin":10981,"Ġborc":10982,"abilim":10983,"ĠoluÅŁtu":10984,"Ġbuldum":10985,"Ġgerilim":10986,"irkin":10987,"Ġtarafa":10988,"Ġ43":10989,"Ġhocam":10990,"ĠkampanyasÄ±":10991,"Ġintihar":10992,"Ġmemnuniyeti":10993,"ikler":10994,"Ġokudum":10995,"ĠaraÃ§larÄ±n":10996,"ĠaÃ§Ä±ÄŁa":10997,"Ġtemizleme":10998,"ĠÅŀarkÄ±":10999,"ĠBekir":11000,"ĠbaÅŁlÄ±":11001,"Ä°yi":11002,"ĠsÃ¼rdÃ¼rÃ¼yor":11003,"Ġdersleri":11004,"ĠmÃ¼d":11005,"ĠmÃ¼racaat":11006,"Ġplanlanan":11007,"Ġsebz":11008,"Ġhek":11009,"cilerin":11010,"Ġannem":11011,"irse":11012,"etle":11013,"ĠGelin":11014,"LA":11015,"ĠUnut":11016,"ĠAsker":11017,"ĠÃ§ub":11018,"vil":11019,"Ġhaberdar":11020,"Ġkucak":11021,"ĠkÃ¼tÃ¼phan":11022,"Ġcadde":11023,"Ġmenfaat":11024,"Ġdaim":11025,"ĠHad":11026,"ĠsandÄ±k":11027,"ĠpÃ¼r":11028,"Ġnakit":11029,"ĠilÃ§esine":11030,"lÃ¢h":11031,"ĠyÃ¶nÃ¼nden":11032,"Ġaynen":11033,"Ġmahkum":11034,"Ġelden":11035,"GÃ¶z":11036,"ĠSigort":11037,"ĠNes":11038,"END":11039,"ĠmÄ±dÄ±r":11040,"ĠÃĩÃ¶zÃ¼m":11041,"ĠOna":11042,"alÄ±lar":11043,"oyun":11044,"ĠResul":11045,"Ġlimit":11046,"ĠrÃ¼ya":11047,"KÄ±z":11048,"ĠalÄ±ÅŁkanlÄ±k":11049,"ĠÃ§Ã¶zÃ¼nÃ¼r":11050,"ĠKeÅŁ":11051,"Ġarazi":11052,"ĠÃ§Ä±kmaktadÄ±r":11053,"ĠaklÄ±m":11054,"Ġibar":11055,"ĠIII":11056,"ĠgenÃ§lik":11057,"ĠGÃ¶nÃ¼l":11058,"iÃ§re":11059,"ĠgeÃ§erlidir":11060,"ens":11061,"ĠMetal":11062,"ĠÅŁuan":11063,"ĠÄ°sveÃ§":11064,"ĠnamazÄ±":11065,"Ġalmadan":11066,"ĠKomutanÄ±":11067,"Ġedelim":11068,"Ġokulda":11069,"ĠFizik":11070,"........":11071,"Bar":11072,"tuÄŁrul":11073,"ĠtanÄ±ma":11074,"Ġbelirtmek":11075,"Ġmetro":11076,"Merkez":11077,"ĠNATO":11078,"ĠRize":11079,"ĠKum":11080,"iteli":11081,"Ġkurma":11082,"ĠtamamÄ±nÄ±":11083,"Ġhastanede":11084,"ĠakÅŁamÄ±":11085,"ĠgeÃ§mesi":11086,"Ġitiraf":11087,"ĠyÄ±kan":11088,"Ġfav":11089,"ĠkatÄ±lacak":11090,"Ġmisyon":11091,"ĠadlandÄ±rÄ±lan":11092,"ĠHil":11093,"Ġuf":11094,"Ġbenims":11095,"mil":11096,"ĠatÄ±ÅŁ":11097,"Ġkapsayan":11098,"ĠyÃ¼zÃ¼ne":11099,"zel":11100,"Ġyapmadan":11101,"ĠÅŁartÄ±":11102,"ĠbasÄ±":11103,"Ġteminat":11104,"ĠaÃ§Ä±p":11105,"ĠKlima":11106,"Ġseviyesinde":11107,"Ġbelirlem":11108,"Ġreddet":11109,"ralya":11110,"ediÄŁim":11111,"Ġedebilecek":11112,"bulans":11113,"Ġifadesi":11114,"Ġhassasiyet":11115,"Ġharicinde":11116,"ĠYum":11117,"ĠalÄ±na":11118,"ĠAfrin":11119,"ediÄŁimiz":11120,"ĠyaptÄ±klarÄ±nÄ±":11121,"ĠgÃ¶rmez":11122,"dÄ±zÄ±":11123,"Ġmantar":11124,"melerde":11125,"adam":11126,"ĠaÃ§Ä±klamaya":11127,"ĠKÃ¼rd":11128,"ĠPo":11129,"ĠOlarak":11130,"ĠvakÄ±f":11131,"ĠYunus":11132,"ĠsaÄŁladÄ±":11133,"Ġate":11134,"ĠadamlarÄ±":11135,"Ġidrar":11136,"Ã¼rler":11137,"eleme":11138,"PSS":11139,"Ġ85":11140,"ĠnÃ¶bet":11141,"ĠkonuÅŁmada":11142,"Ø±":11143,"Ġpasta":11144,"Ġfrek":11145,"Ġkoyup":11146,"ĠpeÅŁinde":11147,"ĠVekili":11148,"Peki":11149,"Ġklas":11150,"ĠkararÄ±nÄ±":11151,"ĠkullanÄ±lÄ±yor":11152,"ĠdÃ¼ÅŁÃ¼nceler":11153,"Ä±mlÄ±":11154,"gatif":11155,"ĠyÃ¶netmelik":11156,"ĠkapÄ±sÄ±":11157,"Ġkomik":11158,"Ġiltih":11159,"Ġfabrika":11160,"ĠÃĩocuklar":11161,"Ãĸte":11162,"memektedir":11163,"kay":11164,"ĠTelevizyon":11165,"Ġdiyorlar":11166,"Ġistemiyorum":11167,"ĠBurak":11168,"ĠDam":11169,"ĠbaÄŁlantÄ±sÄ±":11170,"ĠpolitikasÄ±":11171,"ĠPap":11172,"liliÄŁini":11173,"ĠsÄ±ÄŁÄ±n":11174,"Ä°st":11175,"Ġded":11176,"ä¸":11177,"ĠgerÃ§ekleÅŁecek":11178,"Ġtehlike":11179,"Ġodaklan":11180,"KÄ±s":11181,"ĠKoÅŁ":11182,"ĠkalmadÄ±":11183,"ĠKiÅŁisel":11184,"resel":11185,"ĠkeÅŁfed":11186,"ĠsoÄŁan":11187,"ediyesi":11188,"ĠeÄŁitime":11189,"Ã¶rek":11190,"SM":11191,"ĠGiresun":11192,"ĠTÃ¼rkÃ§":11193,"ĠaralÄ±ÄŁ":11194,"ĠGr":11195,"Ġiktis":11196,"uhaf":11197,"ĠsÃ¶yleyerek":11198,"ĠtÃ¼zel":11199,"ĠEsen":11200,"atÄ±lÄ±k":11201,"Ġinsanlarla":11202,"ĠdÃ¼zeni":11203,"ĠdeÄŁiÅŁtirme":11204,"Ġsiteye":11205,"umda":11206,"ĠbebeÄŁin":11207,"88":11208,"Ġfacebook":11209,"enlerin":11210,"asay":11211,"Ġpantol":11212,"ĠBurs":11213,"Ġpartner":11214,"Ä°LÄ°":11215,"ĠVeli":11216,"Ġmeme":11217,"Sit":11218,"ĠÄ±ÅŁÄ±n":11219,"ĠduÅŁ":11220,"ĠHastalÄ±klarÄ±":11221,"ĠÃ§im":11222,"Ġfilmde":11223,"ĠHikay":11224,"ree":11225,"Ġmuhtemel":11226,"ĠBAÅŀ":11227,"ĠÅŀey":11228,"fez":11229,"arya":11230,"Ġoranla":11231,"ĠsÄ±rasÄ±yla":11232,"Ġreak":11233,"don":11234,"DK":11235,"marÄ±m":11236,"Ġdinley":11237,"Ġ95":11238,"atay":11239,"ĠÃ§iÃ§":11240,"ĠsÄ±kÄ±ÅŁ":11241,"ĠtanÄ±nan":11242,"ĠSalon":11243,"2009":11244,"Ġpiyasada":11245,"Yer":11246,"idir":11247,"yumu":11248,"Ġdinlem":11249,"ĠkurulmuÅŁtur":11250,"ĠKatÄ±lÄ±m":11251,"Ġ56":11252,"ÃĩÃ¼nkÃ¼":11253,"ĠarÄ±za":11254,"ĠÃĸzdemir":11255,"Ġhd":11256,"ĠArapÃ§a":11257,"ĠbaÅŁkanlÄ±k":11258,"ĠAyÅŁe":11259,"ĠmÃ¼cadelesi":11260,"ĠOrada":11261,"Ä°slam":11262,"Ä°kinci":11263,"limat":11264,"ĠDeÄŁerlendirme":11265,"ĠRehberi":11266,"ĠmÃ¼ÅŁterilerine":11267,"ĠgÃ¼ler":11268,"ĠtecrÃ¼beli":11269,"Ġkusursuz":11270,"Ġyollar":11271,"saspor":11272,"enizde":11273,"Ġtakib":11274,"gÄ±tay":11275,"ehri":11276,"Ġvakti":11277,"ĠkÄ±t":11278,"ĠMag":11279,"iret":11280,"ĠÃ§alÄ±ÅŁÄ±yorum":11281,"ï»":11282,"ĠMuharrem":11283,"\".":11284,"ĠgÃ¶revleri":11285,"ĠErdem":11286,"TÄ°":11287,"delik":11288,"ĠkullanÄ±ÅŁlÄ±":11289,"ĠmÃ¼c":11290,"ĠBakÄ±r":11291,"ĠpuanÄ±":11292,"ĠyaÅŁamÄ±":11293,"Ġyetmez":11294,"amay":11295,"Kah":11296,"ĠyanÄ±l":11297,"ĠAmerikalÄ±":11298,"Ġailesinin":11299,"2008":11300,"ĠmutluluÄŁ":11301,"losu":11302,"eÄŁim":11303,"tenj":11304,"Ġkonsept":11305,"ĠDikkat":11306,"Ġgiriyor":11307,"SaÄŁlÄ±k":11308,"Ġkurab":11309,"yacaÄŁÄ±":11310,"Ġiyilik":11311,"Ġburadaki":11312,"Ġprop":11313,"ĠbaÅŁardÄ±":11314,"fan":11315,"ĠsÃ¶ylediÄŁi":11316,"Ġyil":11317,"Ġ]":11318,"Ġehliyet":11319,"Ġmuam":11320,"Ġhissi":11321,"Ġeuro":11322,"ĠmaÃ§Ä±n":11323,"ĠKahv":11324,"ĠtanrÄ±":11325,"ĠtutarÄ±":11326,"ĠÃ¼nit":11327,"Ġeks":11328,"ĠsayÄ±lan":11329,"ĠyakÄ±nda":11330,"ĠyapÄ±lmasÄ±nÄ±":11331,"ĠGeliÅŁtirme":11332,"Ġsahada":11333,"ĠMÃľ":11334,"ĠkaygÄ±":11335,"ĠsÃ¼recini":11336,"barek":11337,"Ġbilinmektedir":11338,"Ġmerkezleri":11339,"ĠAÄŁrÄ±":11340,"enci":11341,"Ġviz":11342,"Ġant":11343,"71":11344,"Ġrit":11345,"Ġhuzurlu":11346,"labilir":11347,"ÄŀÄ°T":11348,"Ġvideosu":11349,"Ġkonul":11350,"ĠÅŁÃ¼phesiz":11351,"Ġmuhabbet":11352,"ĠsÃ¶zleÅŁmesi":11353,"ĠTatlÄ±":11354,"ĠtÃ¼ketimi":11355,"Ġatarak":11356,"Ġkuran":11357,"melisiniz":11358,"ĠGu":11359,"Ġhi":11360,"Ġdayanan":11361,"ĠgÃ¶receksiniz":11362,"ĠÃ§Ä±karÄ±lan":11363,"Ã§Ä±nÄ±n":11364,"Ġcihazlar":11365,"ĠsÃ¼recinin":11366,"lerinizde":11367,"ĠalacaÄŁÄ±":11368,"ĠbÃ¼rok":11369,"Mah":11370,"ĠyatÄ±rÄ±mcÄ±":11371,"ĠBunlarÄ±":11372,"eÄŁinde":11373,"ĠEbu":11374,"ArtÄ±k":11375,"ĠMit":11376,"Ġyuvarlak":11377,"BaÅŁkan":11378,"ĠKi":11379,"ĠPal":11380,"ĠSÄ±navÄ±":11381,"ÄŁinizde":11382,"ĠSÃ¶y":11383,"ĠÃĩukur":11384,"Ġbam":11385,"ĠyoÄŁurt":11386,"Ġamir":11387,"Ġrejim":11388,"ĠÅŁekeri":11389,"ĠkÃ¢r":11390,"Ġreform":11391,"Ġpasaport":11392,"ĠToplantÄ±sÄ±":11393,"Ã½nda":11394,"Â¼":11395,"Ä±h":11396,"ehmet":11397,"ĠEmlak":11398,"ĠkeÃ§":11399,"ĠyÄ±ÄŁ":11400,"ĠRadyo":11401,"ĠCilt":11402,"GÃ¶n":11403,"ĠFaaliyet":11404,"Ġsponsor":11405,"lana":11406,"ĠgiriÅŁi":11407,"ĠÃ§alÄ±ÅŁanlarÄ±n":11408,"ĠYeter":11409,"ĠyÃ¼rÃ¼ttÃ¼":11410,"Ġ800":11411,".-":11412,"Ġ04":11413,"alisyon":11414,"Ġbakarak":11415,"ĠkÄ±zlar":11416,"naf":11417,"Ġ1999":11418,"ĠkaldÄ±m":11419,"ĠtÃ¶reni":11420,"dÄ±ran":11421,"Ġkurut":11422,"ĠÃ§ekme":11423,"ĠsatÄ±cÄ±":11424,"ĠtÃ¼rleri":11425,"Sadece":11426,"lib":11427,"ĠgÃ¶stererek":11428,"ĠLÃ¼tfen":11429,"56":11430,"ĠTÃ¼ket":11431,"ĠTRT":11432,"lÃ¼kte":11433,"ĠNef":11434,"ĠModern":11435,"Ġdepresyon":11436,"ĠyÃ¼kle":11437,"ĠbaÅŁÄ±nÄ±":11438,"Ġmodeller":11439,"ĠFel":11440,"Ġileride":11441,"ĠÅŀeyh":11442,"ĠgeleceÄŁini":11443,"ĠtaÅŁÄ±r":11444,"ãĢ":11445,"Ġsi":11446,"Ġverirken":11447,"cesi":11448,"ĠkavuÅŁtur":11449,"OÄŀLU":11450,"ĠModa":11451,"ĠBÃ¶ylelikle":11452,"izin":11453,"ĠgÃ¶rÃ¼lebilir":11454,"ĠgeleceÄŁe":11455,"Ġkesintisiz":11456,"Ġcal":11457,"ĠGÃ¶khan":11458,"bab":11459,"Ġgelmek":11460,"leks":11461,"ĠbaÄŁlamda":11462,"eyebilir":11463,"ĠFeth":11464,"ĠMavi":11465,"...]":11466,"ĠDenetim":11467,"oskova":11468,"Ġapartman":11469,"atan":11470,"ĠhaftasÄ±nda":11471,"ĠgÃ¶nderildi":11472,"ĠÃĩel":11473,"ĠÅŁimdiye":11474,"Ġyahut":11475,"ĠAlev":11476,"arlÄ±k":11477,"ĠbaÅŁlÄ±ca":11478,"Ġherhalde":11479,"Ġberek":11480,"ĠAkÅŁam":11481,"cili":11482,"ĠyaÅŁamaya":11483,"Ġkopar":11484,"Kullan":11485,"ergah":11486,"EH":11487,"Ġanalizi":11488,"Ġsergi":11489,"ĠEvden":11490,"Ġkredisi":11491,"Ġtir":11492,"ĠyÃ¼kÃ¼mlÃ¼lÃ¼k":11493,"ĠSekreter":11494,"ĠÃ§adÄ±r":11495,"Ġaskerlik":11496,"ĠAdÄ±yaman":11497,"ĠbaÅŁlattÄ±":11498,"ELÄ°":11499,"Ġsezonu":11500,"ĠyazmÄ±ÅŁ":11501,"ĠoluÅŁturuyor":11502,"uzel":11503,"Ġkonunun":11504,"Ġgazetesi":11505,"Ã½l":11506,"ĠgÃ¶rdÃ¼ÄŁÃ¼nÃ¼z":11507,"ĠBÃ¼y":11508,"ĠyapÄ±lacaÄŁÄ±":11509,"ĠGÃ¼venliÄŁi":11510,"ĠdÃ¶nÃ¼p":11511,"oterapi":11512,"Ġenerjisi":11513,"fone":11514,"larÄ±mÄ±n":11515,"ĠbabasÄ±nÄ±n":11516,"ĠÃľz":11517,"ĠðŁĺ":11518,"ĠTanÄ±tÄ±m":11519,"ĠgeÃ§miÅŁte":11520,"Ġsevinirim":11521,"asal":11522,"Ġneyse":11523,"ĠStandart":11524,"ĠBaÅŁbakanÄ±":11525,"istir":11526,"Ġevli":11527,"ĠsaÄŁlanÄ±r":11528,"Ġ53":11529,"Ġsaray":11530,"Ġyelpaz":11531,"Ġotob":11532,"yacaÄŁÄ±nÄ±z":11533,"navut":11534,"Ġnegatif":11535,"ĠZafer":11536,"ĠEser":11537,"eceÄŁimiz":11538,"arm":11539,"ĠÄ°hracat":11540,"98":11541,"52":11542,"mazlar":11543,"ĠTurgut":11544,"Ġdurak":11545,"ĠyazÄ±mÄ±zda":11546,"ung":11547,"ĠSov":11548,"enleri":11549,"Ġinsani":11550,"koz":11551,"ĠaÃ§Ä±klamasÄ±nda":11552,"ĠÃ§oÄŁunluÄŁu":11553,"Ġaya":11554,"Ġvan":11555,"ĠÃ¶zelliÄŁini":11556,"Ä°MÄ°":11557,"ĠyenilikÃ§i":11558,"Ġsitenin":11559,"Hem":11560,"Ġhain":11561,"Ġbirde":11562,"keme":11563,"kurmay":11564,"ĠiÅŁley":11565,"ĠgittiÄŁi":11566,"ĠsÃ¼recek":11567,"tiz":11568,"ĠanÄ±lan":11569,"ĠarÄ±":11570,"Ġhareketleri":11571,"ĠaltÄ±ndan":11572,"Ġmuhalif":11573,"72":11574,"ĠSelÃ§uklu":11575,"BÃ¶lÃ¼m":11576,"dÃ¼ÄŁÃ¼nde":11577,"ĠyaÅŁta":11578,"ĠKategor":11579,"ĠYayÄ±ncÄ±lÄ±k":11580,"Ã¶zel":11581,"Ġberaberlik":11582,"-)":11583,"ĠgÃ¼Ã§leri":11584,"ĠtÄ±rnak":11585,"Ġtezgah":11586,"ĠYÃ¼ksekokulu":11587,"ĠFaruk":11588,"ĠdÄ±ÅŁarÄ±dan":11589,"Ġduv":11590,"Ġkot":11591,"Ãľniversit":11592,"Ġserin":11593,"ĠÃ§ekt":11594,"Ġdiyoruz":11595,"ĠalÄ±nmÄ±ÅŁtÄ±r":11596,"Hep":11597,"Ġfakir":11598,"hem":11599,"Ġklinik":11600,"Pol":11601,"ĠkazanÄ±r":11602,"ĠbulunmamaktadÄ±r":11603,"ĠdÃ¼zeyinde":11604,"ĠGenellikle":11605,"Et":11606,"ĠasansÃ¶r":11607,"ĠgiriÅŁimi":11608,"ĠBahar":11609,"Ä±lmasÄ±nÄ±n":11610,"ÃľÃ§":11611,"HiÃ§":11612,"ĠGran":11613,"Ġbeyler":11614,"Ã§ika":11615,"ĠhakkÄ±na":11616,"Ġkime":11617,"ĠyazÄ±lar":11618,"ĠfigÃ¼r":11619,"ĠyardÄ±mcÄ±sÄ±":11620,"ĠNil":11621,"ĠRef":11622,"Ġseslendir":11623,"xt":11624,"ĠÃ§eliÅŁ":11625,"ĠBl":11626,"ĠkavramÄ±":11627,"ãģĤãģĤãģĤãģĤãģĤãģĤãģĤãģĤãģĤãģĤãģĤãģĤãģĤãģĤãģĤãģĤ":11628,"YÃ¶n":11629,"Ġanayas":11630,"Ġeminim":11631,"ĠolanlarÄ±":11632,"Ġhikayesi":11633,"KARA":11634,"Ġharam":11635,"Ġaramak":11636,"ĠyÄ±p":11637,"Ġartarak":11638,"Ġotopark":11639,"ory":11640,"ier":11641,"Ġgeleni":11642,"Ġefend":11643,"liydi":11644,"zÄ±":11645,"ĠKurban":11646,"Ġhavada":11647,"dis":11648,"Ġsoya":11649,"Ġdilerim":11650,"ĠbaÅŁlÄ±klarÄ±":11651,"54":11652,"Net":11653,"Ã½z":11654,"ĠgeliÅŁtirilmesi":11655,"Ġzan":11656,"Ġlazer":11657,"so":11658,"ĠUzak":11659,"Ġje":11660,"ĠTamam":11661,"HAL":11662,"ĠHerhangi":11663,"steri":11664,"ĠUSB":11665,"ĠÄ±ÅŁÄ±":11666,"ĠgruplarÄ±":11667,"Ġturu":11668,"ĠbÃ¼yÃ¼yen":11669,"ĠyazÄ±yÄ±":11670,"ĠkÃ¶mÃ¼r":11671,"ĠsÄ±nava":11672,"ĠÃ§oÄŁal":11673,"ĠsayfasÄ±":11674,"ANI":11675,"Ġemlak":11676,"ĠAlanya":11677,"ĠnoktasÄ±na":11678,"ĠMÃ¼steÅŁ":11679,"ĠÃ§Ä±kmÄ±ÅŁtÄ±r":11680,"ĠYalÃ§Ä±n":11681,"ĠÃ¾":11682,"ĠMemur":11683,"ĠsakÄ±n":11684,"ĠÄ°spanyol":11685,"rÃ¼":11686,"Ġvermez":11687,"Ġkasa":11688,"Ġkep":11689,"ĠArtvin":11690,"arka":11691,"Ġbasketbol":11692,"Ġtarifleri":11693,"ĠgÃ¶rÃ¼ldÃ¼ÄŁÃ¼":11694,"Ġmutlak":11695,"ue":11696,"landÄ±ÄŁÄ±nÄ±":11697,"Ġsos":11698,"ĠanlatÄ±":11699,"graf":11700,"Ġgenetik":11701,"ĠgelmiÅŁti":11702,"HY":11703,"Ġbuhar":11704,"ĠMesaj":11705,"ĠgÃ¶revlisi":11706,"Tab":11707,"ĠbuluÅŁtu":11708,"ĠseÃ§imleri":11709,"ĠBilgiler":11710,"Ġparamet":11711,"Ġkongr":11712,"ĠKÄ±zÄ±lay":11713,"ain":11714,"Ġetkileyici":11715,"eteriner":11716,"ĠdÃ¼ÅŁÃ¼nÃ¼yoruz":11717,"Ġbutonuna":11718,"atin":11719,"ĠolaylarÄ±n":11720,"adÃ¼f":11721,"Ġdinle":11722,"61":11723,"falt":11724,"Ġsars":11725,"ĠkÃ¼m":11726,"ĠyaÅŁÄ±na":11727,"ÃľrÃ¼n":11728,"Ġhalini":11729,"GÃ¼zel":11730,"ĠBÃ¼t":11731,"ĠkarÄ±ÅŁÄ±m":11732,"ĠdoÄŁumlu":11733,"ĠtaÅŁÄ±t":11734,"Ġdenli":11735,"ĠBulgaristan":11736,"ĠeÄŁilim":11737,"oker":11738,"ĠaydÄ±r":11739,"ars":11740,"ĠyaÅŁamÄ±n":11741,"ĠhastalarÄ±n":11742,"ĠistediÄŁimiz":11743,"FF":11744,"Ä±labilecek":11745,"ingir":11746,"TP":11747,"lÃ¼t":11748,"Ġoynama":11749,"ĠÅŁehrinde":11750,"è¦":11751,"âĢº":11752,"ahisar":11753,"Ġtopluma":11754,"Ġstad":11755,"ĠbazÄ±nda":11756,"ĠkadÄ±nlara":11757,"ĠtopraÄŁa":11758,"Ġunvan":11759,"ĠeksikliÄŁi":11760,"ĠkÄ±smen":11761,"ĠsÄ±kÄ±ÅŁtÄ±r":11762,"ĠSilahlÄ±":11763,"ecekler":11764,"ilmi":11765,"MET":11766,"ĠKiralama":11767,"ĠÃ¶ÄŁretmenler":11768,"Ġhev":11769,"Ġcild":11770,"ĠBerlin":11771,"lerimizle":11772,"istanbul":11773,"âĢĻ,":11774,"Ġdolap":11775,"ĠSÃ¼rekli":11776,"ĠÃľmit":11777,"oza":11778,"Ġekrana":11779,"Ġyaratmak":11780,"ĠfazlasÄ±nÄ±":11781,"Ã®n":11782,"tiÅŁ":11783,"ĠhÃ¼kÃ¼metin":11784,"Ġsofr":11785,"ĠMilyon":11786,"ĠgeÃ§in":11787,"ĠolduÄŁumu":11788,"Ġnitelendir":11789,"ĠyaptÄ±ktan":11790,"SÃ¼r":11791,"ĠkaldÄ±rÄ±ldÄ±":11792,"evre":11793,"ĠsorunlarÄ±nÄ±":11794,"63":11795,"adar":11796,"Ġfilmler":11797,"ĠÃ¶tesinde":11798,"ĠAS":11799,"Ã½k":11800,"ilmeli":11801,"Ġfiyata":11802,"luÄŁunun":11803,"Ġbant":11804,"ĠOs":11805,"eyecektir":11806,"Ġdergi":11807,"KÄ±":11808,"Ã¼sÃ¼ne":11809,"Ġuygundur":11810,"Ġilke":11811,"Ġkokusu":11812,"ĠYalova":11813,"Ġetkinlikler":11814,"ĠplakalÄ±":11815,"Ġetmesini":11816,"Ġcenaze":11817,"ĠturlarÄ±":11818,"Ġediyordu":11819,"ĠYou":11820,"Ġvideoyu":11821,"Ġderhal":11822,"Ã§ekmece":11823,"ĠOfis":11824,"Ġekme":11825,"Ġserp":11826,"Tel":11827,"daha":11828,"ĠsikiÅŁ":11829,"ĠGiriÅŁim":11830,"Ġbitkisel":11831,"ĠcoÄŁrafy":11832,"Ġkeskin":11833,"Ġkurtulmak":11834,"å¤":11835,"ĠkarÅŁÄ±lamak":11836,"ĠgÃ¶t":11837,"off":11838,"ĠÃ¶dÃ¼lÃ¼":11839,"ĠKurs":11840,"Ġdokuz":11841,"Ġbilinmeyen":11842,"ĠkurumlarÄ±":11843,"ĠÃĸÄŁrenciler":11844,"ĠgerÃ§ekleÅŁtirmek":11845,"ĠkalkÄ±ÅŁ":11846,"Ġbomba":11847,"Ġtaht":11848,"ĠÄ°ST":11849,"Ġyolla":11850,"Ġceh":11851,"Ġtedavisinde":11852,"ĠAta":11853,"Ġkapasitesi":11854,"ĠÃ§alÄ±ÅŁanlar":11855,"ĠsÃ¼tÃ¼":11856,"ĠBorÃ§":11857,"elikopter":11858,"ILI":11859,"onomi":11860,"Ġfed":11861,"iÅŁimi":11862,"ĠÃ¶ÄŁrenebilirsiniz":11863,"Ġ180":11864,"Ġverilerine":11865,"ĠyaÅŁadÄ±klarÄ±":11866,"Adana":11867,"Ġ81":11868,"Ġboyunda":11869,"cuz":11870,"KÃ¼Ã§Ã¼k":11871,"ĠBiliÅŁim":11872,"Ġrenkler":11873,"ĠalkÄ±ÅŁ":11874,"adÄ±ÄŁÄ±nÄ±":11875,"Ġetmeyin":11876,"Ġkilis":11877,"Ġyepyeni":11878,"ĠRak":11879,"ĠÄ°p":11880,"Ġslogan":11881,"ĠÃ¼lkeden":11882,"ĠDiyanet":11883,"ĠiÅŁlemini":11884,"Ġsent":11885,"Ġdileriz":11886,"79":11887,"ĠdÃ¶kÃ¼l":11888,"Ġmesafe":11889,"ĠCami":11890,"Ġdizayn":11891,"ĠOlim":11892,"Gazi":11893,"SeÃ§":11894,"pazarÄ±":11895,"ĠtÄ±kla":11896,"usuyla":11897,"ĠKurumsal":11898,"ĠÅŀÃ¼k":11899,"Ġfas":11900,"amlar":11901,"ĠeÄŁil":11902,"ĠÅŁan":11903,"ĠPil":11904,"Ġunutulmaz":11905,"ĠayÄ±n":11906,"ĠfotoÄŁrafÄ±":11907,"ĠhazÄ±rlanÄ±yor":11908,"ĠÃľye":11909,"Ġkef":11910,"Ġrakib":11911,"Ġkast":11912,"ĠsÃ¶yledik":11913,"ĠdÃ¼ÅŁÃ¼nÃ¼n":11914,"Ġ59":11915,"Ġbelgesel":11916,"ysanÄ±z":11917,"ĠAntik":11918,"Ġsahibinin":11919,"kz":11920,"ï»¿":11921,"ĠSite":11922,"ĠFirma":11923,"ĠakÄ±n":11924,"veÃ§":11925,")'":11926,"maktadÄ±rlar":11927,"aydÄ±n":11928,"Ġresimler":11929,"ĠÅŀef":11930,"etk":11931,"ĠÃ§ektir":11932,"Ġyaban":11933,"ĠÄ°stiklal":11934,"Ġmuz":11935,"ĠÄ°smet":11936,"ĠyÃ¶nelt":11937,"ĠÅŁekillendir":11938,"Ġgelmiyor":11939,"Ġsorusuna":11940,"ĠiÅŁlerini":11941,"ĠyÃ¼rek":11942,"ĠhaftanÄ±n":11943,"Ġeserleri":11944,"ĠzamanÄ±n":11945,"Ġbuzdolab":11946,"ĠiÃ§me":11947,"ĠYÃ¶r":11948,"ĠHÄ±rist":11949,"que":11950,"Ġ51":11951,"elerdir":11952,"ĠTas":11953,"ĠsonuÃ§larÄ±nÄ±":11954,"Ġfaaliyetlerini":11955,"ĠÃ§Ä±kmaya":11956,"aliman":11957,"ĠkiÅŁileri":11958,"ĠDÃ¶nÃ¼ÅŁ":11959,"ĠkullanÄ±cÄ±larÄ±":11960,"Ġvarken":11961,"ĠtabanlÄ±":11962,"Ġco":11963,"ojen":11964,"ĠbaÅŁlayÄ±p":11965,"Ġzihn":11966,"ĠKongre":11967,"Ġlaboratuvar":11968,"ĠsÄ±nÄ±rÄ±":11969,"ĠyÃ¶ntemler":11970,"Ġmasum":11971,"ĠyaÅŁandÄ±ÄŁÄ±":11972,"Ġnci":11973,"ĠSenin":11974,"ĠAvusturya":11975,"Ä¢":11976,"ĠÃ§Ä±karan":11977,"ĠkÄ±rsal":11978,"ĠbirtakÄ±m":11979,"mÄ±ÅŁlardÄ±r":11980,"Ä±msÄ±z":11981,"Ġdetaylar":11982,"Ġbilinir":11983,"ĠbaÄŁÄ±rsak":11984,"Ġebeveyn":11985,"ĠÃ§alÄ±ÅŁacak":11986,"ĠSermaye":11987,"ĠbiÃ§imi":11988,"ĠanlÄ±k":11989,"ĠTemizlik":11990,"Ġsisteminde":11991,"Ġhamile":11992,"ĠvÃ¼cudun":11993,"ĠyÃ¼zÃ¼nÃ¼":11994,"ÅŁa":11995,"TE":11996,"ĠAnt":11997,"Ġbireyler":11998,"lov":11999,"____":12000,"Ġredded":12001,"ĠTurkcell":12002,"lish":12003,"Ġkilometr":12004,"Ġpaketi":12005,"ĠtÃ¼f":12006,"Ġbasamak":12007,"Almanya":12008,"Ġhijyen":12009,"uyuz":12010,"ĠAVM":12011,"Ġbo":12012,"Ġcik":12013,"âĢ²":12014,"ĠKars":12015,"ĠiliÅŁkili":12016,"YK":12017,"ĠEkip":12018,"luÄŁuna":12019,"ĠgerÃ§ekleÅŁtiren":12020,"Ġklav":12021,"Ġbabam":12022,"ĠYolu":12023,"Ġsuyunu":12024,"Ġgetirecek":12025,"ĠsÃ¼rdÃ¼rdÃ¼":12026,"ĠinÃ§":12027,"ĠDuvar":12028,"Ġsalat":12029,"Diy":12030,"Ġ1980":12031,"ĠarÄ±yorum":12032,"ĠbaÅŁlamadan":12033,"ĠÅŁarap":12034,"Ġoldular":12035,"eron":12036,"Ġonar":12037,"BeÅŁiktaÅŁ":12038,"ĠhastalÄ±ÄŁÄ±n":12039,"OG":12040,"SayÄ±n":12041,"ĠLED":12042,"ĠyÃ¼kÃ¼mlÃ¼":12043,"deÄŁer":12044,"ĠaÃ§Ä±lÄ±r":12045,"Ġiv":12046,"aze":12047,"ĠÅŁeytan":12048,"ĠardÄ±":12049,"Ġatar":12050,"ĠgÃ¶nl":12051,"Ġalev":12052,"Ã¼sÃ¼nÃ¼n":12053,"general":12054,"ĠyÄ±llarca":12055,"Ġolduktan":12056,"iyorsa":12057,"Ġkenara":12058,"ĠyapÄ±lmalÄ±dÄ±r":12059,"Ġtayin":12060,"ĠTasarÄ±mÄ±":12061,"Ġgrubun":12062,"Ġbireylerin":12063,"Ġedemez":12064,"Ġrenkleri":12065,"Ġtamamlayan":12066,"ĠyÃ¼zyÄ±lda":12067,"ĠmÃ¼dÃ¼rÃ¼":12068,"Ġbebe":12069,"ĠgÃ¶rÃ¼ÅŁt":12070,"ĠmÃ¼ÅŁterilerimize":12071,"âĢĶ":12072,"ĠyÃ¼rÃ¼":12073,"ĠDÃ¶rt":12074,"ĠaÅŁam":12075,"ĠMol":12076,"Ġgruplar":12077,"ĠKON":12078,"Tam":12079,"ĠmeÅŁgul":12080,"ilmesinde":12081,"Ġbuluyor":12082,"osman":12083,"ĠErtuÄŁrul":12084,"ĠpÄ±r":12085,"ĠÃ¶rne":12086,"Ġmuayen":12087,"ĠedeceÄŁini":12088,"ĠmÃ¼ddet":12089,"Ġyuk":12090,"Ġkavga":12091,"imizdeki":12092,"ĠPir":12093,"ĠEur":12094,"ĠbuÄŁday":12095,"ĠgÃ¶rmeye":12096,"Ġokut":12097,"ĠgÃ¶rÃ¼p":12098,"ĠtebliÄŁ":12099,"ĠAhmed":12100,"Ġeli":12101,"Ġkaydedildi":12102,"ĠErol":12103,"Ġetmeyen":12104,"ĠtÃ¼ken":12105,"Ġ1990":12106,"Ġerit":12107,"ĠTeÅŁekkÃ¼r":12108,"ĠTol":12109,"Ġcumhuriyet":12110,"ĠfarkÄ±na":12111,"Ã»r":12112,"ĠÄ°ktis":12113,"ĠyazÄ±da":12114,"Ġprogramlar":12115,"Ġfiil":12116,"Ġyapama":12117,"ĠyukarÄ±daki":12118,"ademi":12119,"RET":12120,"lig":12121,"ĠbildiÄŁi":12122,"ĠdÃ¼ÅŁÃ¼nm":12123,"ĠbÄ±rakmak":12124,"Ġeskiden":12125,"Ġkopy":12126,"ĠbakÄ±mdan":12127,"koÅŁ":12128,"ĠseÃ§men":12129,"Ġkalmaz":12130,"ÌĨ":12131,"ĠKomitesi":12132,"Ġevrensel":12133,"Ġabi":12134,"alanan":12135,"ĠâĨĴ":12136,"ĠkuruÅŁ":12137,"ĠMarka":12138,"Ġtoplumu":12139,"ĠgÃ¶zleri":12140,"ĠMÃ¼hendislik":12141,"ness":12142,"ĠtÃ¼n":12143,"ĠsorumluluÄŁu":12144,"Ġhissede":12145,"Ġkib":12146,"Say":12147,"ĠkÃ¶tÃ¼lÃ¼k":12148,"ĠburasÄ±":12149,"Ġvesil":12150,"ĠfÄ±ndÄ±k":12151,"ĠKolay":12152,"ĠÃ§Ã¶zÃ¼l":12153,"ĠolmaksÄ±zÄ±n":12154,"ĠniteliÄŁinde":12155,"Ali":12156,"ĠsÃ¶zcÃ¼":12157,"ĠSad":12158,"fÃ¼m":12159,"ĠHayvancÄ±lÄ±k":12160,"Ġkaba":12161,"ĠÃ§orb":12162,"ild":12163,"Ġistediklerini":12164,"ĠaÄŁÄ±":12165,"Ġ68":12166,"ĠDili":12167,"Ġkentin":12168,"Ġkayd":12169,"anik":12170,"HayÄ±r":12171,"ĠKapalÄ±":12172,"ĠÃ§Ä±lgÄ±n":12173,"larsa":12174,"ref":12175,"ĠsonlandÄ±r":12176,"Hayat":12177,"Haf":12178,"ĠDakika":12179,"ĠmÃ¼ziÄŁi":12180,"Ġkatil":12181,"mayÄ±p":12182,"Ġarayarak":12183,"ĠgÃ¼b":12184,"Ġbeyn":12185,"YÃ¼z":12186,"Ġyoksun":12187,"ĠÃ¶zlem":12188,"ĠÅŁen":12189,"Ġvurgulan":12190,"Ġetap":12191,"DeÄŁ":12192,"sÃ¶z":12193,"Ġtelefondan":12194,"ĠYazÄ±lÄ±m":12195,"ĠsaÄŁlayarak":12196,"ĠMc":12197,"Ġordus":12198,"Ġkentinde":12199,"ĠEh":12200,"Ġmesafede":12201,"ĠYahudi":12202,"ĠYÄ±k":12203,"ĠBirbir":12204,"Ġceb":12205,"ĠiÅŁine":12206,"Ġkuruldu":12207,"lenecek":12208,"ĠkÄ±smÄ±nÄ±n":12209,",âĢĿ":12210,"Ġetkisiz":12211,"ĠrolÃ¼":12212,"ĠyapalÄ±m":12213,"Ġgerektirir":12214,"ĠÃĩevr":12215,"Ġizleyic":12216,"ĠDevam":12217,"Ġcem":12218,"ĠÃ§alÄ±ÅŁmanÄ±n":12219,"ĠÃ¼ncÃ¼":12220,"Ġtank":12221,"ĠDolar":12222,"ĠgÃ¼ncelleme":12223,"artÄ±n":12224,"ĠdeÄŁerlendirilmesi":12225,"Ġkombi":12226,"ĠgÃ¼zergah":12227,"ĠgÃ¶vde":12228,"ĠaÃ§Ä±klanan":12229,"baÅŁka":12230,"ĠÅŀehircilik":12231,"imiÃ§i":12232,"ĠvasÄ±tasÄ±yla":12233,"ĠHaberler":12234,"ĠyaÅŁÄ±yoruz":12235,"ĠaktÃ¶r":12236,"Ġiyisi":12237,"ĠØ§":12238,"pas":12239,"ĠBizans":12240,"Ġkarara":12241,"BaÄŁ":12242,"Ġgor":12243,"ĠihtiyacÄ±nÄ±":12244,"ĠPlanÄ±":12245,"ĠuÄŁ":12246,"Ġemeklilik":12247,"ĠFatma":12248,"Ġzeka":12249,"ozgat":12250,"bolu":12251,"Ùħ":12252,"Ġpres":12253,"ĠKullanÄ±m":12254,"ĠgetirmiÅŁ":12255,"ĠiddialÄ±":12256,"ĠfotoÄŁraflar":12257,"ĠYÃ¶netmeliÄŁi":12258,"ersen":12259,"Ġdostluk":12260,"ĠsevinÃ§":12261,"Ġkuz":12262,"edia":12263,"Hak":12264,"ĠbaskÄ±n":12265,"Ġzarf":12266,"AÄŁ":12267,"aspor":12268,"ĠÃĸlÃ¼m":12269,"aganda":12270,"Ã¼phe":12271,"ĠKanada":12272,"Ġnar":12273,"ĠdemiÅŁti":12274,"CO":12275,"ĠdoÄŁrul":12276,"ĠkonuÅŁmasÄ±nda":12277,"ĠgÃ¶nderdi":12278,"ĠÄ°dari":12279,"ĠEvi":12280,"ĠSerdar":12281,"ladÄ±ÄŁÄ±mÄ±z":12282,"ĠarayÃ¼z":12283,"ĠbarÄ±ndÄ±ran":12284,"Ġhepimizin":12285,"Ġdiyalog":12286,"emeye":12287,"yetik":12288,"ds":12289,"aleti":12290,"Ä±rda":12291,"ĠbaÄŁlantÄ±lÄ±":12292,"ĠEÄŀÄ°T":12293,"ledikleri":12294,"ĠRah":12295,"AtatÃ¼rk":12296,"Gir":12297,"ĠgÃ¶rÃ¼ntÃ¼ler":12298,"ĠkÄ±ymetli":12299,"Ġyirmi":12300,"fesÃ¶r":12301,"lenin":12302,"Ġsitesine":12303,"ĠÃ¼rÃ¼nlerinin":12304,"luyum":12305,"ĠHaftasÄ±":12306,"Ġkoymak":12307,"ĠdÃ¼ÅŁÃ¼nerek":12308,"ĠHab":12309,"ĠkullanÄ±yorum":12310,"Ġruhsal":12311,"ĠÅŁeri":12312,"Ġdersler":12313,"Ġdurumdan":12314,"baba":12315,"ettÃ¼r":12316,"ĠkanalÄ±":12317,"Ġifadesini":12318,"Ä°nternet":12319,"ĠMari":12320,"ĠMy":12321,"Ġmeselesi":12322,"unt":12323,"gir":12324,"KÃ¶":12325,"izy":12326,"omi":12327,"2019":12328,"Ġkarakteri":12329,"ĠSarayÄ±":12330,"atlarÄ±":12331,"Ġ700":12332,"ĠartÄ±":12333,"ĠSuriyeli":12334,"dÃ¼kten":12335,"iger":12336,"ruklu":12337,"lediklerini":12338,"Ġlogo":12339,"anlÄ±ÅŁ":12340,"ĠhazÄ±rlamak":12341,"51":12342,"ĠdilediÄŁiniz":12343,"Â§":12344,"ĠdÃ¼ÅŁÃ¼yor":12345,"ĠayÄ±na":12346,"ĠLef":12347,"ĠGiz":12348,"Ġborcu":12349,"Ġsolunum":12350,"ĠiÅŁg":12351,"73":12352,"ĠsÃ¶yleÅŁ":12353,"ĠGeÃ§tiÄŁimiz":12354,"ekke":12355,"Ġveda":12356,"ĠarasÄ±ndadÄ±r":12357,"ĠÃ¶te":12358,"Ġderler":12359,"ĠgÃ¶rÃ¼yorum":12360,"ĠsuÃ§lu":12361,"ĠÃ§ikolata":12362,"crip":12363,"Trabzon":12364,"dest":12365,"Ġzann":12366,"dini":12367,"Ġpersonelin":12368,"lenebilir":12369,"ĠTrak":12370,"ĠtaÅŁÄ±macÄ±lÄ±k":12371,"ĠBulun":12372,"Ġsark":12373,"ĠOlaÄŁan":12374,"ĠGÃ¼len":12375,"ĠMutlu":12376,"ĠverildiÄŁi":12377,"Ġmetabol":12378,"beti":12379,"Ġbuyurdu":12380,"Ġfiyatlarla":12381,"ĠBizler":12382,"ĠÃ§alÄ±ÅŁtÄ±m":12383,"ĠPazarlama":12384,"Ġdefalarca":12385,"Ġisabet":12386,"Ġsitesinin":12387,"ĠiÅŁsiz":12388,"Ġstandar":12389,"Ġminimum":12390,"ĠAÃ§ma":12391,"ĠAlanÄ±":12392,"Ġseviyeye":12393,"ĠHalÄ±":12394,"ĠendiÅŁe":12395,"ĠuyuÅŁ":12396,"ĠkararlarÄ±":12397,"eksel":12398,"Ġpast":12399,"ĠiÅŁlemlerinin":12400,"Ġaldat":12401,"ĠkadÄ±nlarÄ±":12402,"ĠTeknolojileri":12403,"ĠÄ±ÅŁÄ±ÄŁÄ±":12404,"ettin":12405,"ĠÄ°pek":12406,"memiÅŁtir":12407,"Ġbelirsiz":12408,"odafone":12409,"Ġduyan":12410,"ĠYrd":12411,"Ya":12412,"iha":12413,"ĠKiralÄ±k":12414,"ĠgeÃ§ip":12415,"ĠedeceÄŁi":12416,"tes":12417,"ĠvuruÅŁ":12418,"Ġkendinden":12419,"mazlÄ±k":12420,"Ä±nÄ±p":12421,"ĠYazÄ±cÄ±":12422,"alizasyon":12423,"ĠsÃ¶ndÃ¼r":12424,"ĠÎ":12425,"ĠUsul":12426,"larÄ±mla":12427,"sÄ±nÄ±":12428,"Ġkomb":12429,"Ġilgisini":12430,"AydÄ±n":12431,"ĠBÃĸ":12432,"YapÄ±lan":12433,"Fa":12434,"ĠCD":12435,"ĠmÃ¼lkiyet":12436,"TÄ°R":12437,"ĠsaÄŁlama":12438,"mod":12439,"Ġihbar":12440,"Ġkenti":12441,"Ġeserler":12442,"ĠYÃ¼ce":12443,"Ġhayvanlar":12444,"Ġplanlama":12445,"insan":12446,"sten":12447,"Ġdiyebilirim":12448,"iyenin":12449,"Ġhele":12450,"izmin":12451,"ĠaÄŁac":12452,"ĠÃ§alÄ±ÅŁmalarÄ±nda":12453,"hy":12454,"Ã§o":12455,"Ġkocaman":12456,"Ġimaj":12457,"ĠparasÄ±":12458,"74":12459,"ĠHÃ¼rriyet":12460,"ĠkanalÄ±nda":12461,"ĠaydÄ±nlatma":12462,"ĠbiÅŁ":12463,"ĠTekirdaÄŁ":12464,"Ġprensip":12465,"ĠYÃ¶ntem":12466,"ĠdÃ¼ÅŁÃ¼ndÃ¼m":12467,"Ġtoplumda":12468,"Ġinceleyebilirsiniz":12469,"ĠbÃ¶lÃ¼mÃ¼ne":12470,"Ġaralar":12471,"ĠBuz":12472,"une":12473,"ĠDemirtaÅŁ":12474,"Ġiseniz":12475,"Ġnasip":12476,"ĠcevabÄ±nÄ±":12477,"diki":12478,"ĠsÃ¶zde":12479,"Ã¡":12480,"ĠÅŀem":12481,"ĠUN":12482,"Ġharik":12483,"deler":12484,"ingÃ¶l":12485,"ĠyÄ±ldÃ¶n":12486,"masa":12487,"langÄ±Ã§":12488,"Ġfelaket":12489,"daa":12490,"Ġteknolojileri":12491,"ĠyazdÄ±r":12492,"ĠsÃ¼p":12493,"afak":12494,"mayÄ±nÄ±z":12495,"ĠsÃ¼recin":12496,"Ġbelirlemek":12497,"vur":12498,"ĠÃľnal":12499,"Ġtansiyon":12500,"ĠDekor":12501,"Ġkontr":12502,"ĠkullanÄ±mÄ±na":12503,"Ġvadede":12504,"ĠdeÄŁiliz":12505,"Ġdamla":12506,"Ġtakdim":12507,"ĠÅŁeffaf":12508,"tiniz":12509,"GÃ¼nÃ¼mÃ¼zde":12510,"eyz":12511,"ĠGÃľN":12512,"ĠYIL":12513,"Ġplatformu":12514,"atÃ¼r":12515,"ĠÃ¼mit":12516,"ĠÃ§ocuÄŁa":12517,"Ġoturup":12518,"RAM":12519,"ĠAlÄ±ÅŁveriÅŁ":12520,"Ġzihinsel":12521,"è¦º":12522,"Ġkitapta":12523,"ĠÃ§eyrek":12524,"ĠSEO":12525,"allÄ±":12526,"ĠdireniÅŁ":12527,"YON":12528,"ĠÃ§Ä±karma":12529,"Ġcom":12530,"Ġmesai":12531,"ĠAnlat":12532,"Ġdeyince":12533,"Ġhizmetini":12534,"ĠGÃ¼ler":12535,"ĠkÄ±lan":12536,"ĠBatman":12537,"Ġailesine":12538,"ĠkorkunÃ§":12539,"ĠhÄ±rsÄ±z":12540,"ĠarayÄ±p":12541,"ĠRaporu":12542,"Ġyeterlidir":12543,"Ġalerj":12544,"ĠdurumlarÄ±":12545,"ĠBed":12546,"ĠyaptÄ±lar":12547,"iet":12548,"ĠalÄ±yoruz":12549,"Ġdenildi":12550,"ĠMoskova":12551,"ĠeklenmiÅŁ":12552,"Ġhayati":12553,"SYM":12554,"kisi":12555,"kileri":12556,"Ġkarg":12557,"ahan":12558,"Ġkont":12559,"ike":12560,"Ġpartinin":12561,"ĠĠĠĠĠĠĠĠ":12562,"larÄ±nÄ±zla":12563,"ĠCity":12564,"olan":12565,"ĠÅŁap":12566,"deres":12567,"FenerbahÃ§e":12568,"unuzda":12569,"ĠhÃ¼kÃ¼mlerine":12570,"ĠsayÄ±n":12571,"eybol":12572,"ĠKole":12573,"ĠgÃ¼":12574,"ĠsÃ¶yleyebiliriz":12575,"ĠadaylarÄ±n":12576,"ĠYahud":12577,"ĠBerk":12578,"ĠKonser":12579,"Ġnice":12580,"ĠÃ¶lÃ§ekli":12581,"ĠKursu":12582,"civ":12583,"giltere":12584,"ĠYarÄ±ÅŁmasÄ±":12585,"abiliyorsunuz":12586,"ĠtadÄ±":12587,"ĠTS":12588,"Ġteknikleri":12589,"ĠÃ§ektiÄŁi":12590,"Ġmetrekar":12591,"Ã°i":12592,"Ġedilmesini":12593,"con":12594,"ĠkÄ±zÄ±m":12595,"ĠkarÄ±ÅŁtÄ±rÄ±n":12596,"port":12597,"ĠsaÄŁlanan":12598,"ĠÄ°f":12599,"ĠÃ¶fk":12600,"ĠÅŁebek":12601,"Ġdib":12602,"ĠKey":12603,"ĠkazanÄ±m":12604,"ĠtaÅŁÄ±maktadÄ±r":12605,"taydÄ±":12606,"Ġadil":12607,"ĠyÃ¼zme":12608,"ĠÃ§irkin":12609,"Ġdestekleyen":12610,"Ä°P":12611,"ĠÅŁeklindeki":12612,"Ġert":12613,"×Ĺ":12614,"yani":12615,"ÄŁinize":12616,"ĠbinasÄ±":12617,"ĠZonguldak":12618,"ĠmÃ¼f":12619,"ĠsÃ¶zÃ¼nÃ¼":12620,"ĠHekim":12621,"ĠyapÄ±nÄ±n":12622,"onuÃ§":12623,"ĠalanÄ±ndaki":12624,"ĠayaÄŁa":12625,"ilemez":12626,"ikleri":12627,"ĠadaylarÄ±":12628,"Elekt":12629,"ĠaldÄ±r":12630,"esten":12631,"ĠNas":12632,"ule":12633,"ulab":12634,"ĠPolat":12635,"ĠdÄ±ÅŁarÄ±da":12636,"ĠiÅŁyeri":12637,"ĠgÃ¶zle":12638,"ĠMadrid":12639,"Ġinternette":12640,"ĠAfgan":12641,"ĠÄ°sviÃ§re":12642,"ĠÅŁofÃ¶r":12643,"larÃ½":12644,"ĠÃĩorum":12645,"Ã¼lecek":12646,"Ġfeder":12647,"oksi":12648,"Ġfilan":12649,"ĠAngel":12650,"ney":12651,"ĠPlus":12652,"ĠdÄ±ÅŁÄ±ndan":12653,"ĠAst":12654,"ĠÃ¼yeli":12655,"aktif":12656,"fiye":12657,"ĠyaptÄ±rmak":12658,"mamÄ±zÄ±":12659,"ĠPamuk":12660,"ĠkimliÄŁi":12661,"cm":12662,"ĠdÃ¶neme":12663,"Not":12664,"ĠAnayas":12665,"Ġ99":12666,"Ġbankalar":12667,"ĠdÃ¼zenleyen":12668,"Ġvaran":12669,"Ġambulans":12670,",\"":12671,"ĠkarÅŁÄ±nÄ±za":12672,"Ġyatan":12673,"ĠGeniÅŁ":12674,"ĠmantÄ±klÄ±":12675,"Yani":12676,"Ġhelal":12677,"eck":12678,"ĠiÅŁareti":12679,"Ġgirmesi":12680,"EÅŁ":12681,"Ġekleyip":12682,"Ġcehenn":12683,"ĠseÃ§ildi":12684,"odik":12685,"Ġmuhakkak":12686,"ĠÃ¼zÃ¼m":12687,"Ġetmiyor":12688,"mran":12689,"Ġkeyfi":12690,"liyorum":12691,"ĠÃ¼lkemize":12692,"ĠÄ°slami":12693,"Ä°LER":12694,"ĠdeÄŁiÅŁti":12695,"Ġimparator":12696,"Ġlamb":12697,"sir":12698,"ĠKafkas":12699,"ĠalanÄ±n":12700,"Ġsesini":12701,"ĠFabrik":12702,"Ġtekstil":12703,"Ġkelimesi":12704,"ĠBulut":12705,"Ġduyuru":12706,"Ġizleyebilirsiniz":12707,"ĠkÃ¶klÃ¼":12708,"ĠÅŁÃ¼phel":12709,"ÃħÅ¸":12710,"Ġmiting":12711,"ĠÃ¶lÃ¼mÃ¼":12712,"miÅŁtim":12713,"Ġuygulanacak":12714,"ĠsarÄ±m":12715,"ĠÃ¼cretleri":12716,"ĠiÃ§indir":12717,"Ġkimdir":12718,"Ġsuda":12719,"siyle":12720,"ĠKÃ¶k":12721,"ĠLevent":12722,"ĠÃ¶zelliklere":12723,"DÃ¼z":12724,"ĠÃ§Ä±":12725,"eneÄŁini":12726,"ĠyaÅŁadÄ±ÄŁÄ±mÄ±z":12727,"PD":12728,"lÄ±nÄ±n":12729,"Ġizn":12730,"ebilme":12731,"Ġaksiyon":12732,"ĠbinanÄ±n":12733,"ekiz":12734,"ĠamatÃ¶r":12735,"ĠkÄ±lavuz":12736,"inli":12737,"ĠkÃ¶kenli":12738,"ĠMilliyet":12739,"Ä±ldÄ±m":12740,"Ġgelecektir":12741,"ahit":12742,"Ġgelmeye":12743,"ĠÅŀÃ¼ph":12744,"ĠSivil":12745,"hir":12746,"ĠÃľlkemizde":12747,"ĠkurumlarÄ±n":12748,"ĠÃ§oktan":12749,"ĠÄ±sÄ±n":12750,"Olay":12751,"Ġetnik":12752,"ĠISO":12753,"ĠgeÃ§irilen":12754,"Ġederse":12755,"tÄ±nÄ±z":12756,"ĠYÃĸN":12757,"ĠkeÅŁif":12758,"'m":12759,"Ġpul":12760,"dinilen":12761,"ĠLok":12762,"ĠyÃ¶nden":12763,"Google":12764,"ĠÄ°Y":12765,"ĠadÄ±nda":12766,"Ġceviz":12767,"Suriye":12768,"Ġsezonunda":12769,"ĠYET":12770,"ĠbelirlenmiÅŁ":12771,"Ġoperasyonu":12772,"ĠKurtuluÅŁ":12773,"Ġkentsel":12774,"diÄŁinde":12775,"ĠiÅŁsizlik":12776,"ĠDÃ¼ÄŁÃ¼n":12777,"ĠgeliÅŁmesi":12778,"Ġca":12779,"ĠÃ§ocuklarÄ±nÄ±n":12780,"lenmesine":12781,"ĠAdem":12782,"ĠSayÄ±sÄ±":12783,"ĠAtak":12784,"Ġveriyorum":12785,"ĠbaÅŁlamÄ±ÅŁtÄ±":12786,"ĠOR":12787,"isy":12788,"Ġkazanma":12789,"Ġyut":12790,"ĠÃ§alÄ±ÅŁmada":12791,"Ġbirebir":12792,"ĠSerbest":12793,"ceÄŁini":12794,"Ġolanlara":12795,"ĠcihazlarÄ±":12796,"Ġproblemleri":12797,"ĠAvukat":12798,"yacaÄŁÄ±m":12799,"ĠalmanÄ±z":12800,"Ġilde":12801,"Ġbulup":12802,"ĠHarit":12803,"ĠkÄ±n":12804,"aÅŁehir":12805,"lass":12806,"ĠtamamlandÄ±":12807,"ĠdÃ¼zenlemeler":12808,"ĠÄ°hale":12809,"ĠGÃ¶lÃ¼":12810,"Fi":12811,"ashington":12812,"ĠRed":12813,"ulduÄŁu":12814,"ĠiÅŁÃ§iler":12815,"ĠNor":12816,"Ġtahliye":12817,"ĠkurÅŁun":12818,"biye":12819,"ĠCor":12820,"ulabilir":12821,"ĠÃ¶mrÃ¼":12822,"ĠarkasÄ±ndan":12823,"ĠmuhtaÃ§":12824,"Ġoksijen":12825,"ĠDijital":12826,"ĠiÅŁle":12827,"Ã¼nÃ¼ze":12828,"ĠÃ§et":12829,"Ġ72":12830,"fe":12831,"Ġkontenj":12832,"Ġanlatmaya":12833,"Ġhastalarda":12834,"ĠyÃ¼rÃ¼tÃ¼l":12835,"ĠsÃ¼recine":12836,"ĠkÄ±skan":12837,"ĠUEFA":12838,"Ġvermeyi":12839,"Ġyemekleri":12840,"ĠbÃ¶lgesine":12841,"esih":12842,"ĠÃ§eker":12843,"ĠÃ§arpÄ±cÄ±":12844,"ĠHatip":12845,"iyotik":12846,"ĠportfÃ¶y":12847,"ling":12848,"ĠEkran":12849,"idd":12850,"ĠKahramanmaraÅŁ":12851,"ÙĲ":12852,"Ã¢k":12853,"Ġdest":12854,"Ġperakende":12855,"ĠyollarÄ±nÄ±":12856,"Ġtalepleri":12857,"ĠEst":12858,"evÃ®":12859,"ĠyakalandÄ±":12860,"araba":12861,"ĠBirleÅŁmiÅŁ":12862,"Ġsundu":12863,"ĠÃ¶ldÃ¼rÃ¼l":12864,"Ġyiye":12865,"ĠAvrup":12866,"ĠseÃ§imlerde":12867,"ĠÃ§orba":12868,"ĠbÄ±r":12869,"IV":12870,"Ġmuhabir":12871,"ifer":12872,"ĠBence":12873,"Az":12874,"ĠumarÄ±m":12875,"tum":12876,"ikli":12877,"ĠSuper":12878,"ĠElem":12879,"ĠÃľskÃ¼dar":12880,"Ġfos":12881,"ĠbeÄŁendi":12882,"ĠkaldÄ±rÄ±lmasÄ±":12883,"ĠÃĩocuÄŁ":12884,"MHP":12885,"Ã§iliÄŁi":12886,"ĠtesadÃ¼f":12887,"ĠayÄ±rt":12888,"lamÄ±yor":12889,"ĠÃĸzkan":12890,"Mut":12891,"Ġelma":12892,"ĠAnabilim":12893,"ĠEfendimiz":12894,"dÄ±ÄŁÄ±mÄ±":12895,"ĠoperatÃ¶r":12896,"ĠÃ¶demeler":12897,"Anadolu":12898,"Ġhikmet":12899,"Ġanayasa":12900,"ĠtutuklandÄ±":12901,"ĠÅŁartlarda":12902,"ĠÂĳ":12903,"ayollarÄ±":12904,"limi":12905,"ĠkadarÄ±yla":12906,"ĠhesabÄ±ndan":12907,"Ġpamuk":12908,"iper":12909,"Ġallah":12910,"taur":12911,"ĠMi":12912,"ĠLtd":12913,"Ġhesaba":12914,"ĠolmayacaktÄ±r":12915,"arÅŁ":12916,"Ġmuhat":12917,"!!!":12918,"Ġrah":12919,"Ġyazmaya":12920,"ĠKarabÃ¼k":12921,"Ġterap":12922,"ĠistemiÅŁ":12923,"ĠÃ¢lem":12924,"ĠaldÄ±ktan":12925,"iliÄŁe":12926,"ĠÃ§eyre":12927,"ĠdeÄŁiÅŁir":12928,"sad":12929,"atik":12930,"Ä±mÄ±zla":12931,"ĠÃĩakÄ±r":12932,"ĠsayÄ±sÄ±z":12933,"Ġetmenin":12934,"Ġmerhaba":12935,"ĠMevcut":12936,"ico":12937,"ĠpeÅŁin":12938,"Ġverilerin":12939,"Fakat":12940,"Ġkonumunda":12941,"ĠbÃ¶lgesindeki":12942,"Ã¼ÄŁÃ¼nde":12943,"Ġtalebinde":12944,"mine":12945,"Ġtahta":12946,"Ä±dÄ±r":12947,"62":12948,"aden":12949,"ĠhÃ¼r":12950,"Oyun":12951,"ĠbaÅŁladÄ±ÄŁÄ±nÄ±":12952,"Ġtersine":12953,"ÄŁinizin":12954,"Ġ[...]":12955,"Ġnefis":12956,"Galatasaray":12957,"urlar":12958,"ĠDavutoÄŁlu":12959,"ĠiÅŁÃ§ilerin":12960,"ĠbulunduklarÄ±":12961,"Ġkorum":12962,"ĠEvde":12963,"ĠSanay":12964,"ĠkazanmÄ±ÅŁ":12965,"Ġkapital":12966,"Ġsalonunda":12967,"Ġpartisi":12968,"ErdoÄŁan":12969,"atÃ§Ä±":12970,"BM":12971,"ĠYargÄ±tay":12972,"ĠtoplantÄ±ya":12973,"atma":12974,"leyebilirsiniz":12975,"ĠtÃ¼rkÃ¼":12976,"abo":12977,"Ġdiledi":12978,"ĠnÃ¼fusu":12979,"ĠdeyiÅŁ":12980,"ahtarÄ±":12981,"Ġyapanlar":12982,"ĠbakanlÄ±k":12983,"Un":12984,"Ġ69":12985,"Ġoturt":12986,"ĠiÅŁlemlerin":12987,"Ġgereksinim":12988,"udum":12989,"ĠoranÄ±nÄ±n":12990,"ĠDÃ¼zce":12991,"Ġkronik":12992,"Ġkesme":12993,"Ġvermekteyiz":12994,"Bit":12995,"Ġkurtarma":12996,"Ġyerlerden":12997,"ĠÃ§alÄ±ÅŁarak":12998,"ĠseÃ§imlerinde":12999,"Ġsef":13000,"ĠValiliÄŁi":13001,"ĠeÄŁitimin":13002,"iden":13003,"Ġlitre":13004,"ĠcoÅŁk":13005,"DÄ±ÅŁ":13006,"ĠakciÄŁer":13007,"amÄ±zdan":13008,"mÃ¼":13009,"juv":13010,"ĠAjans":13011,"teb":13012,"ĠmaÄŁaza":13013,"ĠiOS":13014,"ĠAksaray":13015,"ĠPlatformu":13016,"Ġdinin":13017,"ĠyazÄ±cÄ±":13018,"Ġterey":13019,"ĠaÅŁan":13020,"ĠyÃ¼ce":13021,"tayÄ±m":13022,"Ġemperyal":13023,"ĠBildir":13024,"ĠEndek":13025,"Ġmoral":13026,"Ä±yaka":13027,"Ġpropaganda":13028,"Ġkesint":13029,"Ġdeplasmanda":13030,"Ã°Ã½":13031,"Ver":13032,"ĠateÅŁli":13033,"ction":13034,"ĠyÃ¶neticisi":13035,"ĠbaÅŁladÄ±lar":13036,"Ġkis":13037,"olik":13038,"Ġmakale":13039,"ĠkullanÄ±lmÄ±ÅŁtÄ±r":13040,"ĠDu":13041,"ush":13042,"ĠolanaÄŁÄ±":13043,"Ġbitkiler":13044,"Ġferah":13045,"ĠÄ°skender":13046,"Ġaktaran":13047,"Ġhizmetlere":13048,"ĠCEO":13049,"ĠEngin":13050,"ĠÃ§anta":13051,"ĠbaktÄ±m":13052,"Ã¼cÃ¼k":13053,"ĠkaydÄ±yla":13054,"ĠOtomobil":13055,"ĠfarkÄ±ndalÄ±k":13056,"ĠoyuncularÄ±":13057,"ĠgÃ¼nlerinde":13058,"ota":13059,"ĠEsnaf":13060,"ĠUmut":13061,"mayalÄ±m":13062,"ĠPatent":13063,"ĠhastalÄ±klar":13064,"ladÄ±k":13065,"kÃ¶":13066,"Ð°Ð":13067,"linin":13068,"Ġmalzemesi":13069,"ĠyazÄ±larÄ±":13070,"Ġertesi":13071,"Ġkatman":13072,"ĠfÄ±rÃ§":13073,"Ġlav":13074,"ĠBitcoin":13075,"ĠeÄŁitimini":13076,"Ġkare":13077,"Ġita":13078,"ĠkaraciÄŁer":13079,"roup":13080,"ĠgÃ¶rÃ¼ntÃ¼leri":13081,"ĠMÃ¼slÃ¼manlar":13082,"Ġprogramda":13083,"Ġdireksiyon":13084,"Ġekim":13085,"Ġbelirtiliyor":13086,"Ġkabar":13087,"ĠolursanÄ±z":13088,"abb":13089,"Ġteslimat":13090,"Ġkonsan":13091,"ĠSonrasÄ±nda":13092,"Ġkitle":13093,"ĠÃ§Ä±plak":13094,"ĠharÃ§":13095,"emediÄŁi":13096,"Ġbelirtileri":13097,"ĠKapsam":13098,"Ġromantik":13099,"Ġtarihini":13100,"Ġolu":13101,"ĠZeynep":13102,"Ġakademisyen":13103,"Ġkonumda":13104,"ĠsÄ±rala":13105,"ĠGem":13106,"ĠÃĩor":13107,"Ġsorusu":13108,"ĠKork":13109,"ĠyapÄ±yorlar":13110,"ĠgÃ¶lg":13111,"ĠMini":13112,"ĠgerektiÄŁine":13113,"ĠÄ°htiy":13114,"ĠtuÅŁuna":13115,"Ġmakul":13116,"ĠBAK":13117,"ĠHakkÄ±":13118,"ĠLir":13119,"Ä±nÄ±zla":13120,"Ġyatay":13121,"×Ĺ×Ĺ":13122,"Ġindirimli":13123,"Ġkendiniz":13124,"Ġrep":13125,"organ":13126,"ĠÄ°bn":13127,"Ġlistesinde":13128,"ĠRa":13129,"Ġbirbirini":13130,"ĠgÃ¶nderdiÄŁi":13131,"king":13132,"Ġlak":13133,"Ġtelaf":13134,"Erkek":13135,"lad":13136,"Ġyararlanmak":13137,"ĠEL":13138,"ĠsunulmaktadÄ±r":13139,"ĠDenet":13140,"ayeti":13141,"uzun":13142,"ĠBelir":13143,"ĠkÃ¶yÃ¼nde":13144,"ĠBrezilya":13145,"Ġasfalt":13146,"ĠÃĩoÄŁu":13147,"ĠkÄ±lÄ±n":13148,"way":13149,"ĠfiÅŁ":13150,"ĠKalp":13151,"Ġkatliam":13152,"ĠAP":13153,"Ġkayg":13154,"ĠÃ§Ä±kardÄ±ÄŁÄ±":13155,"sÄ±na":13156,"ĠgÃ¶sterg":13157,"ĠbuÃ§uk":13158,"ĠyÃ¶netiminin":13159,"ĠKaÄŁÄ±t":13160,"ĠsavcÄ±":13161,"ĠaÃ§Ä±lacak":13162,"Ġistismar":13163,"CD":13164,"ĠTuÄŁ":13165,"usundan":13166,"Bas":13167,"Ġhakikat":13168,"ĠÃ§alÄ±ÅŁmalarda":13169,"ĠMete":13170,"ĠMobilya":13171,"dine":13172,"Ġbulunmakta":13173,"Mev":13174,"Ã§inin":13175,"itli":13176,"ĠAnti":13177,"ĠÃ§erÃ§evede":13178,"Ġkolon":13179,"Ġtarihin":13180,"ĠYTL":13181,"ĠkatkÄ±sÄ±":13182,"inip":13183,"ĠÅŁanslÄ±":13184,"ÅŁir":13185,"ĠHasta":13186,"Ġderim":13187,"ĠkararÄ±n":13188,"ĠdÃ¼ÅŁÃ¼nmek":13189,"Ġmekanik":13190,"ĠTeh":13191,"ĠRÄ±za":13192,"cay":13193,"Ġpembe":13194,"Ġolmam":13195,"ĠÅŀirketi":13196,"Ġorjinal":13197,"ĠgÃ¼nÃ¼ne":13198,"Ã±":13199,"ĠUmarÄ±m":13200,"ĠanlaÅŁÄ±lÄ±r":13201,"olsun":13202,"ĠdosyalarÄ±":13203,"ĠbÃ¶lÃ¼mleri":13204,"zim":13205,"Cev":13206,"Ġolabilmektedir":13207,"ĠmÃ¼zaker":13208,"Ä±lÄ±yorum":13209,"ĠÃ¶ngÃ¶rÃ¼len":13210,"ĠyÄ±ldÄ±zÄ±":13211,"osa":13212,"ilmekte":13213,"Ġertel":13214,"wn":13215,"ĠyaÅŁÄ±ndan":13216,"ĠHo":13217,"SL":13218,"ĠmodÃ¼l":13219,"Ġoluyoruz":13220,"sada":13221,"inizdeki":13222,"ĠsoÄŁut":13223,"ĠsÄ±ralarÄ±nda":13224,"ĠÃ§alÄ±ÅŁmaktadÄ±r":13225,"alÄ±dÄ±r":13226,"Film":13227,"ERK":13228,"ĠkullanÄ±cÄ±lara":13229,"ĠÃ¼mmet":13230,"Ġsaatler":13231,"Ġsistemde":13232,"siyum":13233,"Ġkala":13234,"Ġmasaya":13235,"aÄŁan":13236,"Ġnikah":13237,"ĠatÄ±n":13238,"ĠkolaylÄ±k":13239,"Ġokumaya":13240,"ĠÃľrÃ¼nler":13241,"Ġaileler":13242,"ĠGider":13243,"ĠAvustralya":13244,"Ot":13245,"ĠavantajlÄ±":13246,"mon":13247,"Ġucu":13248,"ĠBlog":13249,"Ġbenzet":13250,"Ġhususunda":13251,"ĠAlex":13252,"ĠÃ§Ä±ktÄ±ÄŁÄ±nÄ±":13253,"ĠSinema":13254,"ĠsahasÄ±nda":13255,"Ġkatma":13256,"âĢ¦.":13257,"alÄ±ÄŁÄ±n":13258,"ĠayrÄ±calÄ±k":13259,"ited":13260,"lanÄ±p":13261,"Ġisteriz":13262,"ĠtÃ¼rkiye":13263,"Ġsevimli":13264,"ĠmÄ±sÄ±r":13265,"Ġprograma":13266,"emiÅŁtir":13267,"ĀĀ":13268,"ĠvatandaÅŁÄ±":13269,"Ġengellemek":13270,"ĠaskÄ±":13271,"ĠsÄ±rf":13272,"ĠÃĸzcan":13273,"BÄ°T":13274,"ĠoluÅŁturma":13275,"Ġulus":13276,"DevamÄ±":13277,"amadÄ±m":13278,"ĠbaÅŁarÄ±sÄ±":13279,"Ġtuhaf":13280,"ĠÃ¶rnekler":13281,"Ä±lmadan":13282,"Ġnerde":13283,"ĠFay":13284,"nes":13285,"Ġarsa":13286,"sÄ±nÄ±f":13287,"ĠYGS":13288,"ĠkurtuluÅŁ":13289,"Ñı":13290,"ĠCoÅŁ":13291,"ĠbakÄ±r":13292,"ĠdoÄŁrultu":13293,"Ġbirisidir":13294,"Ġyara":13295,"Ġzorunludur":13296,"Ġfl":13297,"Ġ900":13298,"ĠgÃ¶rdÃ¼ÄŁÃ¼mÃ¼z":13299,"ĠBeden":13300,"ĠOne":13301,"ĠsÄ±Ã§":13302,"Ġprosed":13303,"ĠbÃ¶lgeler":13304,"ĠBelÃ§ika":13305,"ĠZiya":13306,"ĠbÃ¶lÃ¼mÃ¼nden":13307,"Ġsamim":13308,"ty":13309,"DEN":13310,"Ġmp":13311,"Ġediniz":13312,"ĠIr":13313,"ĠsÃ¼reyle":13314,"mun":13315,"Ġcuma":13316,"Ġgiyin":13317,"ĠKAY":13318,"Ġyorumu":13319,"ĠÃ¶nÃ¼ndeki":13320,"edd":13321,"lanmaya":13322,"Ġkablosuz":13323,"ĠsaklÄ±":13324,"ĠbulaÅŁ":13325,"ĠimalatÄ±":13326,"ms":13327,"Ġnitelikte":13328,"Program":13329,"ĠdeÄŁerlendirmek":13330,"ÅŁar":13331,"olay":13332,"ĠkalÄ±ntÄ±":13333,"ĠKastamonu":13334,"ĠOK":13335,"Ġkoalisyon":13336,"ĠpiÅŁman":13337,"ĠgÃ¶kyÃ¼z":13338,"ĠMekt":13339,"ĠihtiyacÄ±mÄ±z":13340,"ĠbÃ¶lgelerinde":13341,"Ġkurumu":13342,"Ġseviye":13343,"ĠyÃ¼zyÄ±lÄ±n":13344,"ĠbÄ±rakan":13345,"ĠDÃ¼nyada":13346,"Ã¼lk":13347,"karahisar":13348,"Ġvaat":13349,"ĠkendiliÄŁinden":13350,"temiz":13351,"ĠniÅŁan":13352,"ĠNuri":13353,"Ä°STANBUL":13354,"ĠÃĸnder":13355,"ĠMax":13356,"cÄ±mÄ±z":13357,"ĠyatÄ±rÄ±mlar":13358,"Ġhelikopter":13359,"Ġ1998":13360,"ĠWat":13361,"ĠDA":13362,"Ġmg":13363,"aÃ§Ä±k":13364,"ĠÃ§ocukluk":13365,"ĠGezi":13366,"ĠdÃ¼nyasÄ±na":13367,"ĠÃ¼stelik":13368,"ĠaÃ§Ä±sÄ±":13369,"ĠtarafÄ±na":13370,"ĠgeÃ§irildi":13371,"cer":13372,"elerindeki":13373,"AÅŁaÄŁÄ±":13374,"ĠÃĿ":13375,"Ġturistik":13376,"ĠChar":13377,"ĠÄ°Ã§inde":13378,"dÃ¼zÃ¼":13379,"ATI":13380,"ĠKÃ¼tahya":13381,"giniz":13382,"ĠÃ¢yet":13383,"Sal":13384,"cileri":13385,"ĠBÃ¶":13386,"Ġyemekler":13387,"ĠSanatlar":13388,"Ġatom":13389,"ĠÃ§Ä±kmaz":13390,",,":13391,"lendiÄŁini":13392,"Ġdonan":13393,"OJ":13394,"Â²":13395,"ĠAskeri":13396,"ĠÃ§ekirdek":13397,"Ġaram":13398,"ĠÅŁube":13399,"ĠYÃ¼cel":13400,"ĠEyÃ¼p":13401,"atih":13402,"avir":13403,"ĠkararÄ±nÄ±n":13404,"Ġbulabilir":13405,"ĠPak":13406,"ĠgerÃ§ekÃ§i":13407,"eve":13408,"Ġdereceye":13409,"Ġpoli":13410,"Ġhizmetlerin":13411,"Ġaksi":13412,"Ġbirikim":13413,"fice":13414,"ĠyaÅŁÄ±":13415,"Ġ63":13416,"ĠkaÄŁÄ±dÄ±":13417,"ĠfÃ¼z":13418,"Ġpantolon":13419,"Ġverdiler":13420,"ÃĤ":13421,"Ġnedenleri":13422,"ĠimkÃ¢nÄ±":13423,"ĠmÃ¼hendislik":13424,"ĠdakikalÄ±k":13425,"Ġnur":13426,"irmen":13427,"ĠyÃ¼rÃ¼ten":13428,"ew":13429,"ĠsaÄŁlayabilirsiniz":13430,"ĠheyecanlÄ±":13431,"ĠZeki":13432,"erin":13433,"eld":13434,"ĠkomÅŁ":13435,"Ġkorkut":13436,"ĠÃ¼":13437,"ĠmeraklÄ±":13438,"alamaya":13439,"Ġaradan":13440,"incisi":13441,"Yal":13442,"anÄ±zda":13443,"Ġfren":13444,"opi":13445,"Ġmemuru":13446,"ilk":13447,"Ġmiz":13448,"ĠLog":13449,"ics":13450,"Ġvurdu":13451,"ĠsavaÅŁÄ±n":13452,"ĠkoÅŁullarda":13453,"ĠerkeÄŁin":13454,"Ġanlaya":13455,"main":13456,"ĠVeri":13457,"ĠSeyahat":13458,"Ġï":13459,"ĠVergisi":13460,"ĠErzincan":13461,"ĠKonak":13462,"ĠUÃ§ak":13463,"Ġ78":13464,"Ã§ay":13465,"Ġokulun":13466,"lerse":13467,"ĠatÄ±yor":13468,"ĠParla":13469,"ĠbaÅŁlamasÄ±":13470,"ĠDemirel":13471,"ĠÅŁur":13472,"ĠIÅŁ":13473,"ĠAkif":13474,"Ġayni":13475,"ĠTap":13476,"ĠÅŁÃ¼phe":13477,"FETÃĸ":13478,"Ġkonudaki":13479,"ĠprogramÄ±nÄ±n":13480,"ĠkandÄ±r":13481,"atÄ±cÄ±":13482,"Ġtrib":13483,"Fran":13484,"asÄ±dÄ±r":13485,"Ġilkokul":13486,"ĠBlu":13487,"ĠdevamÄ±nÄ±":13488,"Ġzordur":13489,"ĠÃ¶ÄŁretmeni":13490,"ĠsayÄ±larÄ±":13491,"Ġtutarak":13492,"ĠBirkaÃ§":13493,"ĠToplu":13494,"Ġacel":13495,"ĠformÃ¼l":13496,"Ġatama":13497,"Ġkadrosu":13498,"ĠfaydalarÄ±":13499,"ĠsÄ±ralan":13500,"Ġnedenlerle":13501,"ĠkaÅŁÄ±k":13502,"ĠfaydasÄ±":13503,"Ġmesele":13504,"Ġtesisi":13505,"Ġotelleri":13506,"tÃ¼lÃ¼":13507,"Ol":13508,"Ġbulunacak":13509,"ĠAmir":13510,"ĠyapÄ±sÄ±nÄ±":13511,"Ä±ysa":13512,"lÄ±klarÄ±nÄ±":13513,"hendisi":13514,"eliÄŁin":13515,"Ġtakibi":13516,"Ġguzel":13517,"lÃ¼kleri":13518,"ĠÅŁimdilik":13519,"ĠdavanÄ±n":13520,"ĠmÃ¼ÅŁterilerimizin":13521,"ĠErg":13522,"ĠbaÅŁkent":13523,"Ġversin":13524,"ĠkÃ¼fÃ¼r":13525,"ubay":13526,"ĠtanÄ±mak":13527,"ĠÅŁampiyonluk":13528,"ĠteÅŁhis":13529,"Ġtelefonla":13530,"Ġsesleri":13531,"ĠModelleri":13532,"MK":13533,"ĠoluÅŁturulmasÄ±":13534,"ĠÄ°lkÃ¶ÄŁretim":13535,"abilitasyon":13536,"ĠaÃ§Ä±lmÄ±ÅŁ":13537,"iÄŁde":13538,"Ä°k":13539,"Ġfeth":13540,"ĠÃ¶dÃ¼n":13541,"ĠalÄ±ndÄ±ÄŁÄ±nda":13542,"ĠBoya":13543,"ĠGÃ¶Ã§":13544,"ĠkalkÄ±n":13545,"ĠNok":13546,"Ġkalor":13547,"ALI":13548,"asp":13549,"Ã¼phane":13550,"ĠGÃ¶re":13551,"Ġkonumu":13552,"Ġkonusunu":13553,"pik":13554,"ĠolmadÄ±ÄŁÄ±na":13555,"ĠMÃ¼s":13556,"Ġafet":13557,"ĠAkÅŁ":13558,"ĠÅŀampiyonlar":13559,"KiÅŁ":13560,"ila":13561,"Ġoluruz":13562,"ĠsÄ±caklÄ±ÄŁÄ±":13563,"ĠÄ°lhan":13564,"Kitap":13565,"fte":13566,"ĠEz":13567,"ĠyaÅŁayacak":13568,"ĠgÃ¶rdÃ¼ÄŁÃ¼m":13569,"ĠDoÄŁa":13570,"ĠSÃ¶zleri":13571,"ĠgÃ¶rÃ¼leb":13572,"Mak":13573,"ĠMakine":13574,"Ġbilmem":13575,"tibiyotik":13576,"Ġsunacak":13577,"ĠBilin":13578,"baz":13579,"ĠsaÃ§ma":13580,"ĠuÄŁruna":13581,"ĠSertif":13582,"Ä°ngilizce":13583,"Ġkoyan":13584,"box":13585,"ĠÃ§arpÄ±ÅŁ":13586,"ĠkurtarÄ±":13587,"hh":13588,"Ġatma":13589,"ĠProfesyonel":13590,"ĠsonuÃ§ta":13591,"ĠÃ¼lkelere":13592,"ĠbozukluÄŁu":13593,"ĠGid":13594,"Ġpromosyon":13595,"ĠgÃ¼lÃ¼ms":13596,"ĠHrist":13597,"Ġsipar":13598,"ĠÃ§Ä±kÄ±ÅŁÄ±":13599,"Ġfiziki":13600,"Ġitfaiye":13601,"ĠeÄŁitmen":13602,"iyeler":13603,"Ġdikkatini":13604,"alleri":13605,"izma":13606,"ĠliralÄ±k":13607,"Ġinternetten":13608,"Ġkarab":13609,"Ġkoyarak":13610,"Ġanimasyon":13611,"ART":13612,"ĠoÄŁl":13613,"Ġmaddesine":13614,"ĠalgÄ±lan":13615,"ĠAmasya":13616,"ĠMacar":13617,"kest":13618,"ĠprogramÄ±nÄ±":13619,"ĠAlb":13620,"ĠTed":13621,"ĠBursaspor":13622,"ĠBlack":13623,"ĠdesteÄŁini":13624,"ĠyÃ¶netiminde":13625,"ĠhatÄ±rlatan":13626,"ĠgÃ¶rÃ¼ÅŁÃ¼":13627,"Ġzihniyet":13628,"Ġfrekans":13629,"CE":13630,"Ġmum":13631,"Ġingilizce":13632,"OsmanlÄ±":13633,"',":13634,"ĠkonuÅŁmak":13635,"ĠDeÄŁiÅŁiklik":13636,"Ġkurallar":13637,"Ġseans":13638,"ĠendÃ¼striyel":13639,"Ġihrac":13640,"Ġelit":13641,"ĠÅŁehirler":13642,"iba":13643,"Ã¼sk":13644,"ĠDevletleri":13645,"ĠTÃ¼rklerin":13646,"ĠmÃ¼him":13647,"ĠLaz":13648,"ĠyazÄ±p":13649,"ilerimiz":13650,"Ġdesteklem":13651,"Ġsendro":13652,"Ġrev":13653,"iirt":13654,"Ñĭ":13655,"Ġtakvim":13656,"ÙĪ":13657,"Ġbron":13658,"Ġbilmiyor":13659,"Ġbekler":13660,"wood":13661,"ĠkaplÄ±":13662,"Ä±nÄ±zdaki":13663,"Ã»lullah":13664,"ĠaÃ§Ä±ktÄ±r":13665,"lot":13666,"ĠHele":13667,"yem":13668,"ĠHÃ¼k":13669,"ĠÄ°dare":13670,"ĠaÅŁaÄŁÄ±ya":13671,"Ġuyu":13672,"ĠÃ§alÄ±ÅŁmasÄ±nÄ±":13673,"--------":13674,"ĠvideolarÄ±":13675,"ĠgÃ¶rÃ¼ntÃ¼sÃ¼":13676,"ĠortaÄŁÄ±":13677,"MB":13678,"Ä±lamaz":13679,"ĠbulduÄŁu":13680,"Ġkre":13681,"Ã¢d":13682,"Ġbilgisay":13683,"Ġtahmini":13684,"ĠbakÄ±mlÄ±":13685,"Ġverebilirsiniz":13686,"ezya":13687,"Ġdub":13688,"ĠsayÄ±sÄ±nda":13689,"alÄ±p":13690,"last":13691,"Ġmerakla":13692,"Ġov":13693,"ĠarÄ±ndÄ±r":13694,"leÅŁtirilmiÅŁ":13695,"ĠoluÅŁturmaktadÄ±r":13696,"caya":13697,"lilere":13698,"ĠÃ¼lkelerinde":13699,"tedir":13700,"Ã¼ri":13701,"DER":13702,"mart":13703,"Â·":13704,"Ġandan":13705,"ĠPiyasasÄ±":13706,"ĠtaraflÄ±":13707,"ĠÅŀar":13708,"ĠfiyatlarÄ±nÄ±":13709,"tÃ¼d":13710,"ĠgÃ¶stermiÅŁ":13711,"rasÄ±":13712,"Ġreaksiyon":13713,"ĠÅŁaÅŁkÄ±n":13714,"ĠÃ§alÄ±ÅŁmayÄ±":13715,"Ã¼ltÃ¼":13716,"Ġdeh":13717,"ĠÃ§Ä±kabilir":13718,"ĠaÃ§arak":13719,"Ġrahatla":13720,"ĠTedavi":13721,"ĠAcÄ±":13722,"ĠÅŁeylerin":13723,"ĠsigortasÄ±":13724,"ruz":13725,"ĠÃ§ocuklarda":13726,"Ġlaik":13727,"gov":13728,"ĠKelim":13729,"ansa":13730,"ĠhatalÄ±":13731,"Ġvaj":13732,"taurant":13733,"Ġ67":13734,"Ġmuhasebe":13735,"ĠyayÄ±nladÄ±":13736,"ĠÅŁarkÄ±cÄ±":13737,"leden":13738,"Ġistin":13739,"ĠSy":13740,"ĠdÃ¼kk":13741,"ĠKÃ¼rdistan":13742,"ĠgÃ¶zlerini":13743,"2007":13744,"ĠyapÄ±lÄ±rken":13745,"LAH":13746,"ĠMarmar":13747,"ĠTom":13748,"Ġsokakta":13749,"ĠMÃ¼slÃ¼manlarÄ±n":13750,"ĠDÃ¶nemi":13751,"Ġokullarda":13752,"Kaz":13753,"Ä±lmalÄ±":13754,"ĠEÅŁya":13755,"ĠDemokrasi":13756,"hael":13757,"Ġbine":13758,"ĠÄ°ÅŁÃ§i":13759,"lil":13760,"Web":13761,"ĠprogramÄ±n":13762,"ĠtÃ¼rb":13763,"ĠÄ±sÄ±tma":13764,"Ġtaktir":13765,"ĠsaygÄ±n":13766,"Ġdestekli":13767,"ĠÃ§eÅŁidi":13768,"ĠNerede":13769,"ĠsÃ¶ylenen":13770,"Ġtaciz":13771,"ĠsÃ¶ylÃ¼yorum":13772,"Ġmerhamet":13773,"Ġhor":13774,"ĠÄ±z":13775,"Konya":13776,"Ġekonomisi":13777,"Ä±ÅŁÄ±klÄ±":13778,"ĠÄ°stih":13779,"ĠSonuÃ§larÄ±":13780,"ĠGenÃ§ler":13781,"ĠHazine":13782,"Ġnorm":13783,"ĠBilgisi":13784,"ĠYÄ±llÄ±k":13785,"ĠArk":13786,"ĠÃ¶nlemler":13787,"ĠHikmet":13788,"UB":13789,"ÄŁindeki":13790,"ĠmakinasÄ±":13791,"Ġhost":13792,"Ġfan":13793,"ĠÃ§ekip":13794,"Ġdurumdur":13795,"Ãľst":13796,"ĠÅŀimÅŁek":13797,"ĠmÃ¼cadelede":13798,"minin":13799,"ĠmÃ¢n":13800,"ĠNihat":13801,"onim":13802,"Ġkabuk":13803,"Ġidam":13804,"ĠOrganize":13805,"ĠÃ¶nemine":13806,"App":13807,"ĠEkrem":13808,"ĠZirv":13809,"ÅŁten":13810,"ĠteÅŁeb":13811,"ĠiÅŁtah":13812,"ĠGenelkurmay":13813,"ĠhalkÄ±na":13814,"ĠÄ±ÅŁÄ±ÄŁÄ±nda":13815,"urat":13816,"Ġobjektif":13817,"ĠSGK":13818,"ĠdosyasÄ±":13819,"FotoÄŁraf":13820,"ĠÃ¶ÄŁrendim":13821,"ĠÃĸÄŁ":13822,"ĠyÃ¶nÃ¼":13823,"ĠkullanÄ±lmÄ±ÅŁ":13824,"reÄŁ":13825,"ĠdÃ¼ÅŁmÃ¼ÅŁ":13826,"Ġodalar":13827,"ĠAÅŁaÄŁÄ±daki":13828,"Ä±laÅŁtÄ±r":13829,"ĠbakÄ±yor":13830,"Ġiskel":13831,"ĠÄ°zle":13832,"uj":13833,"gusu":13834,"ĠBizi":13835,"ĠAdasÄ±":13836,"Ġevleri":13837,"omen":13838,"Ġbelirtiyor":13839,
[...]
